#version: 0.2 - Trained by `huggingface/tokenizers`
Ġ Ġ
č Ċ
Ġ čĊ
ĠĠ ĠĠ
ĠĠ Ġ
e r
= =
e t
) ;
ĠĠĠĠ ĠĠĠ
o n
a r
s t
Ġ =
Ġ c
i n
o r
e s
a t
Ġ {
l e
Ġ }
Ġ a
ĠĠĠĠ ĠĠĠĠĠĠĠ
a l
== ==
i t
l et
( '
ĠĠĠĠ Ġ
c t
Ġ '
Ġ t
Ġ r
Ġc on
S t
Ġ n
in g
u b
Ġ let
ar g
at e
st ub
Ġ m
m e
Ġ (
r o
n t
v al
i f
' );
r ing
s s
s e
arg s
r e
Ġt h
w a
d e
a n
' ,
wa it
Ġa wait
u r
e w
s o
r or
Ġ E
n c
u e
ĠĠĠĠ ĠĠĠĠĠĠĠĠĠĠĠ
so le
Ġcon sole
Ġr et
ar b
R es
g et
ĠĠĠĠ čĊ
Ġn ew
u l
Ġ if
ur n
arb le
s h
e y
q u
Ġ o
a me
p e
) );
ĠĠ čĊ
St ring
l o
w n
==== ====
f er
Ġ ĉ
o l
Ġ args
p er
f o
t o
Ġcon st
i on
r ror
Ġret urn
St ate
wn er
Ġ p
ul t
u t
er y
s y
n d
sy nc
ro w
O N
ĠE rror
Ġ +
Ġth row
Ġ e
Ġ stub
Ġa sync
y t
yt es
val ue
in fo
S ON
J SON
i s
ss et
s on
K ey
u m
a per
] ;
Ġ B
b er
um ber
i st
j son
t r
ult s
( );
ol or
o de
to String
sh i
Ġr es
qu ery
Ġ C
json Res
shi m
u f
Ġo f
ro m
t h
I n
uf fer
N ame
c h
an s
lo g
a ct
a d
Ġ A
Ġ f
Ġm arble
Ġ d
r es
er r
Ġr e
m p
Ġ query
Ġ shim
n g
me nt
st ring
Ġt r
o t
a ss
Ġth is
pe ct
x pect
Ġĉ ĉ
f rom
A s
e d
o d
ng th
le ngth
k e
( )
r i
g e
B ytes
Ġ !
h a
ar se
Ġ jsonRes
t x
O wner
ĠB uffer
Ġ s
ĠĠĠĠ ĠĠĠĠčĊ
if y
Res ults
at ion
string ify
u ment
Ġ b
== =
Ġ arg
Ġ( !
Ġarg ument
er ror
get State
l ass
Ġc tx
Ġc olor
c ode
Ġm et
tr act
at or
# #
h od
Ġa sset
Ġc ar
a m
Ġ} );
re ate
or d
r et
a i
As Bytes
c e
l l
at a
Ġo wner
b ytes
Ġ st
e x
p ut
ct x
er ator
Ġ JSON
o u
y pe
R e
xpect ing
ans fer
m arble
put State
in code
I d
i re
ou nt
Ġ in
at ch
qu ire
Ġmet hod
Ġre quire
Ġargument s
ar am
ct ion
o c
N umber
Ġ i
T r
Ġn umber
Ġe x
on tract
ha incode
ĠĠĠĠ ĠĠĠĠĠ
or re
u n
Ġn ot
orre ct
ar t
( ));
I nc
Ġt o
Inc orrect
p on
es s
c c
ĠE xpecting
Ġp aper
pon se
Ġ get
Ġ 1
(' ========
I D
c ar
ex t
a ke
val bytes
' ;
an ge
k ey
St ub
e nt
C lass
Ġ it
Ġn ame
' )
Ġthis Class
Ġ ========
Ġ In
Ġc atch
ĠĠĠĠ ĠĠĠĠĠĠĠĠĠĠĠĠĠĠĠ
Ġ [
=== ');
c ord
] );
p aper
Ġ= >
u s
a b
i z
le d
i l
ode l
Ġ :
} ;
ll Results
un ction
Ġtr y
Ġ <
i d
Ġ "
o mp
p arse
Q u
i al
Qu ery
cc ess
0 0
Ġm odel
ĠjsonRes p
Ġm ake
Tr ansfer
c n
Ġ======== ===');
let e
n ame
Ġ{ };
l i
g er
a y
o ul
oul d
iz e
P aper
sh ould
Ġb e
u ccess
m ount
M arble
ut il
==== =
A sset
Ġ! =
- -
Ġ 0
b j
V al
e ct
t y
Ġ( )
er s
Ġex ist
('======== =====
Ġp arse
I nt
de x
R ange
lo ad
Re cord
o m
Ġ S
T ype
I t
( {
de lete
u st
Ġquery String
Ġparse Int
ret urn
ĠC haincode
f cn
pe nd
on t
| |
Ġ ||
] .
Ġ h
A R
ut f
an d
B y
s uccess
u sh
it e
Ġf or
L ist
p ush
Ġcar s
Ġ w
F or
A nd
o s
ay load
[ '
c olor
i me
Ġd o
al l
It erator
a se
aram s
v o
Val ue
v e
Ġa mount
Ġdo es
ont ext
ĠB val
a sset
Ġ} ;
on ation
' ));
or y
C omp
Ġĉĉ ĉ
Ġe nd
Ġ! ==
an ce
() )
) ));
ai led
Ġm ust
C ar
ist ory
ĠIn it
F unction
ss u
oc k
ssu er
aram et
it y
And P
c reate
Ġmarble Name
bj ect
r u
aramet ers
Ġres ults
vo ke
Ġth e
ri c
T o
Ġnew Owner
Function AndP
FunctionAndP arameters
e m
ab ric
in on
get FunctionAndParameters
Ġit erator
f abric
mp ty
ĠA val
os ite
it h
u p
) .
Ġ v
F ailed
osite Key
l es
u nd
C ontract
arb les
t e
st a
us er
Ġ} ,
c on
Comp ositeKey
p ro
Ġc reate
ct or
Ġ 2
act ion
Ġc lass
ol d
o f
ans action
om m
H istory
ĠĠĠĠ ĠĠĠĠ
$ {
ad ata
A val
T ime
jsonRes p
st art
( "
b e
Ġ value
Ġa llResults
res ults
Ġ ===
l lo
Ġst art
A llResults
Ġ %
C ontext
(' -
p arams
D ate
i le
Ġpaper Number
M arbles
Ġh old
marble Name
Ġs inon
a p
i c
o k
t ype
oc Type
n o
s et
' ];
Ġ is
" :
Ġst ate
d ate
ĠA valbytes
L o
## ##
u se
er t
B uffer
Ġres ponse
er C
qu al
T AR
n ew
TAR T
Res ult
ai l
ĠS TART
] ,
Ġe xpect
ur re
e qual
Ġend Key
c ial
urre nt
omm er
ommer cial
f or
Ġ 4
o wner
li ent
n umber
( `
l se
In dex
a ge
res ponse
Ġ fo
Ġtr ansfer
Ġ &
c ri
Ġ& &
Ġfo und
N D
Index Key
C olor
Ġe lse
ru g
B val
e n
L ed
Led ger
Ġcar AsBytes
Ġc h
` );
Query Result
ĠE ND
Ġ key
or t
ri ct
O bject
Ġst rict
Name IndexKey
ĠC ontract
al se
ommercial Paper
ĠC ommercialPaper
Ġ -
Ġ 3
As bytes
es cri
Res ponse
de nt
c k
Ġin it
re d
By Range
Ġi ssuer
b ut
c ontract
Ġv ar
Ġp ro
ord er
Ġd ata
r g
Ġ< =
p ort
car Number
m at
up date
ĠĠĠĠ ĠĠčĊ
D ata
. /
) {
n ext
() ));
A valbytes
Ġd escri
Ġ string
: '
Ġf unction
Ġ util
Ġw h
tr i
ar k
or g
llo c
d ocType
W ith
To Transfer
Ġm ock
at us
i g
Ġf alse
all Results
response Range
query String
tri but
Ġ delete
(' ####
Ġ[ ];
m et
return s
Ġcon tract
b o
de e
Ġdescri be
Ġp ayload
i ent
for mat
Ġ user
Lo w
u y
Ġasset Transfer
al ance
to Low
erC ase
toLow erCase
a s
tr ue
" ,
m ark
Ġe mpty
s er
P ro
car AsBytes
ed Marble
('#### #
Ġmarble JSON
delete State
con st
ok mark
Ġ ${
le ctor
Ġ at
type of
Ġmet adata
Ġd onation
Date Time
ĠIn voke
sta nt
on e
Ġch ange
Ġ Record
se lector
Ġ de
Ġĉ čĊ
tribut es
paper List
Query String
e l
al led
A d
S P
tr ansaction
Ġ' ,
Ġc c
an y
S pend
======== ========
Ġs pend
Ġ json
i ate
create CompositeKey
l a
e nd
Ġat tributes
get AllResults
Ġwh ile
se d
st ance
T h
O R
p ayload
stant iate
E rror
ss ue
Ġn on
') .
v i
dent ity
e mpty
History For
r d
C haincode
dex Name
ĠĠĠĠ ĠĠĠĠĠĠĠĠĠ
re ad
sta mp
met hod
Ġc haincode
" );
q ue
Ġex te
In stance
Car Owner
Ġtr ue
ĠC reate
Ġexte nd
or k
Ġextend s
A rg
v ent
p p
color NameIndexKey
g ist
For QueryString
QueryResult ForQueryString
Ġchange CarOwner
u le
l er
te ger
and ler
Ġin teger
T x
C AR
Arg s
Ġi d
getState ByRange
le ction
ial ize
S ize
d u
Ġhold er
que st
m ock
I dentity
nc e
d ata
) )
de em
E xpecting
Ġhold ing
per ty
c alled
a g
Ġquery Results
h ar
U ser
A ll
ĠĠĠĠ ĠĠĠĠĠĠĠĠĠĠĠĠĠĠĠĠĠĠĠ
st atus
B valbytes
Ġ Ledger
D e
Ġstart Key
lo se
Ġt ype
a wait
ĠC ar
start Key
ĠInit ialize
() .
D onation
lient Identity
o okmark
Ġresults Iterator
d one
ai sed
r aised
O n
raised Value
Ġo bject
s p
transaction Context
i r
Ġc urrent
od ule
M et
a sync
9 9
du ct
ap i
mp le
c lose
j ect
j s
Ġ ha
p t
Ġ error
i v
i ssuer
F rom
ist s
Ġtr ans
le nt
Ġs ize
-- --
port s
Ġget AllResults
marble AsBytes
( [
E x
l y
read y
Ġres ult
Ġa l
lent h
Ġobject Type
ass ert
pp raisedValue
Ġm odule
' ]
ex ports
P e
results Iterator
bo x
s g
and box
: %
O f
n et
A lloc
Ġal ready
Ġa nd
Ġ order
at ient
R E
Ġĉĉ čĊ
Met adata
Ġexist s
Ġ ID
In it
B ase
P ri
Ġp arams
ab le
d On
s pend
ru ctor
Base dOn
on or
BasedOn Color
Marbles BasedOnColor
C O
Ġ un
dee p
Ġtransfer MarblesBasedOnColor
omp any
Ġre deem
Ġtransfer Marble
edMarble Name
res ol
C all
Ġs andbox
(' #
(` ${
Ġĉĉĉ ĉ
(' ./
e ck
Ġmarble ToTransfer
Ġw ith
A mount
it erator
ce iv
Ġ 5
R N
me d
O bj
ch a
in ation
Ġcar Number
Ġb uy
Ġ se
ess age
p ment
Ġre cord
ll er
D E
de d
Ġd rug
1 00
S E
Ġquery All
u nc
C h
+ +
l ist
Alloc ation
S h
Ġcurrent Owner
Ġ per
2 0
Ġf cn
val Asbytes
ĠĠĠĠ ĠĠĠĠĠĠĠĠčĊ
Th e
in it
N G
In fo
Ġs u
log ger
Ġconst ructor
so me
In voke
B alance
d onation
cha incode
R R
Tr ansaction
Ġi ssue
G et
Ġreturn ed
P ag
ir st
RR OR
With Pag
WithPag ination
set Owner
m ake
C reate
} ,
Ġf rom
ĠA sset
Ġmock Stub
Ġ P
M sg
up p
con sole
am ount
har m
a ve
k no
et ail
on ey
. ./
Results Iterator
kno wn
ad ing
a mple
Ġ _
Ġ[ ]
Ġquery Marbles
age Size
Ġchaincode Stub
CO DE
Ġde code
* *
Ġp ageSize
H andler
Ġb ookmark
O K
(' \
o ve
ĠC ontext
th row
create Stub
. _
cc ount
De lete
Ex ists
P ayload
in e
Ġis History
dee med
Ġ1 0
Ġsu per
ime stamp
ON SE
SP ONSE
RE SPONSE
Ġper son
Re ceiv
createStub Instance
Ġ update
ke n
N o
Create Asset
O rd
make Key
e st
M SP
Ġ on
Ġd ocType
stantiate d
Ġquery By
++ )
O nce
called Once
ha i
o in
as Bytes
HistoryFor Key
F unc
-- -
r y
tr ansfer
==== ===');
v es
Ġ Key
and le
in dexName
Ġtype of
w ork
Ġin dexName
er Id
oc ation
pro to
Ġex ample
================ ========
ge n
NG O
ĠIn stantiated
al let
('======== ========================
Ġa lloc
('================================ =======');
Ġget HistoryFor
) ,
an n
Ġ F
Ġthis Object
v er
ĠAsset Transfer
Ġun known
Receiv ed
" }
Ġcolor NameIndexKey
to Buffer
llo w
marble ToTransfer
{ "
d rug
A t
res s
ad d
li ce
From Contract
Ġresponse Payload
ĠB valbytes
vi ce
gist r
ot al
ĠgetHistoryFor Marble
Ord er
Ġcolor edMarble
ĠcoloredMarble ResultsIterator
ĠmarbleJSON asBytes
Ġreturned Color
Ġreturn edMarbleName
ĠĠĠĠ ĠĠ
Time stamp
Tx ID
P art
get QueryResultForQueryString
Ġget QueryResultForQueryString
Ġ Response
ch ai
v ocation
('======== ===
l ue
erC RN
fer red
Ġin vocation
p harm
resol ves
Ġ======== =
er ial
Ġinit Ledger
" )
in d
Ġs uccess
ĠE RROR
Ġalloc ate
ul l
C urrent
at h
Ġ========= ');
Pe er
org an
Ġw ork
b lue
('======== =
r ad
Ġ1 00
Ġa d
T E
a x
s inon
a ce
li b
: ');
y e
l it
Ġha s
Ġtrans a
val id
gist er
M ap
ol lection
Ad ded
v ate
Ġ ==
-- >
. .
D onor
} );
at es
Ġtransa ferred
b alance
U p
res ult
Ġallocate Spend
a v
} `);
get QueryResult
Ġv ot
E vent
S upp
w h
ation s
Ġ ('
] )));
" ;
gistr ation
Ġ< -->
C ount
th is
t er
Ġo wn
Part ial
Ġtr ansaction
D rug
F i
Ġ Re
Ġre ad
get Owner
al lo
etail s
an a
shi pment
I ssue
Ġ M
or e
g re
ri ce
get Paper
re cord
m y
P ass
c ount
t imestamp
Ġb uffer
2 2
Lo g
By Partial
f ile
Ġpaper Key
paper Key
Ġmarble Asbytes
marble Asbytes
ig n
at ur
sp lit
update Paper
b uy
Th is
Ġ Owner
M i
00 00
T om
an g
at ing
c ess
ByPartial CompositeKey
Ġc hai
(' ../
getState ByPartialCompositeKey
as k
Issue d
O rg
Car s
ar i
nt ity
ng o
Ġ Paper
net work
car s
ĠCommercialPaper Contract
irst Call
ch eck
ok o
ave l
de n
Ġm y
() ,
ing Owner
Tom oko
c omp
Ġissue DateTime
u nt
Marbles ByRange
ace Value
ĠF ab
Ġad d
o o
Tr ading
Ġm atur
ity DateTime
la ck
Ġmatur ityDateTime
Ġget MarblesByRange
a c
s ize
mock Stub
Re deemed
b lack
99 9
Ġredeem ingOwner
Ġf aceValue
ĠPaper List
proto type
ĠCommercialPaper Context
ye llow
i a
get TxID
Asset s
Ġ .
e e
p ur
Ġ' _
o ur
gre en
S e
tr y
o b
Ġt otal
Pro perty
ĠFab Car
re ject
ch el
ot ar
M ax
Ġpro duct
pt ion
Ġm oney
wh ite
get HistoryForKey
Ġget Error
ĠgetError Response
st ates
ri ana
B rad
J in
ĠS oo
Ad riana
init Func
Mi chel
ann el
Donation s
T est
ĠC olor
V ot
in a
if ic
Ġquery Car
ĠA ppraisedValue
A ppraisedValue
er vice
Up date
ĠS ize
Ġc ompany
c ompany
Ġr s
ch ase
and id
k s
List en
And Listen
Peer AndListen
ask PeerAndListen
Ġ >
p le
Ġt x
if i
Comp any
ĠqueryAll Cars
R o
i ce
ĠqueryBy String
rom i
et ch
Ġcreate Car
( (
an o
c ation
u c
H y
Ġp atient
N ext
r Value
Ġ Date
B ar
b ro
called With
y ot
Re quest
To yot
20 5
Toyot a
er ia
M ust
Ġmarble AsBytes
Must ang
Val eria
und ai
Hy undai
F ord
otar o
f in
Sh otaro
V ol
es la
pur ple
ks wa
T esla
ar av
Ġha ve
Vol kswa
Volkswa gen
A arav
N ano
P ari
T ata
o let
u ge
ol den
ig o
vi olet
Pe uge
ind igo
Fi at
Pass at
Peuge ot
H olden
P unt
T uc
ch em
Ch ery
Punt o
Tuc son
v ot
Bar ina
bro wn
a ch
Pri us
Ġm ove
pro perty
Ġre quest
Ġa n
Ġb y
f irstCall
ĉ ĉ
Ġcon t
Ġin voke
Ġ g
' :
0 1
e xpect
Ġc lient
N T
bo okmark
i m
create Instance
( ()
Ġn um
f etch
in voke
a in
Ġresponse Range
M A
c atch
ur chase
andid ate
A lice
ar ch
Tx Id
Ad d
Chaincode FromContract
Ġin dex
U t
Re gistration
Ut il
[ "
Ġ );
I s
ail able
Ġp rice
Ġn ull
Ġb atch
fetch ed
p atient
' ]);
0 2
get Args
Ġin stantiate
c lientIdentity
s Count
record s
Pri vate
Ġh istory
i es
Ġ' {"
re a
get Current
Ġ ];
f ee
split CompositeKey
Is Delete
Ġbuy er
Ġc id
ub li
Ġ' );
m essage
Sh i
A C
th e
( _
allo t
g o
ĠC lientIdentity
pro duct
Ġupdate d
is History
pharm a
C lientIdentity
u id
Ġh andle
u re
Ġse ller
Ġ ar
Ġp urchase
Ġto ken
For NGO
ĠB ookmark
ĠRecord sCount
e vent
Response Metadata
oin t
an uf
anuf act
donation Id
MSP ID
Ġnum er
ert ific
By Owner
) ');
chaincode Stub
Ġ( {
Ġ ---
v ailable
Ġe vent
f i
Ġm arbles
Ġcreate Context
resol ve
f a
lo cation
J son
Ġ Failed
E ach
transfer Marble
Ġcreate CompositeKey
Ġdrug Name
Ġ or
Util s
(' ---
Ġspend Allocation
Add ress
Ġnumer ic
wa nce
marble JSON
Registration Number
c lient
m ail
of fee
w ith
Tr ans
Ġa ss
fa ult
Ġ log
Ġpro perty
Transfer red
It em
h t
Ġ logger
Delete Asset
Ġ should
new Owner
return edMarbleName
C ode
E R
get ID
el per
U n
r ay
Ġ Marbles
: \
m ove
Ġread Marble
D etails
Ġ Handler
Ġmarble State
marble State
Ġinit Marble
spend Allocation
e q
ertific ate
Ġuser name
st ore
Ġn o
": "
Ġf ab
er ate
port er
re quest
Ġc all
se ller
ad Asset
---- ----
u g
Ġ list
vo ice
Supp ly
u dent
h andle
c all
S ervice
Ġ err
ngo RegistrationNumber
** **
Ġass ert
Ġn go
Ġe lection
for e
I ssuer
ĠĠ ĠčĊ
ha s
an et
T I
For Donor
A r
ĠqueryMarbles ByOwner
Ġ organ
st em
askPeerAndListen Stub
Ġ shipment
a sh
i p
100 0
it al
ex ists
Ġ `
Ġa s
pro v
. ')
Ro le
In stantiate
S end
with Args
Ġown ed
C ollection
Ġ D
Ġst rValue
eq l
Log ger
Ġc ase
Ġwh en
Spend Map
OR MA
buy er
Ġa ccount
ĠĠĠĠĠĠĠĠ ĠĠĠĠĠĠĠĠ
Ġch eck
it le
Ġst atus
d onor
M e
Ġp ass
Pro duct
Ġ valAsbytes
reject ed
Ġ[ '
mple ment
Ġasset JSON
chem a
Ġc omp
ĠC urrent
( /
paper net
h ic
Ġs erial
a ntity
ng ine
Shi pment
Ġh andler
romi se
getCurrent State
ate d
] ).
o ut
ur er
Update Asset
! !
L E
is ation
f ail
hic le
C A
Ġ{ "
Ġexpect ed
P er
Ġbe fore
Transfer Asset
St atus
Ġ--- ')
d At
h andler
. ');
get MSPID
in dex
shi p
" ]
Ġf ailed
iz ation
i ew
sp Id
Ġmarble name
nd er
f ul
Ġ l
100 1
Ġquery Spend
mplement ations
tr ans
Ġa ll
os er
fin ed
1 1
m it
Supp li
C ont
T A
g ing
W allet
Val id
is Issued
Amount ForDonor
a ck
re ator
anufact urer
ha ve
m oney
p os
ut h
C lient
C offee
c ommercial
commercial paper
c urrent
Ġ T
I mplementations
set Event
c ontext
ad har
Call ing
Ġ Get
Private Data
ubli c
Ġre gister
per t
met adata
add Paper
pro cess
b uffer
set Issued
Ġ Stub
get Issuer
pert ies
Ġre deemed
set Trading
able Item
Ġm essage
Ġtr ading
our se
Ġpurchase DateTime
l ate
Re deem
de fined
Ġb alance
ap p
Ġredeem DateTime
_ _
a N
b atch
u uid
or ange
paper list
Ġĉĉĉĉ ĉ
rea k
isation Role
c om
r a
a ccount
pharm anet
Redeem ing
set Redeemed
M essage
R ating
re am
w ord
is Trading
is Redeemed
ĠqueryBy Key
To ken
/ );
e ig
n Calling
invoke Func
ve hicle
H elper
C RN
f alse
m odel
I N
S erial
pe n
5 0
p ha
is N
"} }
ĠĠĠĠĠĠ ĠčĊ
Ġfab car
to t
i ve
expect ed
ĠĠĠĠĠĠĠĠ ĠĠĠĠĠĠĠĠĠĠĠĠĠĠĠĠĠĠĠ
Ġhas Next
Suppli ed
Ġtr avel
Ġb reak
isN aN
S p
c i
n ot
w r
p ath
order Id
rejected With
Ġdonation SpendMap
ĠCar Number
ry pt
o p
Ġf und
Ġd ate
red it
in ue
ĠC AR
Ġs et
f ter
tot al
Ġ N
I S
Ġin s
A L
M y
d o
qu antity
ust om
ful ly
"}} ';
._ _
Ar ray
Ġar e
e lection
s ForNGO
Ġ R
c omm
ĠĠĠĠĠĠĠĠ ĠĠĠĠĠĠĠĠčĊ
i ss
Ġ valid
p art
F ile
led ger
R ON
getStateByRange WithPagination
re gister
Asset Id
ifi ed
stem Contract
L e
Ġa vailable
Ġcont inue
F ORMA
W RON
FORMA T
WRON G
update d
s F
(' {"
Ġe n
A ccount
} `
Ġt imestamp
__ ('
m t
Ġth at
tribut e
m in
1 0
H ash
Ġ1 5
l d
Query Iterator
annel ID
c ert
In valid
ĠChaincode FromContract
all y
Chaincode Stub
ifi er
s ub
Ġquery HistoryForKey
Ġpro file
call sF
callsF ake
st r
= >
Ġ Utils
m ap
Ġf irst
m b
ri vate
proto s
in k
gen erate
B atch
1 2
C o
Ġ Object
st ate
Ġa fter
em ail
"} '));
Of Donations
\ '
Ġ load
ustom er
Ġf i
ĠA B
S TE
#### ##
Ġ3 00
Asset Exists
100 3
ublic Key
###### #
Ġ Valid
Ġ+ =
Ġ sy
C hai
Ġa ccess
Ġt itle
os p
per ation
llo wance
Ġ' ';
Ġtrans ient
.. .
E RROR
mp l
ann ot
ĠAB store
user Id
osp ital
ed ic
on ent
S Y
em ber
Ch annelID
f unction
All Assets
Ġw allet
wr ite
Ġ2 00
STE M
SY STEM
Ġit em
Get State
O wn
T R
h istory
on g
) ).
p pro
ers ion
Ġe nt
Pri ce
mb ol
ĠValid ations
Alloc ated
c ollection
val AsBytes
c a
Ġc andidate
Ġ100 3
d s
oin s
V er
Ġasset s
Ġvot er
Own Property
Ġnumber OfDonations
Ġamount Allocated
To Donation
ser ial
spend Amount
Ġ5 00
ĠamountAllocated ToDonation
p o
asset ID
Pro to
E T
i er
Ġ Order
-------- --
ier arch
Ġ' +
drug Name
total Supply
ist ri
ĠRe adAsset
reject s
se c
Ġ TransferAsset
Ġe mail
Ġv er
ierarch y
Ġ y
ĠCreate Asset
Ġbatch Coffee
lo w
key s
Ġcreate d
At tribute
Ġfund s
P E
id er
fi x
Ġbefore Each
ou nd
comp oser
romi sed
Attribute Value
Ġde fault
User Name
Ġ G
P ath
c ont
u ally
Ġ User
Ġc ert
Tr avel
Ġuser AsBytes
event ually
oint s
i ll
ĠP romise
Se c
N ew
iz ed
istri but
ay ment
Ġm atch
Ġ Query
et work
ĠĠĠĠĠĠĠĠ ĠĠ
Ġhistory Record
Ġch annel
iss ion
re fix
3 4
e mp
m art
ĠqueryMarbles WithPagination
ĠgetMarblesByRange WithPagination
th en
uy er
My Asset
C omm
eig ht
N O
c andidate
ve l
ass ign
a nt
ig in
in t
Ġ DeleteAsset
Transaction s
Ġ100 1
prov ed
} },
Ġ j
Ġc p
v ery
Ġa pp
S y
o bj
w allet
Ġ )
me m
u es
Ġ L
Ġ4 00
add ress
E ntity
contract s
Ġserial No
d es
p ass
Ġ location
Ġdonation Id
B g
M spId
T Y
ĠĠĠĠĠĠĠĠ ĠĠĠĠ
la st
Ġbuy erCRN
Ġins ert
ance Co
Ġĉĉĉ čĊ
Ġpro cess
E C
E NT
I mpl
Ġre ject
Ġv iew
Ġmoney Bytes
ĠquerySpend Allocation
Ġ2 0
mem ber
5 6
z z
us ers
- '
ol l
Ġb allot
ai d
Ġun defined
B A
E ngine
Ġs ub
ry p
donor UserName
am es
p ic
s Sec
od ity
user AsBytes
Ġuser Id
chem as
Trans ient
allo wance
c p
Ġ X
in s
la ce
uth or
istribut or
V an
an k
Ġp ath
buy erCRN
_ '
Ġc omm
llow ed
C alled
the ChannelID
Ġent ry
B ob
st rValue
equal s
Ġmock ClientIdentity
not Called
R O
a ug
ist ic
port erCRN
Ġp o
is ion
Ġres ol
ment Metadata
From Code
aug mentMetadata
augmentMetadata FromCode
Ġ UpdateAsset
Ġ{ }
CO U
Ġ(! (
00 0
Time Obj
)) )
E X
U s
Ġa ppraisedValue
ship per
organ isationRole
Ġmy Contract
P atient
Ġ q
C on
in st
Per Donation
index Of
a cc
f ailed
g h
Ġc an
un ity
const ructor
arch Key
i ed
Vot er
de b
vi ew
onent s
Ġ Test
Sp y
ierarchy Key
M ock
Ġinsert ing
Ġo bj
Re g
: "
Chaincode Impl
upp li
I P
Ġre ceiv
rea son
P arse
Ġ W
Re adAsset
COU NT
Ġs chema
AC COUNT
' },
a de
f g
lo at
pos al
lo ck
Ġvot ableItem
Ġ H
Ġ Id
Ġcreate Donation
A mt
Ġ quantity
sh ed
pe er
Ch eck
Ġ so
li very
a le
m ission
ro y
Ġs ervice
D A
()) .
e c
Ġ" %
ĠĠ ĉĉ
ur ce
n se
nc rypt
M E
b al
Ġ" '
get Call
7 5
B uyer
pro perties
"} ';
Cont ent
do ctor
Ġ Pro
ĠInit Ledger
C har
Ġf in
Ġtrans porter
Q ue
g ain
lo bal
State QueryIterator
CA l
sec ure
1 6
v ar
Ġa adhar
Ġpro ject
Ġse nder
T OR
p rice
Ġ' "}}';
re gistration
ĠChaincode Stub
has Next
le ct
Ġv ersion
" ){
E nt
F ound
St ream
Ġexist ing
mock Handler
CAl pha
A B
F I
] ]);
t ime
per ator
ret ail
t a
Ġ info
Ġret ail
ite m
Ġspend AmountForDonor
Ġspend Amt
+ '
Response Range
M ar
] ));
d etails
bo se
vot er
ain er
e lse
Ġc op
to ken
Ġ uuid
fer e
ser ver
pt s
check Supplied
checkSupplied Stub
ur r
Ġorder Id
spend Id
P oints
Ġ vehicle
Ġmock ery
../ ../
( ['
Ġm sg
de fault
P a
Peer Address
Ġ NGO
contract Implementations
el d
Ġcop ied
S TA
Ġ use
ar d
Ġadd ress
ob ile
Un it
p c
Ġp rivate
Ġin voice
of it
Ġdata Buffer
Ġsy stemContract
( !
E mail
H old
act ly
Ġcontract Instance
Pa ul
ter n
Ġtransaction s
Ġpass word
ryp to
A ccess
e al
ur l
Ex actly
T roy
p ink
Of Assets
ĠN ode
P ublicKey
o bject
le ment
Ver bose
A w
N V
Ġm edic
pro file
peration Id
C ON
e ng
Of fer
Ġ This
re store
get Metadata
be en
Context Id
mock ChaincodeImpl
getQueryResult WithPagination
} )
nc y
ce pt
Ġd onor
have OwnProperty
TY PE
te st
con ds
Get QueryResult
im al
Bg NV
it ing
Ġm ember
Ġquery Donor
ubli sh
fere nce
r pc
Ġc ollection
ol ic
Ġex p
il ity
util s
ĠS h
'] ['
ĠM y
Ġ *
gain st
f il
Ġrequire d
pro ject
' ],
b allot
p h
le ase
Ġs pe
Ġsuccess fully
Ġcompany Name
f ake
is Verbose
iz ers
med ic
' t
o me
ar n
Contract Implementations
mock Iterator
resolve ContractImplementations
f ic
Ġc ertificate
olic y
] )
Ġr o
St art
ĠA d
iz er
Ġ" ,
Ġmock PeerAddress
Pro ject
Ent er
O G
h ex
le ar
Ġorder AsBytes
udent Id
GetState ByRange
g net
n ull
the TxID
inst on
Ġso urce
a w
Ġ Number
Ġ generate
ĠS pend
Ġdo ctor
Ġdonation Map
Ġspend Amount
Ġspend PerDonation
Serial ization
Ġdefault Serialization
P refix
l ab
Ġpass ed
ĠGet AllAssets
Ġt sSec
ig ital
Ġlog ging
D etail
h old
m sg
Ġjson Record
Ġse ll
E nd
Ġ' $
M od
Ġde st
er g
Ġd one
To Send
ĠĠĠĠĠĠĠĠ ĠĠčĊ
With Exactly
calledOnce WithExactly
deb ug
uppli er
V iew
Ġ ?
Ġp ay
Ġa ction
Ġt ime
1 9
Ġ lo
or m
sh all
Ġp art
Ġf ile
unc AndP
list ing
d i
led ge
o pen
Ġt emp
ber t
oc ument
C reator
t ag
Ġ} ).
ve st
Ġ' .
Lo ad
pos it
F loat
Ġc ourse
tr avel
Rating sForNGO
" ];
S CAlpha
uf fic
ou gh
Data Buffer
Send er
in ess
With QueryString
check A
TI ON
uffic ient
ate nt
eal th
S ign
b t
Ġ /
Ġc orrect
Ġtransaction Context
Vot able
**** ****
h er
us iness
Ġ- =
E lection
P ort
get Transient
({ },
vo k
order AsBytes
Ġcontract Id
etail er
N etwork
Ġdrug Key
tern al
P late
l ine
ar y
Ġc i
Ġof fer
Mar shall
: :
get AttributeValue
Ġregister ed
\ -
l and
in voice
Asset Info
ec ut
Ġ' ',
ot str
un secure
Ġde c
Ġen ough
otstr ap
S A
Ġ Drug
Ġc ount
ĠR ule
c id
Ġ val
Ġ ...
ar m
let ed
Ġpro perties
ĠvotableItem s
N ET
in c
imal s
3 0
T ext
Ġa llowed
li cation
comp onents
Se ller
Supplied Metadata
gainst SuppliedMetadata
checkA gainstSuppliedMetadata
. `);
g rad
ad min
ex p
register Mock
usiness Network
Ġ one
ar e
Ġt map
Ġr ew
escri ption
ins pect
E Y
u ction
tr s
create dAt
Ġt est
St udent
Ġĉĉ ĠĠĠĠĠĠĠ
Ġdonation sForNGO
mock Stream
iv ity
Ġtrans porterCRN
fin anceCo
Ġevent Reg
l u
comp ile
P O
U G
Ġ ####
Ġa es
Ġp ut
ic ip
on th
Ġc re
Ġbe en
sp id
batch Id
C ase
S S
` ;
j v
ing A
('#### #######
20 20
Ġlist ing
####### ');
Ġ#### #######');
b id
f ir
st ream
Ġa ppro
Ġa uthor
de c
Ġorgan isationRole
Ġafter Each
w d
of fer
Ġsinon Chai
Ġdescri ption
Current Balance
sinon Chai
Donations ForNGO
ĠTest Context
igital Asset
N ode
p s
s c
ri e
ĠS y
my AssetId
ĠT otal
P romised
Y ou
d it
ĠĠ ĉ
Ġa ge
Ġa llowance
Ġp ag
ad er
As Promised
({ });
Ġinit ial
ĠqueryAll Spend
my AssetExists
ĠquerySpendAllocation For
i b
Ġ ledger
asset Exists
Ġcreate Spend
Ġcreate Rating
owner Id
Org an
Ġor igin
N um
h y
n ode
Ġ ,
res cri
Ġmy AssetId
Trans porter
Ġtimestamp String
erg y
Ġc o
um my
Ġresult AsBytes
Init Ledger
' }
C ertificate
', '
As Json
Ro bert
Ġg ot
" ));
Ġ org
h ing
Tx Timestamp
app raisedValue
9 8
S chemas
c ertificate
f lect
Ġd etails
asset Id
ĠĠĠĠĠĠĠĠ ĠĠĠĠĠĠĠĠĠĠĠĠĠĠĠĠĠĠĠĠĠĠĠ
client Id
compile Schemas
N ot
de code
a mp
er o
Ġtotal Supply
patient Id
A llowance
s ave
Ġ up
ch annel
Ġ> =
trans porter
ĠC annot
Re gister
ic es
Ġl and
GetQueryResult WithPagination
0 9
A N
C D
get M
ot ation
Ġcontract AsBytes
ye ar
our ce
vot erId
rescri ption
p proved
i ation
Ġ le
it ize
se archKey
Ġs ign
Ġcreate Donor
for m
cept ed
' +
1 5
i ator
v ider
Ġ ----------
Ġc redit
ĠB o
Ġw r
'] ).
.. ');
ific ation
company ID
Ġ---------- ');
L oc
] :
Ġ Donation
Ġ} )
Ġcreate NGO
im PublicKey
oint ment
4 8
T otal
ro le
ss v
Ġin put
50 9
' .
A vailable
Ġc ustomer
al ity
ing Id
Ġf s
ab li
ac ient
Un known
CON TR
abli shed
T C
m anufacturer
p lace
or ld
', [
Ġb id
Ġasset ID
') ,
Contract or
Ġdonation s
h r
s AsBytes
P RO
i pment
get PrivateData
log ging
Ġtx id
ack age
part ment
C OR
p ay
r ating
ĠĠĠĠ ĠčĊ
asset s
ternal GetStateByRange
se nder
Ġparse Float
con stant
lice nse
Ġlist OfAssets
last Name
Ġ sh
ĠB ut
Ġi dent
Ġ" ";
Chaincode Message
getCurrent User
Enter ing
, "
F und
n s
s um
') {
('../ ../../
prov ider
F n
g rpc
v info
Ġm anufacturer
re quire
Ġe ncrypt
read Asset
Ġfab protos
Le vel
Ġver ify
ĠL OG
\- \-
hy per
CONTR AC
. ",
C oins
g ed
re q
ha in
Ġi dentity
Ġmock Response
Ġtotal Spend
Ġtotal Donations
spendAllocation Amount
comm unity
Ġavailable AmountForDonor
U E
Ġ Q
contract AsBytes
++ ;
hyper ledger
B usinessNetwork
M odel
i dentity
Ġ Vot
Ġe lement
and om
ĠĠĠĠĠĠĠĠ ĠĠĠĠĠĠĠĠĠ
Of Iterator
romise OfIterator
9 7
e ver
m s
Ġe m
Ġhistory Iterator
Ġident ified
CONTRAC TOR
M C
o i
Ġ Data
Ġc rypto
Ġ( (
so met
Ġf ind
cc es
li e
ORMA L
NO T
Char lie
uncAndP arams
somet hing
N ORMAL
R etailer
] ['
m od
user name
Ġha sh
ra w
AB NORMAL
cces fully
. '
c ol
o ption
s chema
Ġ \'
ap pro
Ġcont ent
icip ant
c redit
tx ContextId
gistr ar
Ġtx Timestamp
F irstCall
P ayment
on FirstCall
As B
asset AsBytes
Ġĉĉĉĉ ĉĉ
h oc
n er
Ġs ave
Ġuser Key
M R
S uccess
Ġ Product
St amp
Ġasset Info
Ġparse d
asset JSON
Ġmock Iterator
", "
drug Key
Ġcompany CRN
pass word
Ġreceiv er
1 3
D V
b le
w inston
on s
at ure
create Context
cha in
Count er
expected Msg
ĠSy stemContract
Y e
c reator
Ġb ytes
put PrivateData
Ġ" );
sp ID
metadata ToSend
Ġresol ve
j oin
p romised
Ġp h
ist ing
Ġdata TimeObj
From Batch
irst Name
Pass eng
Assets FromBatch
=> {
get TxTimestamp
un defined
') ).
Ġkey s
Pro cess
Ġjson QueryString
Ġserial izers
ĠG en
Ġcomm odity
acc ine
7 8
p rivate
Ġc annot
Ġ' -'
ig h
Ġcontract s
Ġspend er
history Record
serial No
f s
t ext
u ck
Ġr b
Ġn ames
ha ir
asset Name
ĠĠĠĠĠĠĠĠ ĠĠĠĠĠĠĠĠĠĠĠĠčĊ
ap proved
contract Id
process Contract
1 8
i ssue
le vel
re gnet
ch o
Ġf ake
no w
eig th
}` ;
sub ject
p re
ge st
ser vice
data TimeObj
C fg
n on
q Handler
Ġ 6
Ġ J
Ġc alled
zz zz
G V
S andbox
c ourse
e p
i dent
se ll
Ġst ock
Ġw eight
user Key
Ġdata Collection
arm er
ur ance
Ġasset Buffer
Asset State
ĠP L
est ablished
ci ever
inc lu
M B
h ierarchyKey
ro ller
retail er
hair s
inclu des
9 0
B allot
M ark
a st
s lice
es ize
Ġs ufficient
ver ify
Ġlog istic
ht t
Ġexpected Msg
}` ,
Ġballot Data
F in
Ġ" +
([ ]);
Company Name
2 8
E D
Ġ ]
Ġ Property
ire dAt
For Owner
Ġresult Obj
Ġproduct ID
vot able
3 3
A uth
} }
Ġ O
or igin
query WithQueryString
Ġs upplier
Ġ--- ');
Ar r
ĠBo otstrap
L S
i mple
o perationId
Ġ peer
ex ample
donation Amount
i de
Ġ U
at ic
ĠS mart
cri pt
Ġse nd
Ġbuffer ed
Serial izer
' });
h s
Ġ Log
wh ile
Shi p
BgNV BA
Register ed
2 56
S G
u red
al pha
ĠC lient
Ġasset Name
Ġasset Id
Ġin vok
Ġuser id
our s
!! !
R et
h ospital
Ġ =====
Ġc reator
Ġm od
Ġo pts
Ġasset Key
') )
Ġfor mat
---- -
Get AllResults
ver ifier
TE D
Ġvot e
Company CRN
Proto type
Ġq Handler
urr Election
Ġlogging Service
Ġaes js
Auth Value
D O
D o
H O
M at
v ision
de partment
sy mbol
ĠS u
ru ct
History QueryIterator
sp y
Vot e
Ye ar
\ "
] ))
Ġ selector
check MspId
Ġtx Helper
STA NT
Ġspe nt
Ġem r
T H
w er
Ġc oins
Ġ+ '
Time Stamp
Ġmock Handler
ig ht
Ġdrug Object
Ġg lobal
Ġbatch Id
save AssetState
% =
C ert
P end
v Org
Ġ Transfer
Ġc age
Ġb ut
Ġ% >
Ġhold Obj
for Each
Ġdata Service
Ġcontract AsJson
Balance Of
donation SpendMap
Ġalloc ation
Ġtotal Available
Ġar ray
ĠspendAllocation s
ĠspendAllocation Id
ack ing
Ġj ob
Que ue
Points Transactions
obile Number
Ġco ver
L ine
M ember
c wd
i sh
p ackage
wait ing
Ġ======== ===
em r
Ġpro to
Ġde livery
Ġresol ves
ĠAd d
constant s
Queue Handler
0 3
h f
o Z
Ġt ext
Ġe ngine
Ġowner Id
Ġĉĉĉĉ čĊ
) ){
L I
(' ..');
On ly
Ġph one
ĠSu ccesfully
" ',
L ice
s ign
Ġ{ },
qu otation
Ġh ospital
asset Info
transaction s
vi ded
Ġngo Key
ĠVot ableItem
ĠGen erate
Prototype Of
J EC
d r
m a
Ġm ax
Ġo ld
ĠC ompany
user Type
Pro posal
Ġvot ers
EC D
e nc
o st
se conds
Ġquery Donation
ac y
Company ID
grad Coins
fir m
ECD SA
2 5
S ale
p atent
in stance
wa s
json Record
Ġbe ing
Get AllAssets
STANT S
P harm
f n
q Msg
st udentId
Ġc up
es lab
al ty
Ġm in
re ceiv
Ġ[ "
ĠS imple
en v
Ġse c
MSP Id
Log ging
ngo Query
Ġngo Query
Le ngth
Sy nc
Que ues
ĠqueryDonor RatingsForNGO
eslab on
! ');
D escription
a ccess
e llo
p late
od y
ab ility
List ing
Ġdoes n
(" ./
Ġmock Engine
upp ly
trans ient
C C
E mit
S chema
Ġ Token
Ġ valAsBytes
or ator
Ġ' -
ult is
yt e
Ġĉĉ ĠĠĠ
car e
con c
ra de
model s
ealth care
obileNumber s
ultis ig
B S
P ay
ĉ čĊ
Ġ 7
Ġ 8
Ġ url
Ġp aid
Ġget Asset
mock Engine
Update d
10 8
. ");
A P
d istributor
Ġ TimeStamp
++ ){
valid ate
TI NG
app ly
Ġvalid ate
candidate ID
Parse d
vest ment
2 000
A ction
C andidate
is c
Ġh ierarchyKey
ĠP harm
Ġitem s
orm al
Ġrew ire
Ġproto col
5 5
F ID
V AL
p ledge
Ġ ss
Ġ getState
Ġ Logger
Ġr aw
ro ll
se nt
Key s
In s
In voice
00 1
order Number
ind ing
Ġ100 0
ĠM SG
Ġadd ing
register ed
Ġfin anceCo
Ġappro ve
a adhar
o ok
er e
Ġp arameters
Ġasset String
asset String
Ġse archKey
ac cepted
cont ainer
Ġro le
' s
1 7
2 3
Ġn etwork
ol es
Ġquery NGO
Qu antity
mat erial
alled BusinessNetwork
Ex iting
invoke Chaincode
ip her
CA TE
Sy mbol
( -
B id
M oney
c m
c age
m ax
o od
w it
Ġ users
St ruct
ol low
ed s
Ġb ank
te mp
Ġĉĉĉĉ ĠĠĠĠ
av ailable
vot e
Ġsell erCRN
Ġorigin al
Ret urn
O perator
R ate
Y DV
a iting
i em
Ġ De
Ġ Helper
ub ECDSA
ul es
Ġcandidate ID
EX IS
16 09
View er
aiting List
1609 5
l ists
er ialize
Ġin c
Ġcreate Asset
Ġcurrent Balance
company CRN
Ġupdated AssetInfo
des erialize
getCurrentUser Id
ĠSimple Chaincode
C urr
R M
] +
c ce
l an
r int
u al
Ġ Name
Ġm spId
Ġget Metadata
Ġvalue Int
ĠP atient
Ġexample Metadata
ĠRe quest
ac ility
Ġapp lication
Ġsub mit
Hold Value
ecut e
0 5
H A
I z
m spid
Ġp romiseOfIterator
unt ime
Ġver ifier
ĠMy Contract
W eigth
w ib
Ġ ],
Ġe ntity
ĠC omp
ĠC omm
Ġf ollow
Ġst udent
ex isting
ent ity
Ġ[ ],
contract Instance
Ġpro p
Met hod
Ġrequest er
Ġreceiv ed
ublish er
exp iredAt
wib ble
I NG
M ON
p oint
r andom
s For
ed Proposal
Ġst atic
Ġper mission
Ġclient Travel
Comm and
shipper Id
Ġinitial ized
P A
S mart
c al
s u
re place
ire ction
Query State
li ver
property Key
Ġcomp ositeKey
!! !!
- *
R untime
T itle
st ination
Ġa ct
Ġt ag
Ġm ark
from Char
Ġst udentId
ĠS e
Ġon ly
my Collection
property Id
Ġtransient Map
ĠNode Utils
EXIS TING
ĠgetMetadata Stub
fromChar Code
4 4
E S
O r
Ġ year
Ġf uncAndParams
tx Queues
pro du
Error Msg
Msg Response
ver age
comp ositeKey
Ġproduct AsBytes
offee AsBytes
Ġretail er
Ġmedic ine
E NO
K oZ
Y I
m ssv
w s
it r
me nd
ur ation
Ġĉ ĠĠĠ
ĠA lloc
Ġin st
ĠRe ference
Ġar r
UG H
igh est
transient Map
Iz j
MON EY
ENO UGH
KoZ Izj
2 4
G A
M edic
S ub
W AR
b ase
Ġ was
st ock
Ġa pproved
Ġo perationId
ch arg
ha sh
Ġad ded
AC K
money Bytes
File Stub
Ġfi sh
Ġservice Proto
Ġpay out
T LS
d escri
d ummy
m spId
de vice
Ġf ail
ord ers
ance l
Log ged
Ġtx n
Ġpurchase Order
ĠĠĠĠĠĠĠĠĠĠĠĠĠĠĠĠ ĠĠĠĠĠĠĠĠĠĠĠĠĠĠĠĠĠĠĠ
Ġaadhar Id
medic ine
COR E
itr ation
3 6
C hain
a son
n um
Ġ ]);
le ng
ing le
In put
tx n
Ġw orld
(" ========
ic om
Lo gist
vi de
Account ID
Us ers
wit ch
descri be
Logist ic
2 6
7 6
B ookmark
V E
f ig
i ch
y Id
Ġres p
ĠĠĠĠĠĠĠĠ ĠčĊ
De posit
Ġcomp oser
election Id
getMetadata Stub
Ġ\' '
W eight
a z
Ġc om
Ġc urrElection
Ġ' \'
get PrototypeOf
ĠA vailable
ai r
Ġ" $
Function ality
aramet er
Ord ers
drug Object
Ġvot able
has OwnProperty
Cont ainer
Ġauthor ized
P olicy
b server
h elper
j A
j ob
w C
Ġ To
Ġ No
se l
lo ok
Ġre gen
erator Runtime
up gradCoins
update dAt
Ġclient Id
ER TI
Ġorgan ization
FI CATE
AsB yte
look up
Ġregen eratorRuntime
ERTI FICATE
T e
y alty
al Record
re con
lo od
th ing
() =>{
data Marshall
User Object
Info FromContract
Ġcont ext
Ġload s
ppro val
E mpty
G re
M T
Z ero
b c
b ank
c ustomer
f und
o w
tx id
Tr ade
Ġget DonationsForNGO
Asset Contract
Ġis Fin
dent ial
Ġun i
Ġrecord Counter
Se arch
product Id
12 34
Ġprocess line
Lice nse
available AmountForDonor
ĠAlloc ating
ĠisFin ite
1 4
5 00
7 75
= '
A Z
I f
i en
r ules
er ID
ĠC lass
log istic
act ivity
Ġre port
Ġs id
Ġasset AsBytes
user Name
user List
Ġde bt
ĠRe vision
ĠD irection
trans porterCRN
Ġload Id
ĠSh im
Ġsource IP
Ġsource Port
Ġdest IP
Ġdest Port
ĠRule Owner
Ġcre ating
ĠClass Type
E n
g in
Ġ Voter
get User
tri m
Pro file
assert AttributeValue
Msg QueueHandler
At trs
Util ity
product ID
Ġl ab
Ġretail erCRN
Ġval ues
C ourse
I B
N U
P L
P RE
b y
d oc
h b
r ate
ar ision
in h
se nd
an itize
get Logger
Ġparse Response
For Comp
con d
ĠĠĠĠĠĠĠĠ ĠĠĠĠĠĠ
new Logger
Ġpro vider
la g
que ue
Ġcurrent ly
Allocation s
20 19
Ġsu cce
GetState Metadata
STA TE
ĠRule Action
su per
Ġdebt or
anitize Args
ForComp arision
) }`);
= "
> ',
A T
A adhar
B ACK
M P
V accine
e ncrypt
s v
st udent
al leng
ĠE lection
get Creator
Ġs witch
ou s
00 2
Buffer Args
contract Name
Ġutil s
Ġuser ID
read File
ĠqueryAll Donations
At tributes
chai AsPromised
Up per
Ġchai AsPromised
MA L
Ġproperty Object
Ġen ergy
offer s
ĠqueryAllSpend Allocations
ĠquerySpendAllocationFor Spend
ĠJ oi
enc ode
-* -*
: [
D B
D istributor
M anufacturer
m isc
t cp
Ġ license
in ated
al ert
Ġĉ Ġ
per son
Ġf low
Ġquery Donations
Ġ(! !
load s
vo ices
te n
ĠĠĠĠĠĠĠĠ ĠĠĠčĊ
Result From
Ġpro posal
De c
RN AL
TE RNAL
ana ger
comm odity
EX TERNAL
ĠMy AssetContract
Ġpag inated
Mark et
DO OR
HO ME
receiv er
Ġ'- >',
WAR E
rules et
BACK DOOR
MAL WARE
ResultFrom Bytes
A llowed
s chemas
Ġ State
et a
at tr
Ġre q
Ġquery RatingsForNGO
Ġquery DonationsForNGO
ge nder
cc Key
Ġget All
Function s
user ID
Ġuser Asset
invoke Functionality
Ġno w
Ġshipment Key
Ġshipment Object
ĠquerySpend ForNGO
Sp lit
ph one
ĠquerySpendAllocationFor Donation
Ġpeer Org
Smart Contract
ĠqueryDonations ForDonor
m atch
m ca
q az
r c
Ġ St
Ġ The
arg et
an ies
() };
set ChaincodeStub
-------- --------
ĠW orm
75 97
ph an
di em
'} ));
98 775
ĠQ AZ
hs q
ĠLog in
Do ctor
ws x
mca fee
qaz wsx
4 9
D ave
L L
L ocation
P lan
Ġ' '
Ġo cc
to Upper
Ġb lock
ou se
parse Int
": {
spend er
Receiv er
Ġproperty Id
seller Data
Client Id
sub mit
cont ent
AN S
Passeng er
ĠSe ller
toUpper Case
! '));
= {
m d
m mend
Ġ 9
Ġ Map
qu ipment
Ġre ce
ed Bytes
Re move
Ġamount Int
Ġcreate dAt
Info Obj
some Fn
Event s
Ġhandle Message
fi Id
request erId
Per Passenger
FI X
CurrentBalance Bytes
dit ion
ciever Balance
V e
] };
d ating
f fil
y c
Ġ Update
at trs
sh a
am ing
Ġ[ ]);
il d
drug List
ĠM ath
Ġrequest ed
fg Date
Aw I
If Empty
" ].
7 7
D igitalAsset
M an
i eld
l ation
r s
Ġ ship
re port
sy stem
Ġs imPublicKey
ĠqueryAll Donor
property Object
Ġproperty Key
ca st
profile Id
Ġlo t
di gest
onth ly
sum ption
Ġ=========== ");
ighest Offer
ĠqueryAllDonor s
> =
C E
E MR
M int
i sed
l ay
t itle
et ing
Ġc lear
Ġcon firm
Ġe xpecting
query By
Ġd es
Ġs mart
Ġto pic
Ġget Logger
00 3
Ġh elper
pro p
'] ];
ĠqueryAll NGO
organ ID
Ġtx ID
fake path
Ġcommodity Id
ĠqueryAllNGO s
, '
A pp
M I
s imPublicKey
y p
Ġ $
Ġ lastName
Ġe p
Ġf ull
Results Parse
Ġget TxID
Ġget Creator
Transfer Request
For e
Ġpro ofit
end Key
ir ation
('# _
init Logging
Ġproduct Id
app ointment
Ġfirst Name
-' +
Ġuuid s
dec imals
Ġwr ite
ultisig TransferRequest
HA IN
A ME
E ND
M obile
P erC
T w
c ore
c lear
s cri
Ġ k
Ġb ill
Asset Owner
Value Id
Ġkey Mod
du ction
SE R
ĠM essage
Se conds
Ġcomp onents
Ġwr ong
PRO JEC
ffil iation
PerC ent
PROJEC T
( ...
- ${
6 4
B rie
P ut
W aitingList
c or
Ġc ash
Ġc hairs
in ternalGetStateByRange
Ġm anufact
reate d
Ġin ternalGetStateByRange
And Send
Ġĉĉĉĉ ĠĠĠ
Current AndSend
Mi ss
Vot ing
Next Msg
ER Y
Ġelection Data
ified By
serial izers
Ġmatch es
ĠTest s
Ġpag esize
Ġcredit or
onthly Fore
Brie f
CurrentAndSend NextMsg
onthlyFore cast
5 8
S T
c ase
æ ķ
Ġ eslabon
Ġp refix
row er
ad o
Re q
la use
De f
Ġpatient ID
Ġseller Data
Ġsy mbol
instance Of
produ c
Ġsucce ed
æķ °
A D
K EY
P aid
] });
f irstName
o Registered
p la
r b
r al
Ġ us
in put
Ġr ule
re move
Ġcolor s
asset Transfer
pro ofit
Init iator
Ġbuy erId
init ion
init ial
Current State
Ġset Level
Ġpo ID
object Type
eng ers
Sender Balance
rie ve
Organ ization
hoc phan
processContract Transactions
htt p
orator y
* ');
D oc
S s
r n
Ġa mt
Ġtr ade
Re con
100 2
Ġtransaction Id
ĠRe gnet
pur chase
ip ient
ĠD N
default To
("======== =====
PRE FIX
yp es
Def inition
C HAIN
M odule
d Payload
Ġ Transaction
in JSON
ate g
fer ral
th er
log s
Ġasset State
Contract Name
CompositeKey For
en ergy
Info inJSON
ĠM anufacturer
product AsBytes
current Owner
iss ing
default ContractName
Ġexp Date
Ġspe c
Sign ingId
Not e
itize n
pre v
readFile Sync
A ct
C ustomer
N ames
P oc
P ER
a k
g lobal
s anitizeArgs
t ing
Ġ String
or se
Ġa uction
get Asset
get ResultFromBytes
Ġp harm
res ident
ed Asset
ex it
orre ction
Ġ======== ');
Ġid Bytes
list OfAssets
lice nce
andid ates
comm on
ĠAd ded
Ġage nt
License Plate
alleng e
Ve hicle
" +
Q U
v ersion
St r
to pic
Ġp oll
ut es
code dPayload
Ġin vestment
asset List
create Logger
data ID
De codedPayload
ĠP lease
Ġpatient s
handle MsgResponse
New ErrorMsg
ĠQuery Assets
Ġq Msg
registration Id
fil es
ĠHelper s
CompositeKeyFor Search
3 00
F ull
] ),
f c
g n
m ore
p a
y ect
z a
Ġc lientIdentity
at s
Ġa c
Ġnew Value
ĠC ON
ĠC ERTIFICATE
Ġre ference
Ġs vinfo
ire Buffer
Int er
return ed
Ġcreate User
Ġfo od
Object Type
bo ok
Pro vided
)) ,
Ġ` ${
ĠSh ipment
Ġup dating
Pend ing
Put State
B e
O ld
V ien
c es
n ormal
v in
Ġ RE
or ed
it ies
Ġp ublicKey
ĠC h
Ġd ocument
Ġi gn
Ġw inston
And Emit
pp ing
ee ded
Ġseller Id
Ġorgan ID
pen s
acc ination
Ġlogistic s
votable Id
AndEmit Result
. ';
3 000
C p
W h
Y W
d ocument
t sSec
ch i
ch ange
mp ort
ou pon
Re flect
Ġit erate
il es
It er
ĉĉ ĉĉ
Ġcall erId
ive n
Ġcomm unity
ĠPro cess
ĠtsSec Value
Ġrew ard
sell erCRN
Miss ing
tsSec Value
C N
I U
O pts
c art
c ash
r l
sync Iterator
ode led
Ġre move
Ġquery WithQueryString
Id s
asset ToTransfer
create d
ir y
99 99
count er
go vOrg
Ġupdated Asset
Ġcheck Number
updated Asset
RO LE
Us ingA
Ġdec rypt
Mat erial
ĠPharm anet
voices Bytes
Ġrece ive
UsingA syncIterator
3 1
E N
O String
S ome
b m
c lass
d escription
e ed
m odule
o perator
Ġ quotation
Ġr ate
re dential
de livery
to IS
Ġcolor edAsset
ord in
Ġin valid
Ġ1 1
li c
read MyAsset
De fault
Ex p
TE R
Log s
fin ish
ĠD ummy
ĠQuery Utils
Ġcourse Id
form ation
roll ment
cond Call
toIS OString
ĠcoloredAsset ResultsIterator
) +
< %=
C itizen
H ospital
W r
` ,
Ġ x
Ġ uid
Ġc ipher
Ġt od
Ġm fgDate
de posit
Ġo perator
ĠC RM
Ġf n
Ġquery Content
De stination
Ġreturned Buyer
}, '
Drug Details
fi eld
Ġmatch PerCent
Parse Response
bt Obj
decode Stub
Ġcup Coffee
! ';
E l
T emp
n Paper
Ġ K
es sel
Ġ' -----
Ġm issing
Ġo pen
Ġp re
Ġp allet
Ġp olicy
Ġe hr
Ġs ingle
Ġb ook
Ġ}, {
Ġdonation Amount
el ta
Arg ument
Ġtrans port
100 00
ĠRe gister
Se lector
Ġhistory Iter
Ġmatch ing
Ġfollow ed
AT TR
ateg ory
E ve
M x
M anager
P acient
S H
T MC
a W
n ers
t ed
u d
v ices
Ġc oin
at ivity
Ġ} ));
(' ,
Ġth an
Ġreturn Obj
Ġp rescription
ĠC redit
Ġin stance
Ġex port
Stub A
om or
ru le
age ment
response Metadata
organ ization
Drug CurrentState
LE D
part icipant
updated AssetInfo
min ter
sec ret
Ġpart y
:: {
Fn StubA
Man agement
" ))
@ @
O peration
T ypes
W ireBuffer
a wr
a jv
d ation
f armer
k ed
p oints
z E
Ġ pe
ar vest
Ġ' ');
Ġt en
Ġĉ ĠĠ
Ġp lace
ĠChaincode Error
Ġchange Car
el ds
Ġal pha
Ch i
ĠAsset Exists
ari o
Ġelection Start
Ġelection End
current Balance
Con fig
Node Utils
CD elta
CHAIN CODE
awr ap
0 4
C c
C lose
F irstName
J ob
L O
R A
U rl
Y C
] [
e arn
g mail
Ġ Iterator
Ġc ode
it u
Ġm ed
re ed
arb itration
ĠB lock
Ġf unc
Owner Id
00 01
owner Name
On Market
Ġorder Number
Ġread y
Ġcompany Key
Request Key
Request ed
Ġg rpc
request er
Per son
ppro ve
Ġapp ointment
FID tag
16095 48
orse ment
R aw
` )
e b
n e
p ayment
p rescription
} /
Ġ Start
at er
ĠB allot
id erId
Ġexpect s
Ġdata Marshall
as ic
sp lice
Ġwith out
balance Key
balance Prefix
Ġcont act
AC TION
Ġorgan ToTransfer
Ġexpected Response
pic ked
Us ing
Ġaadhar Number
Ġcustomer Aadhar
lay er
ĠRegnet Helper
Cc fc
2 1
6 6
E G
P urchase
U SER
c oins
p oll
Ġ li
== "
le x
==== ==
Ġm spid
Ġm ssv
Ġm spID
Ġp arameter
Ġe nc
tr ade
Ġget Args
return AsBytes
Ġthe Module
Ġcreate Shipment
order Status
With out
Pro vider
data Owner
De vice
Ġrecord s
Balance Key
chai rs
Ġallocate d
Ġ100 2
Up dation
Ġcompany ID
Ġrequest erId
Ġclient CarOwner
Ġlog s
ER C
handle Message
buyer Data
ĠassetJSON asBytes
election Data
Ġy ield
Ġsub j
Ġdec imals
bid Price
zzzz zzzz
Updated Balance
liver ed
ĠcurrElection s
cor r
itu de
2 9
L ab
a uthor
d ing
g YI
i se
s upplier
t arget
ä ¸
Ġm ore
ĠE ngine
Ġtr uck
Ġs upply
(" ../
Ġmock Stream
Ġde vice
transaction Id
ach ine
IS TOR
ĠPro file
appro val
processContract Info
ours es
wC gYI
ISTOR Y
0 7
4 7
A p
D iem
S o
Ġ I
on Iterator
in stantiate
Res p
get Time
get Company
tr ader
() ',
Ġst r
Ġ" ",
delete AllResults
Function Name
Ġinit iator
Ġdonation Info
'] ))
spend PerDonation
Balance Val
"} '
my value
split FunctionName
patient s
ĠspendAllocation Record
spendAllocation Record
Le ase
Ġj ason
ĠĠĠĠĠĠĠĠĠĠĠĠ ĠčĊ
price Balance
option s
Pay out
ĠCON STANTS
Without Attrs
A ge
A pproved
I C
V ENT
l ations
m ain
Ġ shipper
Ġt ong
to Loc
ri x
ent ry
===== ');
Ġstart Time
================ ================
ĠP O
Ġunknown Transaction
Ġread Asset
TR ANS
So Chi
B s
E qual
R ight
T X
c N
c ipient
e hr
m obileNumbers
p ag
u ation
u dit
Ġ ){
Ġ Utility
in valid
(' _
se ats
Ġo ption
lo an
ĠB asic
Ġre view
Ġtr ader
Ġs p
parse d
user id
ic ation
Lo an
Ġcc Args
Error f
Invoke Chaincode
vot ableItem
handle QueryState
donor Query
part ner
pass engers
Offer ta
]: *');
mod ifiedBy
toLoc ale
M Q
S U
c oin
f ace
i ang
o v
p ubECDSA
Ġ You
Ġn t
get H
ult y
Ġres ource
ch at
Ġd i
res hold
() {
() }`);
Ġ======== =====');
ĠIn s
Record sCount
ĠS CDelta
create AndEmitResult
av a
Ġvot ing
atur es
ac ulty
Ġbuyer Key
TI ENT
AL SE
ĠqueryAllSpend s
Total Supply
pay able
Ġsec ret
YDV R
ĠDummy Data
deposit Balance
toLocale String
' :'
3 8
A cc
A jv
C tr
L and
N AME
f t
f ind
h ost
h ello
m an
p ace
t in
} ).
Ġ orders
at istic
Ġt reated
ĠE MR
Ġnew Member
Ġreturn ing
Ġp atent
ĠB uyer
By Travel
em per
Ġuser Type
Ġchaincode Name
mock NewErrorMsg
data Viewer
Ġerror Message
Init Spy
Transaction Spy
Get Curr
ngo Key
Company Buffer
Ġbuyer Data
out put
Cont roller
Ġregister Company
Ġexisting Drug
Ġdonor Query
ecut ed
Ġcre ation
InfoFromContract Stub
Full Year
Ġtod ay
tin chi
GetCurr Msg
F ALSE
P arameters
P ublic
i SmartContract
p ublic
p ublisher
u ring
Ġc ancel
Ġm o
Ġret rieve
Ġd uration
ent ryp
Ġstring Arr
chaincode Name
shipment Key
LE TED
Ġfi elds
ĠG ET
uncAndP ar
Passeng ers
ĠComp oser
Ġact ive
Ġocc ured
scri ber
produc erId
Inter face
entryp oint
" ).
B h
Q Q
W N
b lock
h ouse
i ke
r on
u ate
ĠĠĠĠ ĉ
al er
Ġn e
ub Key
get FullYear
Ġo ut
per mission
Ġd m
Ġd oc
ex ecute
Ġget History
Ġget Transient
ĠIn fo
ĠIn voice
create Key
response Tx
Ġat tr
data set
De livery
NG TH
Create d
Part ners
Fi IndexKey
Ġg iven
ĠĠĠĠĠĠĠĠĠĠĠĠĠĠĠĠ ĠĠĠĠĠĠĠĠĠ
ĠĠĠĠĠĠĠĠĠĠĠĠĠĠĠĠ ĠĠĠĠĠĠĠĠĠĠĠĠĠ
LE NGTH
Client IndexKey
process net
map Cfg
ERROR S
hold Obj
Sign edProposal
Ġaes Ctr
htt ps
waiting List
Ġsec ure
ĠTimeStamp Time
ĠTimeStamp Date
Ġinc ome
Ġapplication Data
iry Date
participant s
Ġjason Content
C lear
I ND
L OG
] ]
f e
å ı
ar r
le n
St ates
re w
get Seconds
Ġp ayment
ĠA S
delete MyAsset
Car Client
create MyAsset
start Date
erC ount
en erCount
Ġuser Object
Ġde leted
Ex ist
Ġun it
Cont act
Ġview DrugCurrentState
CON STANTS
BgNV H
getM onth
appro ve
Ġinvok ed
Ġopts Cp
ĠoptsCp y
9 3
C K
G IS
T U
k ill
p ublicKey
Ġ ;
Ġ Tr
Ġm obileNumbers
Ġd igitalAsset
Ġb ody
ire d
Ġ< %=
Ġĉĉĉ ĠĠĠ
ock i
order List
:' +
uy Van
pt or
balance Of
result AsBytes
Ġview History
Ġsub ject
Ġq ty
land s
are a
conc at
Allowed User
pag esize
emper ature
! `);
" },
. "
F act
H R
I nd
S I
i ep
l f
v ert
Ġa uth
Ġm ain
Ġs er
Ġasset C
ic k
Ġdelete Asset
User Key
status Code
Get QueryResultForQueryString
Ġbatch Vaccine
ER T
Ġcomp leted
Suppli er
buffer To
hold er
30 3
30 4
VAL ID
Mobile number
arvest Batch
3 02
A ss
B uy
Q Msg
R ule
e ngine
j b
o vOrg
} -${
== '
Ġc offeeAsBytes
in utes
Ġa llow
(' '));
Ġm ultisigTransferRequest
Ġf etch
Ġre ferral
Ġs im
un i
Class es
new C
urre ncy
Data Collection
Ġmock Context
some Key
ĠP er
Event Service
company Name
Request s
Trans port
current Weigth
batch Coffee
Ġĉĉĉĉĉ čĊ
Co ordin
Ġfi eld
Ġwallet BS
totalSupply Key
totalSupply Bytes
Ġaadhar No
retail erCRN
Ġsell Order
ĠtotalSupply Bytes
getM spID
PointsTransactions Key
ĠToken ERC
:[ ]});
AssetOwner ship
Ġspec ified
getResultFromBytes Stub
ĠchangeCar owner
6 7
B inding
D ocument
c rypto
g ht
n ames
t c
er point
(' ',
Ġr ating
re gistrar
get Date
tx Helper
Transfer From
Val ues
ers ity
Ġh ms
ap per
Ġpro d
Ġde n
Ġde p
iv ersity
([ {
ĠP ayment
add r
comm and
Ġy md
Ġlo an
COR D
Ġuni que
En rollment
purchase Order
pens ation
Wr apper
Ġli mit
2 7
A TION
A ffiliation
B ill
B ank
B UG
F lag
O U
S im
S cript
b i
b ody
k ta
n otar
p allet
y m
å Ī
Ġr ight
get BufferArgs
lo op
fo o
JSON asBytes
Ġre ferred
Ġowner CarClient
Re ce
By User
Comp onent
contract AsJson
Ġpro g
DE BUG
ask et
Assets ByRange
Ġpatient FirstName
aid Org
grad uate
dec rypt
sum er
LI ENT
Ġreq Json
ava Script
3 01
H ello
I g
P AR
f uncAndParams
ĠE vent
Ġre st
Ġre lation
Ġget AssetsFromBatch
ent ication
ab normal
up g
pro posal
Ġcreate AssetsFromBatch
set State
Ġinit Money
format String
Pro duction
Ġbuy Order
init Money
throw Error
Request List
ĉĉ čĊ
Private Asset
Ġtoken s
fi sh
Ġelection s
prov ers
Ġl ine
Ġent er
Ġcreated Time
des ign
gh iep
Project s
her lands
Ġle ave
Ġformat String
Mat rix
queryBy ObjectType
ĠCh eck
EG IN
E lement
M L
T T
t or
(' @
ing s
lo ye
fo od
tr a
tr uck
res p
ed H
tx Id
Ġasset Json
key To
Ġw ill
Ġ2 50
age nt
Th an
called Tw
spend erId
Ġse lf
Sh im
The Issuer
shipment Object
Ġcompany Object
company List
Ġg rade
Ġlog ged
Ġcall er
ĠD o
process line
sub string
deb tor
retail erId
View ers
fir med
getCurrentUser Type
credit or
Pend ingA
calledTw ice
A c
C LIENT
E w
E AwI
G iang
J avaScript
L A
P K
P en
Q YDV
\ .
a uction
c T
d is
e arch
h an
l Case
r an
w H
Ġ Donor
at tributes
nt ime
get All
get BalanceOf
ame lCase
ut ion
Ġf armer
Ġd on
Ġd istributor
Ġquery Selector
from JSON
ge x
util ity
ty es
Ġĉĉĉ Ġ
ru ntime
OR G
Ex F
Ġorder ID
.. ");
Ġread State
file name
Ġshipment ID
Ġcomp osite
ĠGet AssetsByRange
expected Response
Ġy et
Ġsh ow
AsB tyes
Ship per
BgNVBA o
PA TIENT
ĠpurchaseOrder Object
cN MT
ĠassetC amelCase
QYDV QQ
2 34
C T
D id
P as
c offeeAsBytes
d a
e cho
h ocki
p romiseOfIterator
r ame
w eight
y b
Ġ la
Ġ queue
); }
ĠĠĠĠĠĠĠ ĉ
Ġc b
Ġ' ]
Ġe arn
is Gre
ĠA ccess
ri p
ge ncy
ĠJSON Serializer
Qu otation
ay s
Asset Name
pend ing
By Deposit
Ġw ord
create Engine
CompositeKey ID
ĠĠĠĠĠĠĠĠ ĠĠĠĠĠĠčĊ
new Voter
ready Msg
Ġresult Iterator
SE T
Ġreturned AssetName
Current Time
Drug CompositeKeyForSearch
Ġread FileStub
ĠM ock
vot ing
property ID
property List
getCurrent Msg
Shi pping
anufact ured
Un able
ra nt
ĠR etailer
inst alledBusinessNetwork
fil ter
Ġpart icipant
financeCo Data
Num Passengers
flect Stub
pay out
Ġparsed Item
Ġfake Error
Ġfake Success
ide o
Ġ7 00
Ġraw material
registered Msg
Curr Stub
send Msg
App lication
pla za
handleMsgResponse Spy
ĠqueryContent By
(', ');
ater Than
Ġsp lit
isGre aterThan
isGreaterThan Zero
4 0
B EGIN
C redit
L y
M atch
N et
R oles
Z X
l at
o y
p olicy
s Data
t map
} ]
Ġ last
Ġ Organ
Ġ licence
or ation
or age
or rower
Ġa m
Ġ' ./
ĠE x
Ġreturn AsBytes
query Results
Ġf loat
Ġh ighestOffer
Car d
ic al
Ġissuer Id
Ġinteger t
'] )
Ġfrom Wallet
Ġ_ _
Ġno thing
Serial Number
Le ave
Ġcount er
Payment s
hospital Id
Ġ8 00
cage Id
Ġus ing
Ġpharm acy
lations Array
Giang Vien
! ");
G l
c up
g c
i mpl
o g
Ġ ********
Ġa id
it ion
let ion
Ġcon dition
re view
pe c
String Args
to s
Ġp ublish
Ġp ledge
ĠC ertificate
res ource
Ġs uppli
Ġs rc
ID s
key Mod
Ġ" "){
ĠS CAlpha
()) {
Ġdata Parsed
:' ',
Pro ofit
Ġmetadata ToSend
vi ous
Ġdrug History
Property Object
Test s
Ġclient Logged
Ġbuyer Balance
11 11
current State
current Loc
sub str
Ġload Found
Sy stem
Ġpo Key
require d
Ġmin ter
Return ing
case Name
ĠBlock ly
Rece i
Ġrest oration
Ġrelation ResultsIterator
: ${
= [
A mmend
C hairs
J V
O P
c o
j B
m age
r ary
u int
| \.
on Se
val uation
re g
Ġp late
ha ar
Ġasset Pas
Re view
create Sandbox
Ġuser Buffer
data Service
DE R
Ġsuccess ful
Ro ot
Ġclient Data
(_ _
request ed
Shipment Object
ci et
Account Balance
Ġprofile Old
Ġcandidate ToTransfer
serial izer
Ġy our
ĠH as
getM inutes
Ġ6 00
Pharm a
cal Case
Zero IfEmpty
IB U
defaultTo ZeroIfEmpty
QU ERY
Right s
getH ours
Ġlogged Client
Net herlands
|\. \
onSe condCall
ĠassetPas calCase
A pproval
G ET
O TA
S or
d ir
m odeled
n Content
p ar
Ġ gender
es e
Ġa ctor
Ġe qual
In stantiated
log AsBytes
Ġd iem
ri v
Re gistrar
Tr acking
Ġex ecute
create Hash
Ġpro vided
Ġat tribute
js nContent
"} ));
Ġproduct Key
Ġg ovOrg
Ġ{" $
Token Name
Ġload ing
PE ER
Comm ons
End orsement
Ġput State
decode d
ĠAdd ing
aadhar No
ĠComm onIterator
Ġtxn ID
vide nd
1234 56
reed om
wCgYI KoZIzj
TRANS ACTION
votableItem s
Ġauth entication
newC oll
PendingA pproval
letion Date
Sor ry
1 50
C om
G ING
J u
N hb
P re
\ ":
d raw
f irst
k w
l ai
m ary
s vinfo
Ġ qual
Ġ DE
Ġ StateQueryIterator
at al
let ter
val ues
re que
Ġreturn Value
Ġp os
Ġe al
Ġre g
Ġinit iate
update MyAsset
Ġjson Data
Ġdrug Buffer
Ġdrug Details
Ġclient ID
Ġseller Key
Ġbalance Key
Sp ain
cert WithoutAttrs
ĠH ISTORY
Ġuse d
Ġprivate Value
Ġauthor ised
upply chain
charg e
Ġcom pensation
commodity Id
ĠProcess Line
ĠPharmanet Helper
ĠPayment Recon
earch er
reque ncy
3 5
3 7
B ook
I T
O T
a ded
b ill
e quipment
f ine
f aculty
i ct
j a
r DecodedPayload
Ġc btObj
Ġ{ '
le m
an cial
Ġp res
Ġp ublisher
ist ure
query Marbles
ed MSPID
Re cieverBalance
Ġto CurrentBalance
Ġget User
For Updation
user Buffer
user Object
Ġhold AuthValue
#### #
Ġtransfer Event
red s
Ġdescri ptor
Ġmock Event
Ġdelete Cars
mark s
Tx ContextId
Ġcurrent Allowance
Met erpoint
Ġorder Key
Ġorder erId
Init ial
Ġdrug Obj
ĠcurrentOwner s
donation Data
Ġdecode Stub
transfer Event
balance Bytes
ĠRe gistrar
count ry
check Length
handle InitSpy
handle TransactionSpy
current Allowance
Ġbalance Bytes
updated Balance
Ġprofile Id
Ġsy stem
ĠbuyerCRN Found
allowance Key
cp List
buyerCRN ResponseRange
Ġproject AsBytes
item s
Ġmsg Sender
Ġgenerate Transporter
Load s
ChaincodeMessage Handler
established Msg
Emit ter
16095 50
Ġinc orrect
ĠcurrentBalance Bytes
Ġsubmit edMSPID
charg es
Logistic Unit
queue Msg
Remove CurrentAndSendNextMsg
initial ise
currentOwner s
Ġcipher Text
DrugDetails ForUpdation
currentBalance Bytes
Ġmo isture
ĠPer son
ĠmockEvent Emitter
2 00
9 6
C B
C oin
I dent
L P
U ID
X Bs
Z S
h hb
i o
p acient
al ized
Ġ( _
so urce
Ġret ry
get Drug
Ġe st
tr acking
ĠA ll
Ġquery Poc
error s
Ġi p
car Model
Ġ[ {
ĠS uccess
To Root
Ġpro yect
Data Service
ser v
sp i
Drug Object
0000 0000
Ġrequest Object
Ġg rad
Ġexpected Product
com ing
Ġins ufficient
Con sumption
ĠĠĉĉ čĊ
Ġproject ID
+' -'+
medic al
ns ion
gest ed
Ġinvok ing
Ġmod ified
Chain X
input s
redential s
lic it
Ġpe m
ĠStart Command
lex ity
uring Date
IND EX
loye e
ZX hhb
XBs ZS
ZXhhb XBsZS
1 02
C annot
I TY
L et
L ink
P lace
U N
U sed
W ork
b lood
g rade
i shed
r am
t ong
u k
u ard
Ĥ æķ°
al es
Ġ' [
ss n
re at
', ()=>{
Ġp romise
json Data
Ġd is
Ġre cipient
ce nt
Ġin formation
Ġget ChannelID
car LicensePlate
key ValueId
Ġ" -
({ "
Ġthe m
Ġcreate PO
set Re
red ict
Ġdata AsBytes
bo i
Ġuser Obj
empty List
ag ing
ĠP H
Ġupdate Shipment
shipment List
comp Key
ob server
ifi erId
Ġpatient AsBytes
Ġpatient Id
patient AsBytes
ĠR FIDtag
__(' _
state ment
Comm odity
wallet OwnerId
getCall erId
Ġmedic alRecord
ballot Id
:: /
inc ome
cho boi
course Id
origin al
Ġcage AsBytes
AP I
VAL UE
mport er
åı Ĥæķ°
0 6
H oc
M ode
O ut
P han
R L
U S
] }
c w
f ab
g ra
i et
l in
p b
Ġ V
Ġ Type
Ġ Up
Ġ Wallet
er ve
== ');
Ġ' ')
Ġ' ]:
St ock
arg ument
an ger
Ġp lease
ad ers
Ġquery AsBytes
ation Id
Ġb lood
Tr ust
Ġget InfoFromContractStub
ĠChaincode Interface
new Plate
Ġkey ValueId
next Plate
Ġmock ChaincodeImpl
Ġuser Input
data AsBytes
Ġcurrent Time
ĠgetAllResults UsingAsyncIterator
RE D
Ġper form
Transaction Id
Part ner
Ġvot ingId
Drug s
ign ation
check List
our C
Company Key
Ġby pass
Ġcont ainer
Ġlist Of
part y
Travel PerPassenger
New User
ĠH ospital
mission s
Ġsender Balance
Hold er
ĠSh ip
are house
Ġfake Ccfc
!!! ");
Ġmax Weight
temp late
NU M
submit Tx
LOG GING
=[ ];
Ġplate AsBytes
lai m
Hoc Phan
nextPlate Id
0 8
4 3
> >
B lock
C urrency
H id
I E
M ENT
P o
i k
y args
st ructor
(' ');
Ġ' "
Ġ' ).
Ġ( "
Ġ( ()
Ġnew User
ĠC ourse
ĠC ustomer
Ġf ac
Ġf iles
err ide
Ġtr uyVan
ge nt
Ġs v
car d
Ġ" "
and ard
asset Key
Ġend Time
age ncy
Ġdata set
Tx n
setOwner MSP
Ġad min
Ġad hoc
buy erId
company Id
vot ers
client Data
Ġproperty ID
seller Id
ĠD istributor
ĠĠĠĠĠĠĠĠĠĠĠĠĠĠĠĠ ĠĠĠĠĠĠĠĠčĊ
LE VE
trans it
Ġbalance Of
IN F
Ver ification
po sed
ĠĠĉĉ ĉ
Ġproperties Buffer
\-\- \-
\-\- \-\-\-
req Json
Ġsave PrivateData
sell ers
!!! "}));
aadhar Number
Ġmark s
Ġpayout Obj
doc Types
Ġclear Obj
Ġdes c
SH IP
Ġdep th
Enrollment ID
atal og
Let ter
Hid den
Ġfac ed
LEVE L
" ],
' };
) (
B uf
E st
F u
G en
M ay
W ord
Z G
a fter
r ray
t t
w arn
y M
} .
} ');
Ġ getStateByPartialCompositeKey
Ġ Student
it erate
it ution
Ġt e
Ġlet ter
ro ss
Res ource
get X
lo or
ut ure
ad haar
ĠA rray
ed ding
ex ist
Ġget BufferArgs
Range Query
Ġ2 4
(" \
Ġstate ment
Index Of
Ġmock SigningId
mock SigningId
RE CORD
Get HistoryForKey
ĠF ound
ĠRe flect
check User
Se ll
calledWith New
ach er
Ġevent s
Ġproperty Buffer
ip lo
buyer Object
"] )
do wn
ĠR aw
po st
pass port
last IndexOf
Ġfin al
Ġexp ire
exp iration
Ġappro ver
Ġle ft
ĠData Marshall
logistic s
Ġpaginated RangeQuery
yc le
ĠAS SET
bufferTo Float
Ġshow Hidden
Ġsuppli ed
! =
6 5
7 4
D uration
H E
I CO
K YC
M ut
M DA
V essel
W F
g red
l ize
p aid
s L
t s
x NT
Ã ³
Ġ Private
Ġ Role
Ġ Status
er gency
on to
Ġc ourses
in vestment
le Key
Ġa ck
ct r
Ġn eeded
Ġm an
ro l
ro up
Ġo verage
Ġe quipment
In gred
ĠA mount
Ġb eta
ou ght
Ġi mplement
Ġnot ary
parse Response
Ġh e
Ġh ealthcare
asset Json
em it
new Paper
Ġpro v
bo otstrap
vi en
Ġcurrent State
Met a
Ġorder er
Ġdrug JSON
ResultsIterator ForComparision
Ġperson Public
Order List
Peer Url
organ AsBytes
Ġtransaction AsBytes
Drug Detail
Fi sh
ana h
buy ers
ac lize
Ġtx ContextId
Company Object
Ġinvoke Chaincode
im es
patient List
request List
Ġngo RegistrationNumber
Send Msg
ĠD O
buyer Key
Ġdate Time
=> "
state Mut
Ġwallet s
Ġapp Info
ins urance
Buyer CompanyID
Ġexisting User
Unit OnMarket
test Collection
Ġpassed Bookmark
Ġcredit Note
service Proto
retailer MSP
Ġcup Id
distributor MSP
pledge Id
Ġfish es
medicine Number
Deposit PerPassenger
Ġlot Number
remove CurrentAndSendNextMsg
Ġinvestment Amount
Ġinvestment Title
Mx D
organization Name
approval s
rew ard
BgNVH Q
VALID ATION
loop Function
Pen alized
argument s
ourC up
MDA xNT
Ingred ient
stateMut ability
MDAxNT Aw
8 8
A M
C ERT
L a
P rescription
S M
b serv
g es
u Id
u ild
v ail
Ġ Quantity
ar ray
Ġc ast
at ive
ate Metadata
Ġm ap
per mit
to Bytes
Ġreturn s
Ġp layer
ut x
is S
ĠC RN
Ġre charge
Ġget Order
ID check
ĠS upplychain
And Valid
up port
be fore
Ġresponse Obj
vent ory
De leted
Ex isting
ĠP AR
throw s
.. ..
ign ore
Ġadd Drug
Ġrequest Key
Ġproperty Details
Ġpass port
ĠGet State
cont roller
candidate AsBytes
ĠL and
Ġtransporter Key
time out
Ġretail Drug
project AsBytes
Ġlo op
manufacturer MSP
cage AsBytes
ĠPatient Record
Ġalpha Stub
setState To
TT P
dir name
gra ded
AndValid ateMetadata
B ig
D ire
G roup
I AL
M ath
M achine
M anufactured
N eeded
O verage
O bserver
P P
R SA
R ich
S pec
a TX
f unc
g t
g AwI
h e
l s
l No
m all
m anufact
w W
z Y
Ġ arbitration
st at
Ġc hain
in voicesBytes
Ġ} ]);
Ġa gainst
it s
St av
St andard
Ġm onthlyForecast
re ngth
de m
ur ity
ĠE ntity
get Collection
get Default
lo yalty
Ġp la
ĠB alance
json QueryString
ĠC O
ĠA ct
Ġre voke
Ġs ame
Ġin voicesBytes
Record s
Ġfor m
Ġw eigth
Ġ3 2
next ClientId
Ġwh o
Ġcontract Name
bo ut
Ġdonation Data
Ġdonation Obj
Ġspend erId
Ġerror Result
Ġfrom Address
ĠP art
Order ed
Current User
wh oRegistered
shipment ID
ĠM ark
Org ans
property Buffer
Add CompositeKey
the Key
Ġupdated At
ure ment
Ġevent Data
Ġcomp anies
Ġbefore Transaction
Serial No
Ġfund Struct
total HoldValue
... ";
history Iterator
cont act
BA g
Mar hs
ballot Data
Ġro aming
Mod ification
CD R
Ġbid ID
ĠO bserver
Ġcoins Value
Ġfollow ing
wibble impl
helper s
yalty Management
Ġlab oratory
rate Array
-*-* -*-*
ten ded
clear Collection
proofit List
ATTR IBU
ĠIterator s
atures Needed
ĠEvent s
EAwI w
payout Obj
lexity Functions
reat ment
INF O
vail ability
gAwI BAg
Stav anger
getDefault Cfg
loyalty new
Marhs all
ATTRIBU TE
: {
B G
B urn
C ast
E F
L ot
P or
P ublish
S core
U se
b inding
p ublish
p HocPhan
s ion
Ġ ));
Ġn omor
Ġm onth
se eds
Ġth reshold
get Property
Ġo pt
Ġĉ ĠĠĠĠĠĠĠĠ
Name d
Ġf req
Ġre con
Ġĉĉ ĠĠĠĠĠĠĠĠĠĠĠ
from contract
Ġb ad
am t
Ġto Wallet
Ġ1 4
load ing
Comp anies
(" #####
Lo pHocPhan
Ġfunction s
Ġchange Product
mock StateQueryIterator
ag es
Ġerror s
iterator s
Ġdrug s
chaincode fromcontract
"} );
ĠM odel
Ġan not
Ġg rant
Ġbuyer Object
Ġass ign
ack order
metadata Path
Ver ify
po ID
Ġview Property
Ġpart ial
Ġtemp late
certificate Id
Ġlogistic Unit
ĠPharm a
ĠfinanceCo Id
Ġfail s
MP LE
Ġlot No
Ġfood Contract
cart on
cart ons
ĠelectionStart Date
ĠelectionEnd Date
ĠIns pect
Ġactive Ingredient
ĠUp graded
Ġannot ations
= ");
A pprove
C P
C age
C SP
D em
N h
O ption
P arams
S upport
T ag
U d
V O
c oupon
f req
i an
i od
r at
x ed
} ::{
Ġ ****
Ġc lause
Ġcon vert
Ġn ext
if f
get Name
State QueryResult
Ġp acient
Ġe mit
um mary
json To
Ġf acility
err Msg
Ġre gistration
Ġre issue
() ');
ri ver
Ġasset Exists
Ġcar LicensePlate
Ġst rength
ab ru
Ġ" _
Qu ality
Ġh ierarchy
Ġv accine
ap provers
contract Classes
Ġpro vision
Data Marhsall
Ġutil ity
RE GIS
Ġupdate User
lib rary
Fi eld
gre e
den a
Ġtotal Amount
Ġproduct No
Request Object
Ġcont roller
01 0
Un defined
handle Parameters
handle StateQueryResult
Ġshipment DataBuffer
prov iderId
Client AccountID
Client AccountBalance
Ġregister Asset
IN JEC
Ġafter Transaction
Ġtransient Data
ca le
Ġapp lNo
shed Key
Ġfin ish
lobal Citizen
Ġvehicle No
Ġexp iryDate
Ġorg s
Pharm anet
!!!! !!!!
Dec imals
appointment s
Ġreference Drug
Ġreference Standard
ĠgetArgs Stub
handleQueryState Close
ran ch
Ġword s
Recei pt
Ġequal s
Endorsement Policy
ĠDE LETED
Support Client
abru pt
. $
C F
C andidates
F eed
I w
V ED
c orrection
e lem
g ot
g pa
p atch
t oll
u tos
Ġ ord
Ġ Details
er MspId
er Or
et h
Ġa jv
Ġn ode
de stination
pe d
Ġ+ ('
is Re
ĠC N
Ġd icom
Ġquery User
Ġb ase
Ġb orrower
Ġcar t
Id Bytes
ction s
un it
name d
om ain
Lo aded
Ġuser Name
har net
organ ToTransfer
ari an
ac ion
product Key
ertific ates
Ġins urance
Ġver ification
Mock Stub
fake Error
ĠSy mbol
Ins urance
cm ds
output s
names pace
ĠOrgan isation
iet ario
isS mall
erOr Equal
isSmall erOrEqual
. ',
B ike
D icom
E VENT
F U
F alse
F ood
K m
L D
L im
P ubECDSA
U z
` ));
c urrElection
d igitalAsset
f uncAndPar
g w
h ealth
h ighestOffer
i mp
p ac
p Votable
p ourCup
s al
s wer
t Split
u x
} '
} _
½ æķ°
å ĩ
ç ļ
Ġ \
Ġ Load
Ġ Offerta
on Functions
Ġc lose
Ġc orrection
al ive
let ing
(' ********
St orage
Ġn et
Ġn ormal
Ġn ativity
re ating
re flectStub
Ġth ere
de pen
get Data
get InfoFromContract
get CurrStub
Ġnew Voter
Ġo bc
Ġp ar
Ġp ackage
ĠC on
log Number
act ory
act ive
act ual
ĠA pprove
from Wallet
ke ep
ĠJSON DrugCompositeKeyForSearch
ĠJSON DrugDetailsForUpdation
oc rat
art on
Ġto Address
Ġget CurrentUser
Ġ[ ${
paper Result
00 4
load AndValidateMetadata
ĠS et
return Error
For n
all Partners
()) )
create User
ith er
up Check
pro posed
Ġcreate Stub
(" ,
Ġstart er
Ġtransfer Id
Ġpro of
Ġmock StateQueryIterator
Ġmock MsgQueueHandler
Ġmock ParseResponse
Ġdelete AssetsFromBatch
Ġuser Details
Ġuser Transactions
Pro d
Pro ps
mock GetCurrMsg
mock QMsg
Ġreturned Seller
ĠmockStub API
ĠKey s
At tended
lib Votable
gre eting
Ġtx Content
Company Id
Ġan swer
Ġclient AccountID
patient Email
handle GetStateMetadata
handle PutState
Ġcomp letionDate
Shipment Data
Ġset Event
Ġset ClientIdentity
Ġset ChaincodeStub
ink Type
generate Ballot
12 3
Ġfi ll
ong itude
Price TravelPerPassenger
Ġy es
ĠbuyerCRN ResultsIterator
BA f
allowance Prefix
buyerCRN Found
doctor Id
ĠPro ofit
Ġfin ancial
FI LE
Ġprivate Load
ballot Cast
ph oc
ome Operator
Ġgenerate BuyerCompanyID
msg QueueHandler
bert arian
Ġoffer s
financeCo Id
Ġappro val
Ġallowance Key
15 5
Loc al
Total NumPassengers
Contractor s
Ġsh a
Ġĉĉĉĉĉĉ ĉ
Ġparsed CurrentTime
Ġsend Msg
----- ';
plate AsBytes
ĠcreateAsset Object
sFor Meterpoint
PA TH
Ġinst alledBusinessNetwork
Ġvotable Id
logistic Unit
Ġdes ignation
AD Y
rn Votable
defaultTo Undefined
PREFIX ES
Exp iration
ĠreturnedBuyer CompanyName
@@ @@
Ġtreated By
public an
enerCount Stub
Ġser ver
ick et
Coordin ates
Ġsplit Key
Ġam ong
Ġaid Org
reds Spy
fab protos
ĠRaw Material
ĠPAR AM
Big Pharma
ĠchangeProduct Owner
Dem ocrat
jsonTo Buffer
currElection s
åĩ ½æķ°
depen dent
keep alive
ĠtxContent Id
defaultToUndefined IfEmpty
9 4
E HR
N ghiep
T ot
b n
f loor
h ealthcare
n em
o C
o ther
s E
Ġ Trans
Ġ \"
Ġ Using
on ic
or p
==== ===
(' /
Ġm a
de livered
an ks
get Order
Ġo peration
ol ice
Ġp record
Ġe dit
act or
Ġs chemas
Ġget Re
Ġget Balance
Ġget TxTimestamp
Ġget SignedProposal
Ġget Binding
ĠIn st
Ġ" \
create Collection
To pic
Ġv essel
number OfDonations
Ġwh ich
Ġmock Ajv
Ġde partment
Ġspend ing
Ġspend Id
OR DER
gist ry
sp Name
Ġresult ing
'] )))
spend Date
spend Description
Ġbuy Request
donation Map
donation sForNGO
Exists Stub
pharm acy
Ġproduct o
Ġtx Id
ĠspendAllocation Date
ĠspendAllocation Amount
ĠspendAllocation Description
spendAllocation s
seller Key
exists Collection
ĠGet Asset
Ġen ded
cert net
Ġview User
Ġexisting Property
Ġvehicle Listing
ĠNGO Spend
ĠNode Container
Ġdonor s
fake Success
appro ver
Ġmod ifier
sign edProposal
ĠComp lexityFunctions
ES Key
Sub ject
person AsBytes
Ġblock chain
appointment Id
Ġign ored
ĠCheck ing
Ġdon ated
Ġcompensation Value
tong SoChi
Ġprov iderId
ignore Me
TTP Service
Dire ct
Ġprovision ing
Ġamong st
Tot Nghiep
nem onic
nemonic Word
: ",
C ould
E z
E SS
G rad
G TA
H ealthcare
H ak
L MA
P ubKey
Q W
U BgNVBA
V V
X BgNVBAo
] ];
] ){
_ ,
a ver
f ed
f ull
g TC
h cNMT
i um
k GA
k Nhb
l zY
u ong
w e
w w
x n
x x
x GTA
Ġ length
Ġ Rating
er n
Ġc ol
or s
Ġa p
Ġa bout
Ġ' ../../
Ġn om
Ġm er
de fine
ur ric
ĠE X
ul um
ul ation
lo cal
ĠB usinessNetwork
json Serializer
Ġres ident
ch ar
log Buffer
ad erId
Ġquery TMC
ed Text
ri es
Ġs av
Ġasset Sp
Ġin d
oc iation
Ġi mporter
Ġex ecuted
Ġget FunctionAndParameters
Ġget Keys
Ġget StringArgs
Ġ1 3
('======== ========
paper Number
il k
il led
id ers
Ġ" ]
00 02
Ġh sc
Ġh ost
AR BgNVBA
ru it
con sumer
": [
ort Tx
Ġpro duction
Ġde fined
Ġspend Query
spend Query
ĠP urchase
ace Se
Registration Request
Ġlogger Prefix
newOwner Id
spendAllocation Id
Ġaccount Number
index Owner
ĠGet AllResults
do es
}` )
Ġy ou
New Owner
Ġuse Points
Ġcertificate Id
Detail Index
land Number
land Paper
Ġland Paper
rating Query
UE Bh
MC VV
Mark s
ĠU RL
CC ESS
conc il
jA UBgNVBA
clear Obj
Ġmanufact uringDate
Mx Ez
aW ExF
scriber Sim
Ġrating Query
cT DV
wH hcNMT
Gl mb
Ġsrc MspId
par ator
Ju aWExF
Ġinvoking MSP
Fu Y
imp licit
çļ Ħ
ĠInst alledBusinessNetwork
XBgNVBAo TE
gTC kNhb
xGTA XBgNVBAoTE
urric ulum
ĠBusinessNetwork Definition
ĠassetSp aceSe
ARBgNVBA gTCkNhb
ortTx id
UEBh MCVV
jAUBgNVBA cTDV
MxEz ARBgNVBAgTCkNhb
JuaWExF jAUBgNVBAcTDV
ĠassetSpaceSe parator
UEBhMCVV MxEzARBgNVBAgTCkNhb
UEBhMCVVMxEzARBgNVBAgTCkNhb Glmb
) ]);
7 0
9 5
B M
B o
F S
F acility
S N
Y Y
b ad
c lause
d ay
e lement
g A
i Ã³
p k
q G
w arehouse
¦ ģ
è ¦ģ
Ġ Transporter
in ternal
le ave
Ġm int
ss ccKey
ĠE VENT
ue st
Ġnew UserObject
Ġp wd
ist rict
ode d
query AsBytes
query Poc
ĠA ction
ĠA adhar
Ġf abric
Ġquery Order
ng v
Ġtr ack
from Buffer
un icip
ĠS ub
AR MA
And Dec
te ngv
user Number
update Asset
Ġdelete MyAsset
Pro p
Ġdonation Query
Ad hoc
---- -'
list Type
Ġsu ccesfully
donation Query
No w
Part y
Ġ100 00
TE RED
result Key
ĠRe gistration
my namespace
file Hash
company Key
ach e
Ġclient Org
Ġbuyer Name
client Org
ĠĠĠĠĠĠĠĠĠĠĠĠĠĠĠĠ ĠĠĠĠ
ĠĠĠĠĠĠĠĠĠĠĠĠĠĠĠĠ ĠĠĠĠĠĠĠĠĠĠĠĠĠĠĠĠĠĠĠĠĠĠĠ
donor Key
LE T
Per mission
TA B
process Line
account Number
Ġtravel Asset
write File
collection Name
Ġ20 20
Ġso ciet
properties Buffer
Ġdonor Key
Ġgenerate d
SS S
ĠBo ok
MB ER
Ġphone Number
ĠgetAsset Object
AP PRO
Ġss ccKey
Ġchairs Id
Ġign ore
EN AB
PAR ENT
Ġqual ity
equipment Number
gested Destination
erve Price
setStateTo Shipment
Rich Query
Direct ory
iÃ³ n
AndDec rypt
processLine List
$ (_
' ].
) *
) :
C rypto
C TION
F A
F AC
P H
R SE
R andom
\ ',
b reak
d m
g v
i lo
k m
l ta
m ultisigTransferRequest
n y
p aram
s Contract
Ġ Y
on om
st op
Ġc Loads
in Text
Ġa mmend
get HistoryFor
Ġnew BalanceOf
Ġnew ShipmentObject
Ġo bserv
Ġp ac
ut i
ut onom
ĠB uy
ch allenge
ĠA b
Ġĉĉ Ġ
from Bytes
As Buffer
ed Ids
Ġs inh
ation date
Ġasset ToTransfer
Ġcar Results
Ġowner Name
Ġex s
Ġget QueryResult
car Results
') ]),
ab les
id Bytes
Paper Contract
load Found
load Element
ĠS O
Ġdo b
To Expiration
Ġclass es
new User
order erId
Ġuser type
as urement
Pro perties
Pro files
Spend er
Ġjson Error
Ġid Asset
du ck
Ġcurrent Viewers
iv ationdate
Of Operation
RE R
Ġse e
Ġse conds
Ġperson Private
Ġupdate Asset
Ġupdate At
drug s
drug ID
comp are
Ġproduct s
Vot ableItem
Ġclient AsBytes
Ġclient FiIndexKey
product List
fi ClientIndexKey
client AsBytes
client FiIndexKey
Client Data
ĠT R
app Info
ustom erId
ledger User
Hash es
Ġfi Id
Ġfi ClientIndexKey
Ġaccess Id
ĠUser List
candidate Asbytes
shipper Data
Con sent
ĠW aitingList
Ġschema List
doctor Email
object s
Ġmedic ation
Ġexp iredAt
ballot Created
Ġro yaltyManagement
Ġtemp Class
ĠDrug Helper
ingA gent
Ġage ncy
Ġencrypt edBytes
Ġencrypt edH
Ġcrypto Arg
private Load
ĠO WN
Ġ%> (
access Rights
ĠgetAsset History
Ġss i
Ġoriginal ChaincodeFromContract
Ġoriginal FS
existing Drug
Ġinst itution
Ġpayout AuthValue
Ġloads Contract
encrypt edBytes
ous System
attr Name
Ġconfirm DateTime
ces sed
Wh oRegistered
document ID
Ġdecrypt edText
ne ction
Ġenc oded
Ġtong SoChi
Ġne eds
Ġsecure Random
TU RER
ĠDo ctor
ĠAccess Token
ĠMock ChaincodeFromContract
ĠPerson Info
ĠPH C
Mode OfOperation
ik es
ĠgetOrder History
utos cale
Lim it
(", ");
omeOperator Name
ESKey Length
concil iation
ENAB LED
FAC TURER
Ġobserv ations
utonom ousSystem
ĠencryptedH ex
) +'
+ "
6 8
C d
C ategory
D I
F iles
H as
H ore
O B
P LI
S ol
S inh
U ERY
Z m
a es
c ertific
d icom
g ress
s andbox
u ID
ª åıĤæķ°
Ġ Identity
Ġ **
Ġ Unit
Ġ' /
re deem
Ġth ese
Ġp ush
Ġthrow s
Ġe mp
Ġd ays
Ġquery Result
xpect ed
Owner ID
Ġb logs
Ġowner s
Ġst ation
ab c
ab led
For Time
ĠInit ial
create At
Ġv ideo
start Command
(" [
ap ny
ic ero
Ġresponse Tx
order ID
Ġdelete Car
Ġuser Info
Ġempty Contract
stant iation
RE A
Ġper cent
ĠKey EndorsementPolicy
drug Buffer
Drug Buffer
Ġread MyAsset
record Exists
check Key
Ġpatient Info
fin al
product s
event Service
"] (
Ġl ink
Cont rol
ĠGet QueryResultForQueryString
Ġprofile AsBytes
Ġcomm onFunctions
Ġprivate Asset
Aw ID
dec ision
Ġup load
sender Balance
ĠQ UERY
78 90
cm FuY
ĠComm unity
Ġmark ed
Medic ine
Te ch
Ġpaginated RichQuery
MI IC
Act iv
Ġac cept
Ġten ant
Purchase Order
author ised
ä¸ ªåıĤæķ°
block chain
purchaseOrder Object
notar y
Com ment
iplo ma
gAwIBAg IU
Por uti
ackorder ed
ĠGetAsset History
Hore a
certific ation
Poruti u
2 16
C V
D ocType
G Ew
G lobalCitizen
H arvestBatch
I ON
M u
M onthlyForecast
M unicip
P ledge
S er
U EC
a Key
a ffiliation
c offee
c rn
c btObj
d t
f acility
n om
n ativity
q i
s collection
s wC
Ġ List
Ġ View
er ation
et we
st atic
Ġc oupon
Ġa gain
Ġ' :'+
Ġt emperature
Ġt reatment
ate TxContextId
Ġm odeled
re f
get ChannelID
Ġnew SenderBalance
Ġnew CompanyObject
Ġĉ ĠčĊ
to Fi
sy scollection
Ġthrow ing
Ġd etail
Ġtr ip
ed Obj
ri end
Ġb ag
Ġst ream
Ġget Identity
Ġ======== ==');
us ic
Ġ" ${
00 6
ize X
Ġ() =>{
ers Data
Ġexist e
({ '
Ġw arn
For m
For Update
For Shipment
Comp osite
Car Info
ru ctions
Ġv accination
CompositeKey sFor
use Points
en um
Ġvar i
Ġpro b
Ġdata ID
update User
Ġmock GetCurrMsg
ser ialize
end point
Chaincode SupportClient
mock ParseResponse
mock RemoveCurrentAndSendNextMsg
mock SendMsg
data Buffer
Ġun iversity
cha nt
Ġdrug ID
Ġreturned Transporter
Ġreturned Retailer
Ġreturned CompanyName
Ġreturned CompanyCRN
Delete State
Receiv erId
Ġupdate AssetOwnership
ĠF ile
") [
Ġvot es
Drug Id
ĠM atch
Org s
Ġmy AssetExists
Ġhandle MsgResponse
client Travel
handle GetQueryResult
handle InvokeChaincode
Send erId
Me eting
Ġcomp lete
"] ){
Ġall Orders
Ġall Organs
Ġall Candidates
Ġregister Stub
app lication
Ġtravel Id
path ToRoot
IS H
mt Id
Price DepositPerPassenger
Comm on
ĠL ocation
Ġpo st
Ġ{} });
DA TA
tern ateTxContextId
ĠNode Context
erg edObj
'} ).
ciever MSPId
ForOwner ResponseRange
Ġ+' -'
Ġjob ID
sign ment
dr inkType
patent Status
Ġpaid ByTravel
max Weigth
myCollection Name
sel f
Ġprocessline Key
DigitalAsset Event
Ġconfirm Timestamp
prop Name
MI T
Ss iSmartContract
Be gin
ĠreturnedBuyer CompanyCRN
DrugDetails Object
earn Points
Ġready Msg
Ġappointment s
zzzzzzzz zzzzzzzz
handleQueryState Next
MQ swC
coin Config
execute Function
ĠassetJson Buffer
QYDVQQ GEw
cup Id
JV Uz
valuation Meeting
\": \"
Ġgrad es
Ġmodified DrugDetailsObject
Partner Name
ĠlistOf CompositeKeysFor
Ġexpire AssetOwnership
Ġhe aders
ResultsIteratorForComparision ResponseRange
utx os
isRe ferred
Ġmer chant
local host
wHhcNMT cw
warehouse net
Municip ality
UEC BM
etwe en
toFi xed
syscollection s
Ġwarn On
ForUpdate Shipment
MQswC QYDVQQGEw
ĠlistOfCompositeKeysFor Drugs
MQswCQYDVQQGEw JVUz
! "
. ";
4 05
B Y
D N
M G
U L
a Tx
b eta
d id
g a
g g
g vinfo
n am
p air
v ed
v accination
w ed
x p
y ID
} -
Ġ #
Ġ Timestamp
Ġ waiting
Ġ shipperId
er m
in coming
es is
Ġ' \
arg es
Ġth ro
get SignedProposal
is Initiator
Ġf uncAndPar
Ġd t
Ġre gex
Ġs al
ex change
put e
om et
ĠS ervice
delete PrivateData
By Key
By Color
Ġv in
date Of
en sion
Ġch allenge
Ġ3 0
Ġpro vide
update Drug
Ġcontract Data
RE Q
init iator
OK EN
add User
Ġg ood
Json Object
ĠĠĠĠĠĠĠĠĠĠĠĠĠĠĠĠ ĠĠĠĠĠĠĠĠĠĠĠĠčĊ
}` ));
cont inue
ĠUser Contract
Ġprocess or
Ġpo Object
Patient Record
Mock DataMarhsall
ĠH arvestBatch
profile AsBytes
Start ing
Ġdest ination
Ġfile Id
Ġtest s
Success fully
33 33
05 1
Medic alRecord
Te am
Gre en
Req Obj
Act ivity
ĠQueryAssets WithPagination
ĉĉĉĉ ĉĉĉĉ
Lab oratory
Ġout put
Ass ociation
Ġden ine
Ġfloat SenderBalance
TRANSACTION RECORD
Gen esis
Penalized By
Ġconvert ed
REGIS TER
Ġsociet yID
Sinh Vien
Ġstation ID
3 9
4 5
7 051
: ");
A x
A waiting
B asket
C ity
C REA
D one
F cn
G ER
I em
M ed
O AsBytes
P I
P lease
R FIDtag
S an
S TART
S ales
_ "
d n
g s
h sc
i vidend
m o
n omor
n aver
w D
å Ĳ
ç Ķ
Ġ Qu
Ġ Function
Ġ ).
Ġ js
Ġ some
Ġ HistoryQueryIterator
er Email
Ġc offee
Ġc dr
le an
it ting
(' =====
Ġ' ${
Ġt ot
ro aming
se condCall
an Ly
ew ard
Ġnew PO
Ġĉ ĠĠčĊ
to WireBuffer
to day
Ġe cho
is Asset
ĠB ikes
tr ading
query Key
ĠC SP
In vok
ĠA jv
Ġd st
length Of
ri l
ha shedKey
Ġs ale
error Wrapper
put ation
Ġin t
Ġ1 2
Ġ: "
Ġ" :"
Comp Key
set Level
set PrototypeOf
owner MSPId
ĠContract Common
Ġcontract Impl
Ġcc logger
Th ere
har e
From PubECDSA
Ġtrans cript
logger Prefix
Ġupdate Property
Order Info
Ġread Response
ĠM edic
Pass word
ific ations
Ġcompany Id
Registration Object
with draw
ER SHIP
seller List
call Details
Ġerr Msg
Product ID
LE CTION
account Address
Ġdate Str
Ġwallet AsBytes
write FileStub
Sec ret
candidate ToTransfer
Sy stemContract
Ġreject s
Reg RequestKey
doctor List
ĠPro p
Unit s
Access Token
Ġcollection Name
project Id
fake Ccfc
Detail JSON
Mod ifier
Ġaction Id
Sign ersData
Votable Iem
transporter ResponseRange
Ġsign ature
('../../../ ',
provider Data
private Value
level Spy
ma LopHocPhan
Pharm acy
Listing s
QueryState Next
Ġtag s
Ġfish AsBytes
vide o
air Trade
Ġtopic s
author ized
Ap ril
ehr Id
Ġincome Data
Ġprog ram
fish AsBytes
Ġenter ance
Ac cepted
ĠGetAssetsByRange WithPagination
Ġearn Points
1111 1
CB eta
Ġest ado
Ġnet node
Ġcol lect
ĠTR ANS
ĠOWN ERSHIP
apny Buffer
MIT TED
ĠQu anLy
isAsset Existing
ĠcontractImpl s
ĠQuanLy Diem
' })
( \
3 2
A uction
A kta
C R
C k
C ant
C ertificates
C arton
D is
E AwID
F o
F illed
H ierarchyKey
I F
I W
L sp
L LECTION
M ilk
N w
P air
P arameter
Q m
R w
S ummary
W jB
X N
X a
] +'
b ag
d f
g ative
j Value
m G
m ium
n ect
p V
r X
} )));
~ '
Ġ Trade
Ġ Loan
on et
it ive
Ġ' :'
Ġt ask
Ġm achine
ro les
if ec
an e
Ġo bserver
pe m
lo phoc
Ġĉ ĠĠĠĠ
is Paid
Key Array
query All
ans wer
ad get
ad line
Ġre ading
Ġre newPlate
ment s
pect or
As Object
tx ID
Ġcar Id
Ġst ored
Ġin ter
Tr uck
Ġto WireBuffer
Ġget Schema
Ġ" ")
Query Response
ĠChaincode Crypto
Ġh ealth
By ID
To Publish
em ission
con sent
Ġcreate At
set Logger
Result Event
(` [
response Proto
Ġch ang
tri p
Ġdelete Order
Ġcontract Implementations
Ġuser InfoObj
mark sAsBytes
transaction ID
end Date
Th i
ag net
99 7
'] ),
CO LLECTION
Ġissue Status
ĠP o
ĠP harnet
Partial KeyArray
timestamp String
Property Key
Ro aming
fin ished
Registration No
Ġhandle Parameters
Ġseller Name
event s
Ġno Count
request ID
Ġbefore FnStubA
current ly
ra is
ĠN OT
Ġafter FnStubA
ca dena
ĠTransferAsset ByColor
cont ain
Ġj Value
ENT ITY
56 7
Ġpath Stub
ĠW orld
medic ation
hold erID
Student s
channel Name
TC CA
UE Ax
Ġelement s
CONTRACTOR S
raw material
issue d
Ġsend ing
verifier ID
Ġdelivery ID
Lice nce
ĠfinanceCo Data
ancel led
job ID
Ġrule List
PER MITTED
Ġpharm a
ĠQueryAssets ByOwner
Ġac cepted
created By
chairs Id
ä¸ į
ĠI mport
Document s
notar yId
Ġbeta Stub
elem Match
patch Date
sal t
Ġyes Count
qG SM
ifec ycle
ĠgetSchema Mock
setLogger Cfg
) "
. ")
8 7
A uthor
B CO
N E
O F
T rip
Y es
[ ^
_ ];
b da
d er
h n
k b
k er
n it
o verage
p rint
p layer
s ort
u ZXhhbXBsZS
y Z
} ::
° ĥ
è °ĥ
Ġ ON
Ġ known
Ġ MSPID
Ġ IS
ar code
at t
at erial
at itude
Ġt arget
Ġr oles
Ġcon nection
re e
re gex
get Re
Ġnew Id
Ġreturn Schema
Ġp mtId
ĠC F
ĠC all
th em
ĠA ccount
Ġre gist
Owner s
Ġs c
am bda
Ġi mage
un ded
By Id
action Id
Ġstart Date
ap ac
owner Data
Response From
contract Key
Data Attributes
:' '
la ve
Ġexte nsion
data List
User name
Ġdrug List
Ch ange
Ġissue Date
ĠP h
ĠP rint
** *
drug Obj
organ InfoinJSON
ĠRe move
calledWith Exactly
vot es
property Details
AC CE
Ġupdated Time
Ġseller AsBytes
event Data
fi et
Trans ports
Ġproperty Obj
Ġcall ing
ug h
Ġ` ;
Ġcheck Amount
Ġcheck Status
donor Info
Ġall Partners
IN Json
ci led
ĠN ew
Ġen vi
generate d
function Exists
Ġwallet To
Ġwallet OwnerId
Ġcandidate InfoinJSON
PE M
Ġcert Number
Comm unity
wallet AsBytes
Ġview ers
Ġpath ExistsStub
Con firm
Con structor
ĠW ork
roy alty
Ent ry
Ġpay ee
19 2
invoice List
Ġcre dential
offer Id
credit Note
drugKey DataBuffer
Process or
package ID
Ġbank Account
Ġstudent s
liver ing
Ġmark sAsBytes
Sub scriberSim
device ID
fund Struct
Ġuni User
system contract
Ġcommunity Number
counter fiet
Ġreceive Shipment
Ġrate Array
Exp ired
Ġplace Id
SI G
Pre mium
adhaar No
ĠPart icipant
CDR Object
155 25
char At
Ġexs ist
ĠMatch ed
Awaiting ResponseFrom
çĶ ¨
BCO INJson
nit ore
è°ĥ çĶ¨
apac ity
ĠPrint ing
royalty Management
8 0
C redentials
D istribut
F yb
I r
K S
L in
M IN
N one
Q H
Q i
S omet
\ ",
a udit
b anks
c D
d G
d ob
d GV
d Tech
i Q
i ja
l ink
r ain
s im
v erride
w orld
y aW
} :${
å ħ
Ġ =======');
Ġ -->
Ġ Price
on ym
ar File
Ġc m
in ner
or ity
Ġa cc
Ġn ib
Ġm ade
get Class
Ġo verride
per f
Ġp rint
Key Value
ĠB ank
json transaction
tr ack
ĠC hain
In formation
In ventory
Ġf ir
Ġd d
Ġd if
Ġex ce
Ġget ID
ent er
Ġ" ");
Ġbe ca
ĠS U
delete Collection
all Rating
Ġdoes nt
Ġend Date
user Email
pro of
Ġcreate Order
Ġ2 1
Ġis Valid
en ant
Ġch ild
Ġpro ps
update State
end Time
Ġcurrent Loc
Met ric
([ ]),
Ġorder History
Ch annel
ver allRating
my ID
ĠOwner ID
Update CompositeKey
the Query
Ġseller Balance
Ġevent Service
client Logged
seller AsBytes
Ġassert AttributeValue
Ġorgan iz
Ġorgan isation
Ġshipment List
ĠĠĠĠĠĠĠĠĠĠĠĠĠĠĠĠ ĠĠ
Ġserial ization
LE w
buffer ed
My PrivateAsset
Batch Feed
Ġitem Info
Ġcreated By
ins ide
Check Number
Check Date
DA TE
Ġexisting Shipment
medic alRecord
Ġdec ision
Ġcount ry
PO C
Ġle ad
PRO D
Fund ing
Ġem ergency
ĠGen er
private Asset
now ledge
ĠU UID
Ship Certificates
Ġbank TransactionId
Ġact ual
job Id
MT B
MP LETED
Remove CompositeKey
energy Value
resident s
IU M
Ġpre vious
LED GER
LO CK
ĠIns urance
Contact s
bi BG
LA ND
utility Companies
QYDVQQ LEw
150 405
Initial ized
ĠRegistrar Contract
Ident ities
uk u
LMA kGA
Ġabout Us
ĠqueryTMC ResultsParse
ruit Basket
JuaWExFjAUBgNVBAcTDV Nh
wD QYDVQQLEw
Somet hing
jsontransaction serializer
Ġbeca use
biBG cmFuY
! "});
) /
) )));
6 0
A U
A b
C ERTIFICATE
F arm
F armer
G L
G ood
H andle
H IS
H TTPService
M UL
N X
O ri
O TC
P led
P ic
Q r
T reated
T imes
U TC
X J
b logNumber
c ategory
f Y
f y
f lag
f rame
j ust
p ing
p ack
p mt
p ings
q rDecodedPayload
t H
u a
v ey
y a
§ ĭ
å §ĭ
Ġ Un
er ies
ar ing
ar ist
Ġc laim
al ternateTxContextId
(' .')
Ġ' :
Ġt Split
Ġt ls
Ġr andom
Ġr ich
St atistic
Ġn Split
Ġm ps
Ġm ergedObj
if t
re cieverBalance
ur vey
Res ol
get Msg
get PublicKey
get Binding
get PartialKeyArray
Ġnew State
Ġnew Json
Ġnew CDRObject
ul ator
sh ift
Ġo k
Ġo tc
to CurrentBalanceBytes
to BalanceKey
to UpdatedBalance
value Int
is Valid
is WhoRegistered
ĠB e
ĠB ike
ĠB uku
shi pping
query Wallet
ĠC andidate
In Shipment
In vest
log Level
ĠA LL
Ġf itting
Ġre cieverBalance
ot c
from CurrentBalance
from CurrentBalanceBytes
from BalanceKey
from UpdatedBalance
ha o
ĠjsonRes ult
Owner MspId
Ġb inding
Ġcar d
Ġcar Info
Ġi mplementations
un known
Ġto CurrentBalanceBytes
pon ce
car Info
Ġname Bytes
') [
paper Content
name Key
Ġbe gin
Asset Value
Ġparse PeerUrl
ĠS H
ĠS erial
ĠChaincode MockStub
Ġw ent
Ġw eb
()) ,
Car e
To Hash
Contract Stub
user Info
user MSPID
con sumption
start Time
Ġis ContractStub
use PointsTransactionsKey
number s
Ġtransfer Resp
mat urity
./ );
next Fi
With Attrs
Ġuser MSPID
as ci
Ġmetadata Path
Ġchange Mobilenumber
transaction AsBytes
Ġjson DrugDetail
read Marble
mock PeerAddress
mock Opts
sp rint
From Command
RE ADY
(`${ _
DE NT
Ġdrug Results
Ġdrug DataBuffer
Ġdrug CompositeKeyID
init Marble
Ġfrom CurrentBalance
Ġfrom CurrentBalanceBytes
Ġdecode d
No Times
ĠqueryBy ObjectType
transfer MarblesBasedOnColor
transfer Resp
andle Message
At temp
Fi Result
Ġbuffer Args
Ġbuffer Ori
buy Order
Ġcompany List
Ġcompany ResultsIterator
company Object
Company Obj
Ġg rower
Ġclient MSPID
MA TER
patient Info
ies Id
product Orders
Ġupdated Donation
Ġupdated Balance
Ġupdated CarInfo
Ġor aclize
client MSPID
client AccountID
with out
Ġlog Level
Un i
Details Buffer
request Key
Ġcall Duration
Ġlist FromCommand
handle GetStateByRange
TI SIG
Shipment CompositeKey
LE S
CA L
trans cript
Ġall Profiles
Client Result
ĠT O
app r
uuid s
expected Default
Ġfund AuthValue
Ġdate Expired
ĠN on
ĠR un
updated Allowance
Ġfi AsBytes
po se
ĠOrder States
Ġemail Address
Ġcert Array
New Number
34 5
Comm it
wallet BS
allowance Bytes
Ġcomm Key
Ġq rDecodedPayload
view erId
Access CompositeKey
test Transient
Project sAsBytes
Ġgenerate Key
lab el
View erId
Ġtime ToExpiration
listing AsBytes
Ġallowed Identities
Seller CompanyID
Ġlisting AsBytes
Ġallowance Bytes
ib le
Ġsign ingId
ablished Msg
Contractor sAsBytes
ĠlistOfAssets Arr
Fund Struct
ns es
Ġverify Result
ĠQ Msg
BusinessNetwork Definition
ĠVot e
schema List
Ġparsed ShipmentData
approved Payments
CompanyCRN ForComparision
symbol Key
Ġmax Temp
Ġmin utes
Ġmin Temp
access Id
Ġpaid ByDeposit
isc o
FID ata
Ġss n
roll no
Bid ID
Ġinst ructions
Medic ation
ĠpurchaseOrder DataBuffer
ĠTo pic
Te acher
transporterCRN ResponseRange
gin al
Aadhar Id
Ġocc ur
lation By
decimals Key
Ġwrite FileStub
PROJECT S
Ġmanufact ure
Ġsymbol Bytes
returned Buyer
ĠRE GIS
sellerCRN ResponseRange
Ġreceive Order
bm leKey
Ġtransport Shipment
earn PointsTransactionsKey
prescription Id
trade OrderList
ron ment
ron ym
"}, {"
Coordin ate
Ġreferred To
Ġprog ress
edH andleMessage
Shipper Id
Ġfloat RecieverBalance
requested Serializer
Ġactor Id
Tracking Info
letter Status
Ġpres ent
queryMarbles ByOwner
ĠcurrentAllowance Bytes
currentAllowance Bytes
ĠgenerateTransporter CompanyID
ĠgenerateTransporter ForShipment
medical RegistrationNo
NUM PROJECTS
uture Contract
Ġwallets Array
ĠMark s
Ġassign Shipper
MPLE TE
carton Id
ĠcreateStub Stub
Local ID
Ġsav edHandleMessage
getHistoryFor Marble
CREA TED
Cant on
onet ary
Handle GetStateMetadata
MUL TISIG
Pled ges
arist a
('.') [
Ġmps id
urvey ID
nextFi Id
asci i
ĠchangeMobilenumber Owner
Attemp ted
ĠbufferOri ginal
MATER IAL
ĠlistFromCommand Line
ĠREGIS TERED
ĠgenerateTransporterForShipment Updation
! ==
" ]);
C s
E O
E V
K L
M agnet
P la
P allet
P atent
R B
T able
_ .
d etail
f set
g q
i G
o pts
o hn
Ġ und
Ġ Organization
Ġ shipping
on ia
Ġc a
(' [
(' **
(' =======
Ġt mp
Ġr ange
Ġcon fig
Ġcon sumption
ro und
re ation
re lease
Ġnew Candidate
Ġnew DrugObject
Ġo ther
Ġp k
is Requested
ĠA pp
ĠA uthor
ĠA kta
Ġf uction
Ġre ason
Ġtr acking
getState AsObject
Ġowner ship
Ġi ssu
Tr ader
car Id
Ġit s
') ){
Ġmodel Key
Asset ID
up load
Ġ2 5
be gin
ic ID
Index Doc
Ġun icID
ĠqueryAll Patient
ĠqueryAll Orders
ĠP acient
add Orgs
Issue Date
Cars List
Ġadd PrivateData
ifi ers
Ġclient s
AC TI
go ing
Ġar File
buyer AsBytes
current Time
generate Key
12 5
po Key
ĠOrder ed
wallet Id
users MSP
Con dition
Ġdoctor Info
Ġcorrect ly
vok ing
Ġland AsBytes
Ġsh are
Ġ6 0
28 6
hospital Code
Ġ+' :'+
Ġcage Id
Ġold Account
eslabon Genesis
access Token
AP PLI
ĠSt ock
LL ER
report ing
ĠRE S
ĠPharmanet Contract
Ġoption s
aler CarsList
Ġne gative
Ġden ied
åĪ °
ORG S
Ġpos ition
Ġthem GiangVien
Ġthem SinhVien
Ġte ach
ts C
ĠĉĠĠĠĠĠĠĠĠ ĉĉ
oC orp
olice Record
challenge Id
Ġ** ');
Ġvari ables
ĠGener ating
Magnet oCorp
Ġ+':'+ ('
' +'
+ =
- ]+
1 01
4 6
? \-\-\-\-\-
A n
A ux
B ranch
D ividend
E A
F ab
F requency
H on
H ealth
H ISTORY
J x
M t
N j
P oll
S O
S and
T a
T anah
T erm
V J
V ersion
V accination
\ (\
b s
b eth
c ory
c ity
d p
d or
f aceValue
m arbles
m oi
n ing
n ess
o se
p record
s Bytes
v accine
x Z
y ield
Ġ Delete
Ġ waitingList
on Sale
Ġc atalog
or den
Ġa ble
Ġa udit
(' ======
Ġn ghiep
de pt
an ID
Ġnew Weight
sh are
Ġp aram
json key
query Selector
ad os
ĠA c
Ġf eed
Ġd c
res ervePrice
Ġquery name
Ġtr ail
ot Data
tx Timestamp
Ġb c
Ġb lue
ord project
ce n
Ġst ore
ex tra
Re gistry
Ġex ports
Ġpaper s
Ġget HistoryForKey
Range Results
Record List
Ġh oc
ssu ing
Ġcreate Voter
Ġch at
Ġ3 5
order Key
Ġdata Owner
Ġdata Id
update Order
Ġcontract Classes
Ġuser Data
mark et
Ġmetadata Key
Ġjson Obj
end er
data Parsed
From CRN
Of Asset
Ġbuy ers
ĠqueryAll Users
Ch allenge
Ch arges
init Ledger
ĠAssetTransfer Events
Count ry
getOwner MSP
my channel
ingOwner MSP
our ces
Ġpatient Exists
Ġg uard
patient ID
Ġbuyer AsBytes
AC E
Ġnumer o
call DetailIndex
prov iders
Ġcomp onent
CA Q
Per iod
"] )))
Ġl ongitude
Ġl atitude
batch es
batch ID
Ġdate Manufactured
ĠN ot
IS T
part Date
register Stub
ified Operator
Ġen abled
}` })));
generate Payload
Ġcandidate Asbytes
MyAsset Contract
candidate Info
Ġcp Key
member s
member AsBytes
cp Key
Ġpo Details
Con firmed
acc ordproject
Ġobj Type
Ġfin ally
voter AsBytes
Ġinvoice Number
Ġmedic al
Ġmember AsBytes
]) };
Ġsell ers
Mod ifiedBy
Ġ? [^
ĠDrug List
Ġtest file
certificate AsBytes
Ġland Number
Ġsign erId
Ġsign erMspId
ĠassetID s
sender MSPId
req identity
mod ifications
non payable
ĠProperty List
ĠSmart Contract
Ġinvok er
Do wn
package json
Ġdelivery Plan
oles aler
cm nd
ĠComm odity
Ġprop Value
random Number
Doctor Id
Plan List
queryBy Adhoc
Ġtopic AsBytes
Ġk yc
assetTransfer Events
global Citizen
Ġremove PrivateData
rule List
Ġpe ers
====== ');
ĠEngine CC
getCompany FromCRN
Ġinitiator ID
Approved Modifier
loan List
Ġdi vidend
find Index
waitingList s
Ġpayment Obj
åĪ Ŀ
Tests Id
ĠprofileOld AsByte
reedom Dividend
Ident ifier
Ġproyect o
\-\-\-\-\- \
before Each
Ġcart ons
FU LL
Ġnormal izeX
CCESS FULL
Bo otstrap
currently AwaitingResponseFrom
Ġenvi ronment
Ġexsist Error
Ġcm nd
Ġrandom Number
ĠBuku Tanah
iG uard
-]+ ?\-\-\-\-\-
Hon da
Ġ?[^ -]+?\-\-\-\-\-
modifications PendingApproval
) ];
) ");
) >=
- "
B As
C I
C W
C al
C os
D R
D Te
D iff
D IUM
D fY
E BA
E lu
F F
F g
F DA
F kw
F ISH
G YI
H a
H KoZIzj
H MxD
H Mt
I GA
J d
J s
J iQ
J yaW
K k
K s
K BgNV
L ading
M b
M BgNV
M hr
M Fkw
O Id
O ID
O Bh
O BgNVHQ
Q n
Q w
Q cm
Q gA
Q cD
R Y
R Kk
S ingle
S BgNVBAo
S gAwIBAgIU
T B
T b
T fg
T WF
U V
U MB
V y
V zE
V oy
W ug
W lu
W ED
X QW
X TCCA
X OId
X VzE
Y Mu
Y HKoZIzj
Z i
Z tt
_ ${
a Diem
c ed
c GV
c ross
d at
d ld
d MQswCQYDVQQGEwJVUz
d XVzE
e TE
e Ly
g SgAwIBAgIU
h oi
h Ks
h Qw
j pa
j YW
j CK
j Qm
k Z
k JV
m Cs
n mG
o wn
p n
p z
p refix
p redict
r and
s kill
t Zm
t JiQ
t Wug
t jpa
u Qn
v x
v an
v ay
v pV
w o
w wCgYI
w YDVR
w gv
w Fo
w tsC
w GYI
y bm
y El
y dG
z v
Ġ IN
Ġ Users
ar ly
st ion
Ġc ity
St rip
ub G
arg o
Ġm s
ro c
Res earcher
get InfoFromContractStub
Ġnew PropertyObject
Ġnew RequestObject
Ġnew Lsp
ul VO
lo t
lo ur
======== =====
Ġĉ ĠĠĠĠĠĠĠĠĠĠĠ
Ġĉ ĠĠĠčĊ
Ġp ric
Ġthrow Error
query Spec
In w
ch annelID
Ġd ue
Ġquery History
Ġquery Patient
od G
Owner ship
Ġb m
Ġasset Number
Re e
Re port
Tr ail
Ġget Product
Ġname Metadata
') ]);
Ġmodel AsBytes
ĠS ing
ance Cos
To Return
con ga
pro yect
Ġis n
": {"
new Member
ail ure
en mark
Ġstring Query
Ġchange Fish
Ġde posit
Ad BgNVHQ
Ġjson Query
OR E
User Buffer
ject ed
issuer ID
sg sg
Ġorder Status
RE E
Sh ould
20 21
Ġsu ch
ĠP res
No thing
Ġwork ers
valid ations
this Class
Drug Owner
file Name
ĠFab Uni
Ġadd User
oo p
Se al
ific Vehicle
Ġpatient InfoObj
Ġan n
Ġbatch es
Private AssetId
product Number
client ID
Ġlog AsBytes
request s
request erID
call erId
Ġorgan InfoinJSON
buyer List
Ġaccount Address
Ġcheck Key
Me asurement
TA QH
TA pz
model AsBytes
ci de
do Tb
comm ons
updated By
Co Xa
collection Netherlands
Ver ified
Ġ500 0
po List
ĠG lobal
Ġcert WithoutAttrs
Ġcp f
Bg jA
Bg wFo
BA Iw
BA MTB
EX MB
DA YDVR
DA KBgNV
DA QcD
DA SBgNVBAo
item AsBytes
Aw RA
Aw DAYDVR
Ġpart ner
Ġfile Name
Ġfile Hash
Sign ature
******** ********
UG A
Ġco st
TC BgjA
MC B
Process Date
GV kZ
ĠballotData Json
!!! "
BS DfY
Ins ert
produ ction
YI KoZIzj
num ero
jA MBgNV
thing s
1234 5
getLogger Cfg
DB NX
Tw YW
AD AdBgNVHQ
Doc Q
Act ive
QU hKs
topic Number
Wh cNMT
YW JyaW
IU d
bm ExF
Ġcoin Config
Ġmed AsBytes
Raw Material
prescription s
Ġenc Text
chairs Exists
================================ ================================
Bs wGYI
fe ature
rew ire
Ig YDVR
Ig CoXa
ML ZXhhbXBsZS
Ew YHKoZIzj
wH wYDVR
yb GVkZ
oy Ztt
jB BgwFo
123456 7890
kw IgYDVR
OT m
observer List
pb HMt
missions Record
NUM CONTRACTORS
IE mCs
ĠtruyVan TotNghiep
ZG dld
ZG YWJyaW
Vessel Voy
WF kb
sL nmG
sL TwYW
investment Amount
investment Title
MxD jAMBgNV
MDAxNTAw WjB
MDAxNTAw WhcNMT
he ader
wW yM
ballotData Json
EF q
publish ers
Ġopt ed
Ud D
Loaded Vessel
Ġpar a
Prod List
sE xpected
ww yEl
xGTAXBgNVBAoTE Elu
gestedDestination s
PH ARMA
km Ir
Ġsinh vien
ĠSO DIUM
Cd U
Has Seller
MIIC XTCCA
CV Inw
wHhcNMTcw OTA
UECBM OTm
gg Q
isInitiator Allowed
REQ UE
Invok er
airTrade Premium
Ck BSDfY
EAwID Rw
IF dp
IW Jd
Nw wHwYDVR
Ġchang ed
rais al
UEAx MLZXhhbXBsZS
ĠImport Paper
KS DTe
Qi XJ
dGV ybm
rain Contract
wDQYDVQQLEw ZGYWJyaW
AU IUd
fy sLnmG
Invest ed
EO m
RB BswGYI
ĠqueryAllPatient s
Jx rX
xZ NwwHwYDVR
CAQ YIKoZIzj
BAs T
CW X
EBA MCB
Fg QUhKs
HMxD DAKBgNV
Mb wgv
Mhr vx
MFkw EwYHKoZIzj
OBh TCBgjA
QgA EFq
RY z
RKk ai
Tfg JxrX
TWF jQm
UV DBNX
UMB IGA
Vy MQ
Wlu MFkwEwYHKoZIzj
XOId wtsC
YMu H
Zi RKkai
cGV ybGVkZ
dMQswCQYDVQQGEwJVUz EXMB
dXVzE UMBIGA
eTE LMAkGA
gSgAwIBAgIU eLy
hoi Ta
hQw UVDBNX
jYW wwCgYI
jCK RYz
kJV N
tZm xZNwwHwYDVR
tJiQ wCgYIKoZIzj
tWug Ha
tjpa odG
uQn q
vpV r
ydG ggQ
Strip ped
querySpec ificVehicle
ĠchangeFish Holder
sgsg tZmxZNwwHwYDVR
TApz cT
doTb EOm
collectionNetherlands Stavanger
BAIw ADAdBgNVHQ
BAMTB WFkb
DAQcD QgAEFq
DASBgNVBAo TC
AwRA IgCoXa
bmExF DASBgNVBAoTC
jBBgwFo AUIUd
pbHMt TWFjQm
IEmCs I
ZGdld HMxDDAKBgNV
VesselVoy age
sLTwYW vpVr
MDAxNTAwWjB dMQswCQYDVQQGEwJVUzEXMB
MDAxNTAwWhcNMT gw
wwyEl U
xGTAXBgNVBAoTEElu dGVybm
kmIr hQwUVDBNX
MIICXTCCA gSgAwIBAgIUeLy
airTradePremium Invested
CkBSDfY ulVO
EAwIDRw AwRAIgCoXa
IFdp ZGdldHMxDDAKBgNV
KSDTe TfgJxrX
QiXJ M
wDQYDVQQLEwZGYWJyaW MxDjAMBgNV
RBBswGYI XQW
OBhTCBgjA OBgNVHQ
BAMTBWFkb WluMFkwEwYHKoZIzj
MDAxNTAwWjBdMQswCQYDVQQGEwJVUzEXMB UGA
xGTAXBgNVBAoTEEludGVybm V
kmIrhQwUVDBNX CWX
EAwIDRwAwRAIgCoXa CdU
IFdpZGdldHMxDDAKBgNV BAsT
5 12
= ${
C ancelled
D on
D es
D ays
D istrict
F ER
G o
H e
I R
I p
M M
M es
M nemonicWord
R FID
S et
S DA
S UE
S rc
T s
T ally
U Y
U UID
W arn
Y args
] *
a ger
c bt
d c
e Id
g old
h k
h ert
i ple
j OP
k df
m ile
m onthlyForecast
p ly
q ID
r m
s pe
s Id
s With
t b
Ġ Offer
or onto
at iv
al ready
(' :
Ġt oll
Ġcon firmed
ing Contract
arg ing
Ġm e
Ġm ultisig
re ment
re cieverMSPId
ur ature
ĠE nc
ĠE dTech
get OwnProperty
get Events
get Proofit
Ġnew Allowance
Ġnew Receiver
Ġnew Transport
to Address
to Wallet
Ġp ing
ult iple
Ġe l
Ġe ither
ĠB id
ist or
ĠC A
ĠC ru
act Wallet
ĠA rb
Ġf rame
Ġf requency
Ġre iss
Ġquery Total
from WireBuffer
from Directory
As JSON
ed Key
Ġs kill
Ġb logAsBytes
Ġasset Hash
ce ption
Ġst ep
Ġi mo
cc iÃ³n
Ġget AllAssets
key Query
paper s
id Asset
By Patient
Ġfor ce
For Sale
Comp oser
Ġend Id
To Verify
und le
te nd
user log
con nect
(" ",
Ġstart Stub
ap ore
no log
set Metadata
new Id
for nitore
age no
Ġkey Query
:' :
bo ol
transaction Event
Ġjson Serializer
end or
Chaincode Interface
"); }
ir th
Ġerror Msg
([ ])));
med Number
list enerCountStub
Ġsu g
some Property
Get PrivateData
Ġfrom Contract
ĠP late
Ġsuper Class
transfer Id
lice nses
ace ability
Ġtransa cciÃ³n
.. .');
.. !');
ĠM aterial
Ġmy Yargs
ac me
ac cept
Ġcompany Buffer
company RegistrationObject
Ġpatient Key
Next Error
Ġan y
Item s
":" +
request ers
Ġshipment Id
Ġshipment Buffer
ip hert
ĠD is
buyer Name
Ġaccount s
Ġpass engers
Ġcomp lex
Shipment Buffer
"] ="
trans port
Ġall Result
Wallet BS
Valid ation
ĠT e
vehicle AsBytes
Ġfund ing
ĠR P
File Name
10 3
Ġprofile pic
str actWallet
Ġaccess Token
Ġvoter AsBytes
Ġchannel id
Comm ission
Comm onIterator
assign info
Bg c
Bg gq
AB R
fere nc
Ġvehicle AsBytes
Ġuse PointsTransactions
Ġprivate Key
Ġmedic ina
profile Old
Project ID
lab orator
listing Id
land AsBytes
Ġput Private
SS SS
Node DataCollection
Node EventService
Ġorigin Wallet
hy a
node Context
node data
Ġup grade
Ġsign aturesNeeded
place Id
sender Data
Ġsh ort
grpc s
col lect
Process Request
Process line
Ġbuffered Name
Ġbuffered Owner
Ġbuffered Symbol
Ġjob assigninfo
Ġ=========== ')
emr List
sign aturesNeeded
Logging Service
Logging Prefix
validate Stub
17 3
oles ale
Operator For
QueryState Close
Sub set
txn id
fund s
Ġlab el
NU AL
Ġenergy Value
Ġenergy Units
ten ance
receiver Data
---------------- ----
Ġcash Currency
produc er
Ss n
PER F
Ġagent AsBytes
ĠpublicKey Hashes
Ġreward To
ĠRegister ed
Ġcoin cide
requester Email
SU L
man uID
execute Query
registrar Id
Ġprod ID
keyTo Remove
ĠĠĠĠĠĠĠĉ Ġ
Ġearn PointsTransactions
Ġlicence No
Ġ"- "
pb kdf
May Hold
ĠDO ES
Ġcast Vote
Ġnomor Hak
Ġnode Context
Ġverification Result
allPartners Key
Ġ"] ");
internal Type
ĠdeleteCar CD
Activ a
Ser vices
riend s
initiator ID
Ġdst MspId
withdraw al
ĠChain Code
Ġexce eds
ĠSU CCESSFULL
pmt Arr
Sand hya
Trail Entry
ĠSing apore
Mes g
Warn Spy
hk jOP
mile ageno
ĠnewReceiver Balance
ĠArb itration
GetPrivateData Hash
iphert ext
hkjOP Q
) [
, );
1 99
1 34
5 7
8 6
A l
A m
A fter
A vailability
B C
B w
B log
B ID
B lue
C md
D igital
E B
H DA
H dr
I mage
K A
L m
M ore
P R
R eward
S CBeta
U nt
W A
a j
a BgNVBA
a utoscale
c ate
e v
f ice
l ong
m ov
p r
p res
p arameters
t m
t ask
v is
w Q
w eb
x M
x HDA
} };
Ġ gre
Ġ Logistic
Ġ jsnContent
er c
Ġ= {
at tribute
al Code
St age
ub key
ss iSmartContract
se ud
re deemed
get Identity
get Log
get Check
qu eries
======== ===');
to ms
State Type
Ġp ubECDSA
is String
tr aceability
Ġres earcher
ĠC ont
In Range
ĠA lice
ĠA sBytes
Ġre al
mp loyee
mp toms
ed IDs
() +
Ġs upp
Ġb uild
=== '
Ġasset Sale
ret rieve
ex ec
Ġex it
un ning
Ġget Data
Ġget AttributeValue
car SerialNo
ext ern
ext ension
il ter
00 7
Ġmodel s
ĠS upplier
AR M
By Address
Iterator s
asset Buffer
Ġv ien
user Exists
user Input
Ġcreate Event
(" -
(" ================
Ġstart Id
ic a
ic ed
set Update
Ġ3 6
Ġmock Cmd
met er
mock ClientIdentity
99 999
Ġtrans Id
'] (
init Time
Get ting
}, ${
ĠP allet
Ġperson AsBytes
Ġupdate Order
MSP S
ĠF ee
ĠF acility
Ġvot erId
ĠRe ad
buy RequestList
comp anies
Property Registration
Private Details
Ġbuyer Iterator
Ġbuyer CompanyBuffer
the Val
go od
Ġseller CompanyBuffer
Ġtoken Balance
Ġevent Key
Ġelection AsBytes
Product s
Product No
!! !!!"
Ġl on
mit ted
ĠT HE
ĠT oronto
process or
process ing
aN et
vehicle No
Ġins urer
election Name
election AsBytes
election Year
election Country
generate LoggingPrefix
Ġitem Id
collection Spain
ca dem
ized Cert
Ġapp ly
obj Types
ĠĠĠĠĠĠĠĠĠĠĠĠ ĉ
Ġreject ed
ĠH ealthcare
Ġtransporter ResponseRange
imal Id
inspect or
Num ero
node container
'} ]);
AN NUAL
ĠProduct No
ĠJ ob
Ġvote List
Ġ[" _
validate Initiator
Ins ufficient
vote List
existing User
!!!! !!!!!"
Ġmedicine AsBytes
device Exists
bank Account
Ġuni x
IB O
ĠState ment
Ġeslabon es
ak ta
El len
(', ').
ov erride
Land Owner
fe atures
ĠTr ack
balanceOf Sender
uni qID
Document Info
Ġactor Roles
Ġinitiate d
Ġincorrect o
ĠqueryPoc ResultsParse
statement List
onto Meta
Ġmonth s
INJEC TION
INJEC TAB
!!!!!!!! !!!!!!!!!"
ĠEX PI
APPRO VAL
ĠIS SUE
just ment
Resol ve
Frequency Count
roc ery
hoiTa o
]* )(
ĠMaterial s
ABR IC
xHDA aBgNVBA
seud onym
traceability sc
extern al
collectionSpain Stavanger
cadem ic
INJECTAB LE
ĠISSUE D
- "+
5 2
7 26
8 4
A j
A VE
B al
D unc
I VED
K g
L i
M ET
P DATE
T N
T O
T ast
W AL
] '
b ay
b ack
b uild
b arista
c atalog
c redsSpy
c urriculum
d ra
d upCheck
f Key
f unded
g rnVotable
h igh
h omeOperatorName
m Name
m Votable
m spID
o peration
p ageSize
v g
v or
v data
v ari
} '));
¾ ä¸į
æ ī
Ġ ),
Ġ MsgQueueHandler
Ġ pens
Ġ libVotable
Ġ utxos
Ġ LEDGER
et ype
ĠĠĠĠĠĠĠ ĉĉčĊ
Ġc redsSpy
in dependent
Ġ{ });
le y
Ġa utonomousSystem
(' "
ct Activity
Ġ' )
Ġ' ;
Ġr oll
Ġcon vdata
ing Plan
Ġ( `
se ctActivity
re newPlate
re pVotable
re publican
de lta
so ciet
get History
get Keys
get StringArgs
Ġnew T
Ġnew TotalNumPassengers
sh ortTxid
lo y
ion Fund
Ġp ur
Ġp ubKey
JSON DrugCompositeKeyForSearch
is Exist
is PenalizedBy
is dn
ĠB atch
json Error
json Obj
json DrugDetail
tr uyVan
Ġres Iterator
query Paper
query TMC
ĠC ert
ĠC lose
th ese
In dependent
ch ild
ĠA uction
Ġf lag
Ġd upCheck
res Iterator
Ġre ciever
Ġre flectStub
Ġre lationsArray
Ġre pVotable
Ġtr aderId
ed Qr
Ġb o
Ġb ro
Ġb ought
Ġctx Stub
Ġcar SerialNumber
ai ve
Re publican
Ġin to
Ġin coming
Ġmethod s
Tr ue
Ġto Location
ess ages
Ġpaper Result
Ġget CurrStub
car Object
Ġ[ {"
il Begin
parse PeerUrl
Ġmodel Manager
li bertarian
Asset Sale
om a
ĠS cen
Ġh igh
Ġw inner
all LogisticUnit
Ġend Coordinates
Ġthe Val
To Vote
Contract Id
te Forn
user type
old Account
start ed
start Id
start sWith
(" /
(" ::/
set Collection
set UnitOnMarket
Ġis Exist
new ErrorMsg
new UserObject
(` -->
order Exists
Ġfunction Exists
Ġmock NewErrorMsg
Ġmock Opts
Ġmock Shim
Ġmock RemoveCurrentAndSendNextMsg
Ġuser Request
ser vices
Pro j
Pro gress
Ġde mVotable
la vor
end orsement
ĠCreate d
Ġid String
Ġid Val
Ġid Params
User Id
User Initiator
Ġobject s
ir mName
Ġcurrent Weigth
Ġtrans ports
Ġresult ToPublish
RE CE
Ġĉĉĉĉ ĠĠĠĠĠ
Ġwith draw
ination Code
Ġdrug Detail
some Schema
Create Stub
ĠP end
Ġperson JSONasBytes
est ado
ĠF ARM
ver se
Ġunknown Stub
drug CompositeKeyForSearch
drug CompositeKeyID
ind Votable
result Bytes
Drug ID
ĠM int
my cc
my Contract
file Id
(), [
green Brief
ob c
Ġtotal NumPassengers
Ġtx Date
Ġtx Queues
Ġpatient Email
Ġrequest NewUser
Ġg rnVotable
Ġbuyer AadharId
Ġhandle GetStateMetadata
Ġhandle InitSpy
Ġhandle TransactionSpy
Ġpurchase Property
Trans cript
request Number
seller Object
handle Init
handle Transaction
handle GetState
handle StateQueryIterator
handle GetHistoryForKey
handle DeleteState
call s
Ġelection Exists
CA TION
TA I
ĠT HIS
Ġregister Milk
ra ud
model Key
model Number
pen se
Ġtravel Object
not Deleted
election Exists
Ġvalid DrugId
Ġen v
Ġitem Type
collection Offer
Ġcandidate Info
ĠG ood
Ġcert Path
Ġballot s
Con ley
acc dept
view ers
Ġreceiv erId
ĠW e
ĠW eb
Ġschema Path
Ġtransporter Iterator
Found ForComparision
item Id
Ġuuid v
Unit Measurement
Ġprivate Stub
Ġdonor Info
Ġmember s
Ġcertificate AsBytes
Ġgenerate Retailer
Ġgenerate Ballot
Ġgenerate SellerCompanyID
hold AuthValue
Ġpay ByTravel
Ġtime out
Ġtime Stamp
listing State
Ġtemp Obj
Votable Id
her e
ĠdrugKey DataBuffer
Ġoffer Id
Ġoffer Asset
invoice Number
Node Container
certificate Exists
Ġsign edProposal
ification Object
Ġbid s
Ġbid AsBytes
mod Path
col ons
Ġsave StateQueryIterator
Ġsave HistoryQueryIterator
Ġsave CreateStub
Ġparsed PurchaseOrder
sell Order
ĠballotData Path
CompanyName ForComparision
votable AsBytes
votable Exists
example Metadata
Ġsend erId
Registered Msg
DO B
Ġglobal Citizen
Ġjob Id
Ġjob Val
Ġold PriceTravelPerPassenger
Ġold TotalNumPassengers
ĠCompany CRN
CompanyID ForOwner
patent IDs
CC qGSM
Ġpaid Amount
Ġvalidate Registrar
Ġvalidate UserInitiator
Ġapprove NewUser
Ġapprove PropertyRegistration
existing Property
existing Shipment
Ġprop Names
dummy Key
dummy Id
medicine AsBytes
Ġvotable AsBytes
Ġvotable Exists
NU MBER
getCreator Id
encode d
phone No
submit Paper
Ġbill To
Ġbill From
cor p
ĠelectionData Json
ĠelectionData Path
Ġcreditor Obj
pla nt
Ss ccKey
Recon Object
currentOwner Type
topic s
topic AsBytes
Ġpatients Attended
returned Transporter
PutState Metadata
9999 9999
govOrg Id
module Name
ĠK YC
Ġtransport ForUpdateShipment
Ġinstance of
Operation Attributes
ario Context
Ġmed i
trade Id
electionData Json
electionData Path
patients Attended
parsed CurrentTime
ov tH
Ġvoting ResultEvent
ĠAS N
Ġqty UnitMeasurement
retailerCRN ResultsIteratorForComparisionResponseRange
Ġlimit Km
Ġreferred By
ByUser ID
Production sForMeterpoint
Ġleave Balance
Ġleave Application
food Contract
ĠqueryContentBy Org
Gl n
Ġloading ID
Ġreg ion
Consumption sForMeterpoint
ChainX Id
UN K
aging Org
Ġcontainer ID
template Data
Est ablishedMsg
aclize QueryResult
ĠcreditNote Period
reward Balance
controller ID
ĠLand Paper
Machine Id
dem Votable
ballotData Path
Ġroaming Rate
Ġdrugs InShipment
Ġdicom Id
unit OnMarket
ĠCon structor
ĠgetCurrentUser Id
ĠreturnedSeller CompanyName
ĠreturnedSeller CompanyCRN
handlePutState Metadata
buyerCRNFound ForOwnerResponseRange
ĠgenerateBuyerCompanyID ForOwner
ĠreturnedBuyerCompanyName ForOwner
ĠRawMaterial Used
Democrat Brief
åĩ½æķ° åĲ
actor Id
pharmacy Id
fed DemocratBrief
Ġ'../../ ../
define Properties
Ġind Votable
çļĦ åĩ½æķ°
è¦ģ è°ĥçĶ¨
ĠreturnedTransporter CompanyName
ĠreturnedRetailer CompanyNameForComparision
ĠhandleMsgResponse Spy
Ġcdr ReconObject
att ery
ĠCall ing
ACCE SS
Ġcredential s
enter ance
PROD U
150405 4
ĠgenerateKey DrugOwner
åĪ° è¦ģè°ĥçĶ¨
Ġ35 34
cross chaincode
arly Pay
Ġpric ingPlan
Ġbm leKey
District s
Go ing
ply Paper
getOwnProperty Names
ĠPlate Chain
ĠSUCCESSFULL Y
Unt ilBegin
pres Election
Ġsupp led
Dunc an
Li bertarian
Tast e
bay es
¾ä¸į åĪ°è¦ģè°ĥçĶ¨
æī ¾ä¸įåĪ°è¦ģè°ĥçĶ¨
Ġpens ionFund
independent Brief
Ġroll no
Ġconvdata Time
republican Brief
societ yId
edQr Payload
aive bayes
libertarian Brief
ĠScen arioContext
RECE IVED
collectionOffer teForn
ĠgenerateRetailer CompanyIDForOwner
ĠvalidateRegistrar Initiator
ovtH os
åĩ½æķ°åĲ į
UntilBegin Travel
æī¾ä¸įåĪ°è¦ģè°ĥçĶ¨ çļĦåĩ½æķ°
+ (
/ ${
1 22
2 14
: ',
A udit
A SN
B O
D IS
F OR
F ee
F uture
G O
G rade
H ER
H ouse
I AB
J an
J OB
P ac
R unning
S ChainX
U D
b ud
b uk
c ul
c dr
c andidates
c ourses
d omain
f loat
g uest
i e
m on
m fgDate
p riv
r is
s rc
{ \"
} ));
¦ æ
Ġ Result
Ġ Received
Ġ Only
Ġ Transport
Ġ Thi
st atistic
Ġc al
Ġc ant
Ġc andidates
==== ');
nt ForTime
se p
re ce
de leted
get Product
get Schema
get Policy
get Identifier
ut anah
nd or
Ġ+ +
is es
ĠC reator
ĠC OU
rom ises
In st
ad or
Ġquery Event
Ġquery Cars
Ġtr x
Ġtr xn
Ġ! !
ĠjsonRes ponce
Ġs um
Ġs anitizeArgs
Ġasset Lease
am mend
put Asset
Re place
Tr uong
') ));
00 5
vo iced
ance led
ric es
Ġvalue AsBytes
Date String
set Pending
erC ont
new Instance
Ġtransfer From
en able
org User
Ġdelete Patient
Ġde alerCarsList
Ġchaincode Functions
mock ery
De livered
De leting
RE SS
Ġse arch
ĠP END
work er
drug CompositeKey
ath er
Ġad j
.. !"});
Ġtransaction ID
ĠM anufact
Ġmy PrivateAssetId
comp leted
Ġadd r
ac ija
otar yId
Ġpatient Number
ĉĉ ĠĠĠĠĠĠĠĠčĊ
patient details
Ġbuyer Value
Ġseller Value
Ġproperty RegistrationRequest
Un registered
Ġlist enerCount
Ġlist features
Product Tests
Ġserial izer
ĠT OKEN
ĠT hao
account ID
word FrequencyCount
Ġset up
min t
ink ya
email Id
Ġaccess Rights
Ġitem AsBytes
Ġcandidate AsBytes
Ġcert ifier
emp loyee
Ġprocess ing
member Id
cp f
Ġpath ToRoot
Reg net
token Balance
token Issuer
ĠNode EventService
ĠNode DataService
19 6
vok ed
ecut ive
exp iryDate
Ġle vel
Fund s
ĠQ R
Process Line
course List
ĠU PDATE
Ġdelivery Info
roll ers
bc rypt
phone Number
PER SON
Be fore
ĠProcess or
ordin ate
Wr ong
Raw material
createAndEmitResult Stub
permission edIds
Ass ign
Rule List
uni User
agent AsBytes
dis able
lin ic
Est onia
Ġrecharge Account
coupon Id
ĠgetCurrentUser Type
Healthcare Logs
crn Key
Ġthro ugh
ĠTRANS ACTION
ifecycle Contract
ĠPh uong
Validation Parameter
mov ed
Ġgre ater
ĠEXPI RE
Aj inkya
DIS TR
bud get
buk utanah
float SenderBalance
putAsset Data
ĠPEND ING
" '));
. `;
2 19
4 2
6 9
7 1
7 3
A G
A ESKeyLength
B ought
C LA
C ustomerId
D enmark
E P
E al
I h
I i
I AT
J ohn
N K
O i
O per
P res
S hare
U P
U T
U SA
U FACTURER
V ideo
b f
b logAsBytes
c ipher
c Loads
c redentials
c ustomerId
d st
d ash
d HR
e er
e ll
f actory
j ecut
l c
l id
l ambda
o sh
p in
p wd
r un
t mp
u age
x Data
z M
z d
z ero
} "}
} });
´ ¦æ
å ¤
å Į
è ´¦æ
Ġ å
Ġ TE
Ġ Transactions
Ġ Viewers
Ġ pending
ĸ è´¦æ
ľ ¬
Ġc rate
Ġc urriculum
Ġc lave
in as
at pro
Ġ} ),
Ġa cce
it ity
Ġt m
Ġt icket
Ġr ID
Ġcon s
ro s
if e
ss i
se arch
re ca
re cipient
de nce
de gree
an xData
ur acion
get Shipment
get MspId
get RangeResults
Ġnew Key
Ġnew Pass
Ġnew Container
Ġnew ClientId
Ġnew ShipperId
Ġnew TrackingInfo
Ġo s
lo sed
per form
to ol
Ġp oints
Ġ+ "
Ġe ip
Ġe KYC
Ġe jecut
is In
is TLS
json Object
tr ust
ĠC ommer
ĠC ORE
uf f
ch ed
ĠA ESKeyLength
Ġf is
Ġf utureContract
Ġf ilter
Ġd ay
Ġquery Owner
() "
() ]);
Ġs k
Ġs urveyID
Ġmet aKey
ce Size
ex ecuted
put Data
Ġin voices
Ġi otData
Ġget C
Ġget Key
Ġget Token
Ġget Load
Ġ1 6
Ġ1 7
car ID
key A
key B
ent ries
Ġ======== ====');
ĠIn stantiation
Ġcatch ed
load Id
load Added
Record Id
ĠS ample
ĠS EC
ĠS TU
delete Cars
Ġh ours
By Name
Ġcars Requested
ime nsion
ve ndor
asset Owner
pro d
Ġvalue Bytes
erC A
TAR IAT
new State
new Value
new ClientId
new PropertyObject
new ViewerId
owner s
Ġkey Path
ByRange WithPagination
contract Info
Ġpro cessed
update Check
Ġwh oRegistered
as es
Ġchange Owner
Ġde adline
el ist
rd Call
pp RegistrationNumber
Args Length
Ġtype Of
Ex ecuted
assert MspId
net Contract
Ġorder Product
RE V
RE TARIAT
able Transfer
Call erCA
med AsBytes
chaincode Path
Ġissue d
Ġ[] };
Ġupdate Project
est ate
ĠF irst
ĠF arm
drug History
add Amount
Order State
valid ity
.. ";
Up gradCoins
Drug Key
Drug Name
Fi Iterator
shipment Id
shipment DataBuffer
ĠM od
ĠM obile
ĠM AN
check ArgsLength
Ġmy Obj
Ġadd Patient
Ġadd Load
Bar code
Ġg uest
Ġclient FiIterator
MA NU
Ġindex Owner
Ġbatch Size
patient FirstName
patient RecordList
getArgs Stub
AC HER
product Data
Ġupdated Property
Ġar ound
fi ClientResult
fi dence
client FiResult
Ġproperty Status
Ġproperty DataBuffer
Ġlist enerCountStub
call er
Ġelection Id
buyer Iterator
Ġaccount No
Ġserial Number
Ġexpected Date
index Viewer
"] ==
Ġl ang
Ġall JSON
Client Iterator
current OrderState
ĠT ask
batch Size
Ġtravel s
path Exists
Ġdate Of
ĠN aivebayes
do Order
do Hold
ustom ers
updated Course
Ġen rollment
Ġload Element
Ġfi ClientIterator
TR O
Ġcandidate JSONasBytes
Ver ifier
ĠOrder List
wallet Address
Ġview er
Ġview erId
Ġsub scriber
COU RSE
deb it
Ġservice AsBytes
Ġservice provider
Ġservice area
Found Index
item Type
Ġinvoice AsBytes
test Config
Ġmember Type
lease List
medic ina
lab oratory
Ġpay Method
Ġfile Metadata
travel Id
PO Key
SS N
Ġlisting Id
bid Type
Ġallowance Value
Ġinitial ClientData
Ġinitial FIData
amp les
transporter MSP
Register ing
]: *
ĠDonation Manager
license Id
Ġencrypt AndDecrypt
Process ing
private Key
fs Hash
text Bytes
Ġnames pace
issue date
Ġstock Id
ĠO peration
origin Wallet
Ġsupplier ID
Ġbuffered Donation
Ġbuffered TotalSupply
verifier Data
Cert ifier
ĠAdd ress
Ġtext Bytes
ma j
instance Key
receiv erId
Ġvalidate Data
pledge AsBytes
Ins urer
Bid s
Bid ding
ĠDe c
ĠDe be
ĠRequest List
Ġstudent Key
Ġprop Name
Ġrequester Info
random Buffer
Ġpermission Array
Ġact ivationdate
stock Id
Ġapproved UserKey
Profile Id
productID Key
PL ACE
Ġprovider Data
encrypt AndDecrypt
student Key
alleng es
loads Contract
ten ant
Ġrece ipient
Ġship Method
Ġclear ingAgent
App ointment
clear ingAgent
scri be
Req Key
Paid Out
pla inText
Ġtrade Term
getAsset History
ĠShipment List
Be PaidOut
ĠRE CORD
Ġdecrypt edBytes
ĠK V
Ġpre v
Ġpre ference
Ġehr Buffer
ud acion
secret NameIndexKey
Ġten er
CHAINCODE S
Ġshipper Data
('_ '))
Ġdi gest
Controller AsBytes
Controller IndexKey
Clear ableTransfer
balanceOf Owner
Fact List
Fact Object
decrypt edBytes
Ġcaller Roles
Ac cept
Ġpledge AsBytes
reg ulator
Ġqual ifiedOperator
tracking Info
ĠSuccess ful
ĠSuccess full
Ġdis patchDate
Txn AsBytes
Ġoverage Rate
emit Stub
ĠappInfo AsBytes
ĠSupplychain Contract
ĠSupplychain Context
Manufactured By
stat etype
Ġpla inText
ĠAct ual
Modification PendingApproval
ĠPharma Contract
Ġemit Stub
ĠgetRe lationBy
Could n
fed eration
define Property
leave Application
ĠnewBalanceOf Owner
ĠnewBalanceOf Spender
ĠAb stractWallet
ĠroyaltyManagement Asset
Pledge State
nom P
ĠView L
roaming PartnerName
getRe lationsArray
Ġlead Time
å§ĭ åĮ
ĠBe fore
maturity date
ĠupdatedDonation Data
ĠNon ceSize
walletBS FromPubECDSA
onetary Status
ACTI VE
\(\ )"
åĪĿ å§ĭåĮ
dat am
Ġms isdn
raisal Form
cbt List
rm Key
ativ os
ĠnewAllowance Value
nolog y
SUL T
WAL LET
ĠnewT emperature
parsePeerUrl Fcn
ĠPend ing
ĠCOU RSE
ĠqueryCars ByRangeWithPagination
Oper acija
cipher Text
ĠTE ACHER
ĸè´¦æ ľ¬
Ġacce pts
reca udacion
ĠnewContainer ID
perform ance
Ġejecut ar
ĠCommer ical
ĠSEC RETARIAT
ĠSTU DENT
ĠMobile number
ĠMAN UFACTURER
MANU FACTURER
åĪĿå§ĭåĮ ĸè´¦æľ¬
5 4
A gre
A MPLE
C te
C ache
C lean
D D
E ncrypt
F reedomDividend
G ION
J n
L M
L bo
M O
M ake
M TE
M BgNVH
N S
N ING
P em
P ack
R C
R P
S C
V A
b asket
c ould
c icero
g adget
h dr
i ssu
l spName
m anager
m ontoMeta
p pen
s ug
s imple
t p
w EB
y y
} "}}
§ å
¯ ¯
â Ģ
æ ĺ
è ¯¯
é Ķ
é ľ
Ġ es
Ġ Item
Ġ Hash
Ġ lease
Ġ uId
Ġ greeting
Ģ è¦ģ
Ļ è¯¯
er v
er to
== >
et ailed
on ly
Ġc red
Ġc ategory
Ġc iphertext
at rb
Ġ} });
==== ");
Ġ' '){
Ġt wo
Ġr am
Ġcon g
Ġm ission
se ns
re ference
an os
ĠE nd
Res ident
get Request
get Project
get Invoker
Ġnew Balance
Ġnew Price
Ġp air
Ġe ng
Ġe valuation
is Contract
ĠB ase
query Event
ĠC DR
Ġre ci
Ġĉĉ ĠĠ
() }`;
ri age
Ġcar year
ce l
Ġowner Balance
Ġin stantiated
Ġex tra
Ġto Buffer
Ġget M
Ġget ResultFromBytes
Ġ1 8
ĠIn valid
Ġ[ [
Transfer ing
ĠS kill
success fully
Ġw edding
Ġv ia
Contract Wallet
user InfoObj
con dition
con vert
Ġcreate AndEmitResult
ĠĠĠĠĠĠĠĠ ĉ
(" ---
Ġis bn
new DrugObject
], "
response Wrapper
Ġtransfer Organ
Ġinit ialize
update Shipment
update Patient
Ġdelete Key
met a
Ġuser log
Ġuser Number
Ġuser Email
Ġempty List
Ġchange Data
Ġchange LandOwner
transaction Commit
du ce
Ġha ppen
RE GION
Pri v
Ġse ns
DE L
SE LLER
init Candidate
Ġsu aDiem
Get CallerCA
Ord erId
ry ption
ver bose
ver ifiers
drug JSON
drug Results
drug key
add er
wh olesale
allo w
ĠM nemonicWord
22 22
0000 1
0000 00
den itity
Ġadd er
company Buffer
fin anceCos
Ġcont ain
Ġg vinfo
Ġg rocery
Ġnum Contractors
Ġnum ProjectsAsBytes
Ġnum ContractorsAsBytes
Registration Contract
patient Number
ubli shed
Ġseller Object
Ġtoken Dicom
event Id
Ġ` {"
.') )
Shipment Obj
CA N
Ġall Commons
11 7
batch Parsed
IN IT
not Equal
AL OF
My SmartContract
comm it
comm Key
Ġvalid ation
register Company
... ");
collection ID
Ġver ifierId
Travel s
Ġreject ing
shipper s
DA MBgNVH
ME TA
ME MBER
16 0
Ġproject Id
lect ron
FI CE
Ġvehicle Trust
Ġuse Clean
ĠNode DataCollection
Ġro ot
Start Command
ĠAd justment
Ġdoctor InfoObj
posit ive
******** ****
Ġtest BusinessNetwork
Student Object
Node HTTPService
node utils
Ġorg ID
certificate Key
Ġbid Details
ĠData Collection
mod ify
Ġĉĉĉĉĉĉ ĉĉ
Ye llow
approved Users
18 8
cho ice
Ġcoins Balance
emr Number
Ġold PriceDepositPerPassenger
Pharm aNet
access DocumentInfo
Ġss cc
Ġbank Id
ĠDe livery
RM BAf
Ġpermission edIds
jA A
bank Id
MP AN
ĠState Type
match es
spender MSPId
report Id
Ġtopic Number
Ġmanufact ured
getAsset Buffer
resident Id
cash Value
delivery ID
delivery Plan
lic ations
SH T
Ġthan h
Ġprescription Id
coins Balance
ĠProfile States
getCompany Key
trader Key
Age ncy
Ġbody Num
Buy Request
Ġdep loy
pallet Group
Production s
keyTo Add
utility Company
utility CompanyId
Ġparticipant Id
Ġpublish erId
vious Projects
Pre viousProjects
Ġreg Num
ĠcbtObj Key
00000000 2
Consumption s
>> >
ĠCO MPLETE
ĠAct ive
Ġ**** ***
Ġutility CompanyId
Ġcart on
ĠOfferta ID
active ProjectID
@@@@ @@@@
Ġresident Id
('================ =
consumer MSP
Ġproduction s
FA I
dicom Id
Ġmerchant Key
Ġmerchant ID
ĠwarnOn Replace
ĠwarnOn Unregistered
ĠTrade Order
contain s
Lin es
Ġdif fer
EA jAA
Single Car
UdD wEB
wQ EAwI
xHDAaBgNVBA MTE
maj ority
Agre ed
éĶ Ļè¯¯
éľ Ģè¦ģ
atrb pn
Ġeng Num
ĠCDR s
ĠgetResultFromBytes Stub
ĠcreateAndEmitResult Stub
REGION ALOF
DAMBgNVH RMBAf
lectron ic
ĠuseClean Cache
REGIONALOF FICE
! `;
" ';
5 3
5 000
8 9
9 11
> ",
C H
C CD
C apacity
D escri
F H
G Y
G ovtHos
H Y
I M
I TE
I ssuing
K ilo
L ast
M CD
N B
N YC
O CC
O wed
P id
P oint
P UT
Q F
S ource
U int
U PA
V L
V T
V AR
W edding
X R
a h
a utonomousSystem
b ability
b attery
c an
c ated
c bc
c isco
d B
d b
d on
d nd
d river
d iploma
d uracion
f fic
f riends
g d
i Name
k yc
m usic
n ia
n anos
o ple
p resident
p OAsBytes
r it
r ames
s b
s k
t erId
v a
£ ®
æ Ŀ
é Ŀ
Ġ Ro
Ġ Vaccine
Ġ ('#_
Ġ ======');
st ep
Ġc ould
Ġc ommercial
Ġc oop
or ing
or nia
le ge
Ġ} `
Ġa cid
Ġa adhaarNo
al Data
it ime
Ġ' <
Ġcon sumer
St ation
arg User
Ġm ultiple
if ornia
re voke
re ferral
wa ble
an ces
ĠE nt
ĠE RC
Ġnew Status
Ġnew Entity
sh t
sh ot
ol lege
fo und
to DateString
Ġconst ruct
Ġp oint
Ġp redict
Ġp OAsBytes
Ġe v
is Prop
shi van
ĠC o
ĠC an
ĠC bt
ĠC andidates
ĠC ross
th i
th ere
In JSON
In Process
In Seconds
ĠA ss
Ġf reedom
Ġf airTradePremiumInvested
Ġd river
Ġre lease
Ġs ort
Ġb Value
Ġb reed
Ġb asket
Ġb rand
error Msg
Ġasset Owner
Ġasset Data
am il
ce vent
Re lease
Re jected
Ġin stantiation
Tr ace
Ġget Un
Ġget PrivateAsset
') ],
us pense
id Org
Ġ" )
Ġ" .
ĠS im
ĠS ource
Ġh omeOperatorName
For Km
all Orders
vo lent
Ġamount Added
asset Class
asset Data
asset Obj
create Car
create Order
To Uint
user Data
con firm
con signment
Ġcreate Private
Ġcreate PrivateAsset
use PointsTransactions
new ShipmentObject
Ġ4 3
(` {"
Ġtransfer Asset
Ġch annelID
ck nowledge
contract Detail
Ġdata Type
Ġdata Attributes
met aKey
Ġcontract or
Ġcontract Key
Pro bability
Ġde lta
Ad min
================ ====");
Th ings
Chaincode Input
read DigitalAsset
Ġid Type
quest ion
)) /
Met ro
Ġerror Trace
CO ME
Ġun authorized
med i
Ġse ats
DE D
Ch o
some Component
some Things
chaincode Proto
Ġissue Requests
Create dAt
ĠP resident
ĠF ran
ver ified
drug HasSeller
ĠRe g
allo wed
0000 0
check Keys
comp lete
Ġadd Contract
Ġadd ition
ano ther
bro ker
Ġrequest Results
Ġrequest AsBytes
Ġrequest ers
Ġrequest assetObj
Ġg ps
Ġg rainContract
ain tenance
Ġbatch State
patient Exists
patient record
Private Key
Ġbuyer Company
Ġbuyer Details
ĠClientIdentity Chaincode
Ġ--- ");
:\ /
Ġorgan AsBytes
Ġaccount BalanceVal
Ġcheck Keys
Product Contract
Ġ[' _
Ġserial Key
LE AVE
Ġall Payments
Ġall Owners
ĠT emp
ĠT oll
ĠT emperature
ĠT enant
batch tag
account s
account Id
account Balance
IN COME
not e
Ġdate Stripped
total Amount
My Contract
Ġare a
Ġprofile Pic
po cevent
ĠOrder Contract
istri b
Ġver ified
Ġy args
NO WN
Ġapp Class
wallet To
Ġinsert ed
Ġprocess Request
Ġballot Buffer
ins ert
Ġcomm it
RO LL
ME DI
Ġtransporter Name
Que stion
16 8
Ġproject s
Ġsender BalanceVal
Offer Bid
Ġlo cal
:: >",
invoice AsBytes
Ġdec ipher
NET ORGS
exp Date
bid s
bid der
sc ore
Ġorg Description
transporter Iterator
Ġle n
15 00
Ġcustomer loyaltynew
TC H
sender Address
sender BalanceVal
Model Manager
mod ification
drugKey Name
Ġreceiver BalanceVal
creator Id
issue Requests
GV zd
verify Requests
votable Title
ĠLog Chain
Ship Certificate
Ġmod FileName
ĠassetKey s
DO C
Ġemr AsBytes
Ġglobal Logs
Ġ%> ',
Ġhospital Code
ĠCompany List
Ins pector
17 4
Return ed
entity List
Ġprop ietario
Ġrequester Exists
44 31
Ġretailer Key
Ġmedicine Receipt
device State
Ġtxn Id
Logistic s
bc pocevent
ow ed
Ġreport Name
Ġreport Year
Ġlab Record
receiver Address
---------------- --------
Plan Object
Ġrequested List
EMR State
ĠManufacturer Contract
global Logs
Pending Modification
Ġign oring
Ġrate AsBytes
Ġoperator s
Ġpallet Number
Ġehr Id
Ġparty Buffer
zE uZXhhbXBsZS
earn PointsTransactions
ĠBlock chain
Ġtruck AsBytes
Ġtruck Id
Ġtruck Contract
getCompany Object
Ġtrader Key
Ġresource ID
man agingOrg
Ġattr field
åı ·
Fact Id
ick er
Ġallow Overage
truck AsBytes
truck Id
ĠAccess Control
ĠRetailer Contract
Match ing
Ġlast ModifiedBy
Ġ******** *
Ġpledge Id
Ġsrc BCOINJson
ĠdrugHistory Iterator
riv ers
Ġcompensation NoTimes
Book ing
bill s
Ġproyect To
Link Key
]} }`);
tt p
Ġfinal Score
Ġman u
Ġoverage Flag
testCollection CCD
testCollection MCD
ĠcreditNote Data
manufact ure
Ġroaming PartnerName
Use Id
Ġnomor Akta
ĠĉĠĠĠĠĠĠĠĠ ĉ
Tag IndexKey
approver id
ern edIDs
ĠEX IST
landPaper List
queryPoc ResultsParse
ĠAadhar Number
)* (
appInfo AsBytes
Ġbag sExpected
Ġsal ary
Ġcclogger Named
video Provider
Ġreading s
emission s
cadena Aux
NE TRO
overage Flag
yZ zEuZXhhbXBsZS
ĠwalletTo Fund
Distribut ion
LOCK ED
Pla ces
Ġund er
Cal ifornia
ĠGlobal Context
================================================================ =====
Ġopted Services
UY ER
spe nt
profileOld JSON
laborator yId
extension s
ToVote On
UNK NOWN
rece ive
ĠManufact ure
å¤ §å
ĠiotData File
ĠtypeOf MedicalRecord
REV IE
Ġlang uage
ĠAddress Contract
}"}} ]}}`);
Descri ptor
OCC UPA
ffic acy
Ġacid ity
alData Category
shivan i
ĠCross Chaincode
amil y
someThings ToVoteOn
ĠPresident ial
ĠFran cisco
ĠTemp late
ĠTenant Info
ROLL MENT
OfferBid Price
NETRO LES
å¤§å £®
OCCUPA TION
! ')
" ');
) -
4 56
7 28
? )');
A cademic
B H
B lood
C ER
C ycle
C reating
D ig
D el
E L
G x
G iven
G dt
H ost
I TI
I TH
K U
M D
M j
M z
M spID
N Z
P S
P rices
Q k
R UG
S K
S u
S old
V B
W orld
Z one
\ ":{
] =
a a
a led
a adhaar
b re
b logs
c ancel
c redential
c zE
e ded
e very
g m
j C
j oi
k un
m no
m obile
r ans
s or
s ale
s GA
s aW
t icket
v b
y z
} ${
å ·
Ġ qu
Ġ Value
Ġ History
Ġ Org
Ġ Issuer
Ġ Quotation
ĠĠĠĠĠĠĠ ĉčĊ
on a
ar itime
st ma
st ored
Ġ} )));
Ġa utoscale
it able
Ġt id
Ġr un
St ore
Ġn s
ing er
Ġm eds
ss l
ur i
ĠE n
ĠE st
ĠE fficacy
Ġnew Team
Ġnew Association
Ġo mspid
Ġĉ ĠĠĠĠĠĠĠ
ol n
Ġp in
Ġp oliceRecord
ult AsBytes
Ġe valuationMeeting
is A
is User
is True
Ġres ources
ĠC ount
ĠC alled
ĠC lause
ad j
ĠA mmend
Ġf e
Ġf aculty
Ġre gistr
Ġquery C
Ġquery Data
Ġquery Mobilenumber
string Query
ass word
od ities
Ġb ackordered
ator s
Ġcar Owner
Ġi denitity
Tr ack
Ġget ting
Ġ1 9
Ġ======== ========
us es
us ultAsBytes
il izer
delete Property
ĠChaincode Base
Ġh eight
Ġfor ge
Ġdoes not
asset State
asset Lease
()) ).
create C
ĠnewOwner Wallet
em ergency
pro gress
Ġ2 2
(" @
set Paid
Ġis Equal
#### ####
use d
ert ilizer
new PO
for Sale
Ġ4 04
owner Key
owner Object
number Of
Ġch o
update Property
Ġdelete State
as ign
Pro yect
Ġdonation AsBytes
Ġchange Order
Ġchaincode ID
mock HistoryQueryIterator
De livering
On e
RE SULT
Init ialize
CO MPLETED
Obj Id
Ġse eds
20 18
NG E
ĠAsset Util
ĠP A
ĠP RE
ĠP lace
transfer From
ĠF ABRIC
ĠF ertilizer
add Asset
add Property
Part icipant
Ġ========= ')
Ġsuccess full
Ġvot ed
Drug Obj
shipment Buffer
ign al
getStateByPartialCompositeKey WithPagination
ac iÃ³n
Ġ'_ '
Ġproduct Obj
Company List
property Number
Ġbuyer CompanyKey
product o
event Name
Un authorised
request Object
Ġcall erID
seller Value
Ġ` {
ĠD RUG
buyer Value
ĠĠĠĠĠĠĠĠĠĠĠĠĠĠĠĠ ĠĠĠĠĠĠĠĠĠĠĠĠĠĠĠĠĠĠĠĠĠĠĠĠĠĠĠ
ĠĠĠĠĠĠĠĠĠĠĠĠĠĠĠĠ ĠĠĠĠĠĠĠĠĠĠĠĠĠčĊ
(/ \
index ed
pos ure
current EMRState
Ġtrading Symbol
IN Z
Ġset Time
ĠN etwork
Ġins pector
My Machine
part ial
part iesId
Account s
10 4
10 5
cert ifier
Batch Id
12 9
ill ager
Ġmatch ed
candidate InfoinJSON
ĠdonationId s
view DrugCurrentState
ĠW eight
ĠH o
ĠH ealth
ĠPro vider
ĠPro duce
Ġsender MSPId
Ġexisting Request
item Info
token OwnerMspId
test net
Ġmember Id
Ġexp iration
Ġdoctor s
msg Sender
Ġtime Zone
Ġfile id
listing Key
land Title
exp ired
Ġauthor ize
rie ved
ib rary
node context
Ġco lour
15 8
Ġidentity Results
community List
MC KA
MC sGA
approved UserKey
approved PropertyKey
Fin al
Fin ance
ĠproductID Key
ĠU N
ĠU se
Ġmod ify
emr AsBytes
patent ID
ĠDe vice
Ġsubmit ter
Ġentity Name
Ġpermission s
Or False
ĠpurchaseOrder Key
txn ID
76 9
bank TransactionId
getUser name
getUser Request
Ġsucce eded
match PerCent
ĠSt atistic
submit ter
Man u
rs asign
Ġship ID
Ġk hoiTao
WaitingList Ammend
Customer loyaltynew
Ġagent data
book List
Wh cN
Ġdevice ID
Ġout going
Delivery PlanList
]] ==
]] ){
Ġunit s
Ġfetch ed
Bank Account
setState ValidationParameter
}] `);
Recei pts
co ordinate
Registrar Contract
ĠSuccess fully
UN ION
permit s
manufact uringDate
ĠMark et
Ud Iw
Ġedit Asset
xx x
Ġnom P
xGTAXBgNVBAoTE G
TAB LET
Ġpush ing
\":\" "
Ġsal do
Med iGuard
trading Symbol
proof s
Metric s
Ġoccur s
APPLI ED
Fab Car
Health SystemContract
ĠCA TCH
Ġreal Destination
dra ft
ĠWe ather
Audit TrailEntry
BO OK
run Query
ife Cycle
Ġsk ip
ĠFirst Batch
erv ation
Ġdiffer ent
éĿ ¢
Ġsort ed
Ġaddition al
NZ I
Qk MCKA
\":{ \"
kun stma
isTrue OrFalse
WhcN Mj
UdIw QkMCKA
kunstma an
. <%=
3 0000
3 50
7 47
8 2
> '
A ccKey
B ang
B yte
B LOG
B ackordered
C upp
C rn
C ourses
D ay
F N
F V
F Z
F w
F raud
H ex
I uZXhhbXBsZS
J e
J h
K Q
L SP
L ong
M TI
M SG
N e
N eed
O L
O VE
P ur
P Record
P rint
Q yM
R ed
S ig
S ug
S uspense
T L
T oll
T OKEN
U SE
[ ])
\ /
\ \
] ';
] )))
_ [
_ )[
a it
a con
a uth
a adhaarNo
b itration
b etween
b undle
b irth
c C
c g
c ust
c reds
c gpa
d Chaincode
d ull
e no
f ra
f ever
g rower
h key
h ierarchy
h ighest
i mporter
j av
l ess
l sp
m ant
n Check
n Split
o pt
p M
p ain
p romise
p lan
p ubKey
t imes
t icker
w edding
z IuZXhhbXBsZS
} ))
Ġ Z
Ġ 00
Ġ `);
Ġ RESPONSE
Ġ MSP
Ġ getStateByRangeWithPagination
Ġ ORG
Ġ licenses
er able
er ByTravel
on n
ar ound
ar shall
Ġc n
Ġc ages
Ġa ng
Ġa Val
let terId
Ġt ypes
Ġcon sent
St ationId
Ġm is
Ġm and
Ġm sp
Ġm app
val ToHash
re main
re plyPaper
de leting
an Type
ur es
ĠE arn
nc ies
get Key
get Result
get MarblesByRange
get Patient
get Method
Ġnew Request
Ġnew Batch
Ġnew ErrorMsg
Ġnew Organization
Ġnew Component
Ġnew RecieverBalance
Ġnew DataAttributes
Ġnew Mesg
Ġnew OperationAttributes
ey Jh
Ġĉ ĠĠĠĠčĊ
to CurrentBalance
ion al
Ġreturn Error
State mant
Ġp w
Ġp ort
Ġe state
JSON Data
JSON DrugDetailsForUpdation
is Invoice
is Confirm
ĠB urn
ĠB enc
ĠB arcode
tr aderId
query Result
query LogisticUnit
ĠC C
ĠC oin
ĠC hairs
ĠC reation
In Travel
In Inventory
ĠA rg
ĠA llowance
Ġf name
Ġf lavor
Ġd r
Ġd at
Ġd ai
Ġd ash
Ġd ns
Ġd irection
Ġd imension
Ġre fund
Ġre ferenc
Ġre moved
string ToUint
Ġĉĉ ĠĠĠĠĠĠĠĠĠĠĠĠĠĠĠĠĠĠĠ
As x
ed it
ed Payload
() :
() `);
Ġs core
ify ing
Ġb Val
Ġb logNumber
Ġmet a
ator y
Ġasset Class
Ġcar ID
Ġcar Asset
Ġcar Model
Ġowner List
Ġowner MSPId
Ġst age
Ġst atistic
Re ponse
Re ference
Re ason
Ġin sectActivity
Ġex amples
un iversity
un appr
Ġnot e
Ġnot es
Ġnot Deleted
art Work
Inc lu
Ġto ol
Ġto BalanceKey
Ġto UpdatedBalance
cc DecodedPayload
Ġpaper AsBytes
Ġget Msg
Ġget Project
Ġget IdBytes
('======== ======
car SerialNumber
ake Logger
Ġname Key
') ];
ĠIn voking
il ities
Ġmodel Id
load Prices
ĠS ec
ĠS hare
return Obj
By Reward
By Manu
push LogisticUnit
For Customer
For NewNumber
And Treated
Ġdo Nothing
ve Hdr
Ġĉĉĉ ĠĠĠĠĠĠĠ
Ġend point
Ġend Places
()) ));
AndP arams
create Class
create Identity
To Ad
To Add
To DigitalAssetEvent
sta ges
user Transactions
con tr
CompositeKey Statemant
Ġcreate Value
old Owner
be aring
Ġstart Place
Ġstart Coordinates
type And
set Key
set Filled
Ġis Verbose
Ġis Penalized
Ġstate Type
Ġstate Metadata
Lo yalty
Ġresponse Object
erC omm
new Candidate
new SenderBalance
new RecieverBalance
new CompanyObject
new PriceTravelPerPassenger
cial ization
for med
Ġ4 0
owner List
Ġtransfer File
Ġtransfer ByDeposit
Ġkey RSA
Ġkey SSS
Ġinit Result
contract Address
Ġdata Value
Ġdata source
Data From
Ġfunction AndParams
Ġwh at
With Long
Ġmock HistoryQueryIterator
Ġmock SendMsg
Ġmock HandleGetStateMetadata
Ġdelete Cage
Ġcontract Text
Ġuser Ssn
as um
Ġat trs
Ġchange Cage
Ġchange Condition
Ġde partDate
el co
transaction List
Ġjson Path
OR AL
Chaincode Base
Chaincode Js
Ġchaincode Proto
mock Context
mock Transaction
mock HandleGetStateMetadata
data Id
data Value
ag v
On Hold
Ġcurrent Team
Ġcurrent Association
From Asset
Ġtrans OrderInfo
Ġtrans erByTravel
Ex change
Ex ecutive
Ġresult Key
Pe ople
Of Enrollment
Of CompositeKeyStatemant
Call Check
cha ins
Ġrecord InJSON
DE LI
ded InTravel
Ġdrug CompositeKeyForSearch
Ġdrug Buf
ĠqueryAll Data
list OfAsset
The Drug
init ialize
some payload
donation AsBytes
chaincode Event
Ġreturned Buy
}, [])
Ġfrom BalanceKey
Ġfrom UpdatedBalance
ĠAsset Contract
ĠP ush
ĠP olicy
amount Int
ave led
ĠF ood
ver ification
drug list
drug Details
drug Detail
drug DataBuffer
drug Buf
add Proofit
add erEmail
valid DrugId
Ġ== >'
balance Amt
Ġtransaction Descriptor
ĠM A
Ġbuffer Name
Ġbuffer Symbol
ByPartial Key
ari at
Ġadd Record
ac ilities
Ġtotal HoldValue
Ġcompany name
Ġcompany DataBuffer
Ġcompany crn
company list
Ġ> >
Ġtx Args
Ġtx ns
im o
TxId Array
Add Shipping
Add DrugBuffer
Util ization
Ġprice DepositPerPassenger
Ġprice ForTime
Ġprice ForKm
fetched State
patient Key
Ġhistory Result
the ID
the ledger
product State
product list
product DrugID
Ġupdated shipment
Ġupdated Allowance
Ġar oma
Ġtoken Supply
Ġtoken Issuer
Trans it
Ġlog init
Un authorized
request AsBytes
request Buffer
Ġcall Details
Ġcall DetailIndex
handle GetPrivateDataHash
call End
call erMspId
Service Client
**** **
Ġelection Buffer
Ar bitration
Ġshipment Array
Ġshipment JSONData
ip o
ĠD igital
ĠD ocument
ĠD igitalAsset
buyer Details
Ġaccount Key
Ġaccount AsBytes
Ġstatus Change
hic les
Ġserial numberOf
Ġhandler Class
!! ');
Ġl ess
Ġl name
Ġl spName
Ġl ane
trans ports
Ġall Party
Client Logged
ĠT LS
Ġregister User
process Stub
buffer Args
Ġbalance Prefix
__ __
com apnyBuffer
vehicle Bytes
50 6
ĠN otaryId
My MockStub
Account Key
10 22
cert Hash
generate CompanyID
Ġafter Taste
email Address
ĠAB OVE
collection Marbles
Ġcandidate List
po ss
po Object
ĠG re
ĠG dt
ĠUser Wallet
Ġcert JSON
ĠQuery State
ĠQuery Response
ant s
Ġj oin
Ġcp Number
obj Type
wallet s
ĠL SP
ĠL ice
ĠbuyerCRN ResponseRange
Ġprocess Stub
Ġview Order
Ġpath s
RO OTC
Patient AccessCompositeKey
Con federation
view History
view erEmail
Reg Obj
ĠW ITH
ĠĠĉĉ ĉčĊ
Ġtransporter ResultsIterator
Ġproject Obj
TOR ED
time UntilBeginTravel
Ġinfo Stub
item Number
token s
token Dicom
Ġmedic ationId
test Opts
Ġexp ired
ĠMy chaincode
project Pledges
Ġspe ed
Ġspe cialization
Ġro ast
Start Key
End Key
Ġpay ByDeposit
Ġtime now
Creator s
checkA vailability
Ġ/ (
ĠdrugKey Name
SA LE
Ġval ToHash
Ġtest Contract
ĠtransporterCRN ResultsIterator
ĠtransporterCRN Found
PO ID
ingA llowed
ingA gency
ĠTotal Supply
Ġallowance Prefix
Ġpag edQrPayload
Ġinitial Supply
Ġorigin Balance
Ġorigin HoldValue
',' ');
Ġorg Name
ĠtotalSupply Key
transporter Key
Ġland s
15 98
getPrivateData Hash
ĠlistOfAssets Length
ns wer
Ġmanufacturer Found
ĠVot ingContract
ĠData Contract
Retailer CompanyCRNForComparision
option al
schema Path
credit s
Ġĉĉĉĉĉĉ čĊ
Ġsave Stub
Ġsave ParseResponse
ĠProduct Contract
Ġparsed Data
13 9
creator PublicKey
78 4
pre Candidate
pre vious
pre fKey
service AsBytes
Mark down
verify Result
CompanyName ForOwner
origin HoldValue
ĠU ID
Ġbuffered FundStruct
Ship Request
ĠClient AccountID
ĠClient AccountBalance
Ġinvok ingId
!!! \
hospital Exists
Ġmod Path
CompanyCRN ForOwner
Ġemr List
ĠTransfer From
Ġjob AsBytes
PointsTransactions Info
Ġproto Props
Ġdelivery end
LI C
quotation ID
patent Number
was m
Ġcup per
Listing State
ĠToken Name
conc erto
conc ernedIDs
Ġpaid ByReward
Ġss l
Bid sAsBytes
temp urature
ĠsellerCRN ResultsIterator
ĠsellerCRN Found
ĠDe Asx
ual Leave
Ġsubmit Paper
Ġprop Request
Ġrequester Email
sFor CSP
Ġstatic Props
Or Sell
Or aclizeQueryResult
Ġyear OfEnrollment
24 6
WAR NING
Ġpayout Struct
76 8
Ġcom apnyBuffer
job Val
yalty Fee
ow es
ĠretailerCRN ResultsIteratorForComparision
ĠretailerCRN ResultsIteratorForComparisionResponseRange
ĠretailerCRN FoundForComparision
rate AsBytes
STATE S
Ġdebtor Obj
getCreator PublicKey
DB a
Ġreq PubKey
ĠgetAll Certificate
={ };
md DecodedPayload
Ġship Object
Mint ingAllowed
decimals Bytes
WaitingList s
Ġsymbol Key
Ġamt Trans
Ġtrade Id
Ġtrade Unit
Ġspec ifying
Ġauction s
listOfAssets Length
licence AsBytes
Ġpoll AsBytes
returned RetailerCompanyCRNForComparision
ĠRE ADY
ĠProcess Request
govOrg AsBytes
EN ROLLMENT
class CallCheck
Ġquotation JSON
delivery info
ĠDummy CC
Ġtod o
Ġoperator Id
Ġfn Name
ĠreturnedBuyer DrugName
Temp late
Ġpallet SsccKey
Ġpolicy JSON
Ġcoin Listings
rule Number
Ġparty Array
RA DE
RA NGE
arbitration List
Ġgrpc s
payment Obj
Purchase Buffer
poll AsBytes
Ġdecimals Key
Ġdecimals Bytes
Ġtruck ID
Ġdevice State
approval Event
Ap provers
parsed ShipmentData
SU CCESS
Ġsecret ariat
Ġtreated ByUserID
Ġdoc s
Ġdoc Hash
dataset Number
IND ENT
publicKey Hash
publicKey Hashes
balanceOf Receiver
bufferTo JSON
Ġreferral Local
ĠwalletBS FromPubECDSA
ĠsellOrder UnitOnMarket
registrar MSP
Bill y
OU T
tra verse
auction AsBytes
pending List
payout AuthValue
Ġrawmaterial used
ĠqueryContentBy Seller
ĠqueryContentBy Distributor
ĠqueryContentBy Creators
Ġlicence AsBytes
cup Coffee
Ġ******** ****
review s
modeled WaitingList
ĠgovOrg AsBytes
ĠgovOrg Id
Ġpos itive
ĠdrugDetails Object
equipment AsBytes
ĠbuyerCRNFound ForOwner
ĠbuyerCRNFound ForOwnerResponseRange
tracking State
Place Time
ssn Id
Ġpromise Array
ĠPH ARMA
]} ))
Block ly
ĠCourse List
ĠCustomer Loyalty
ĠgetStateByPartialCompositeKey WithPagination
ĠPrivate ShipCertificate
Ġequipment AsBytes
Ġequipment Number
ĠdrugJSON date
Ġplayer Name
Ġarbitration Number
Ġpla za
ĠBalance Of
ĠCO MPLETED
loading ID
Ġtemplate Data
CSP Event
Ġ**** *
Ġcontroller ID
Ġfinish mileageno
FU ND
gw Mz
pac Id
Ġclose Bidding
reating Organization
ĠSet Option
ĠbuyerCRNResultsIterator ForOwner
Ġapproval Event
ĠtreatedBy Email
ĠtreatedBy Contact
ĠtreatedBy LocalID
ĠTrans form
Ġnom bre
":[ {"
bad RegisteredMsg
bad EstablishedMsg
pk i
ĠSub mit
Ġgenerated ShipmentCompositeKey
ĠBook ing
ĠY our
ĠAb ort
drugs ToSend
compare Sync
ĠroyaltyManagement Buffer
dicom Exists
Ġdays ToAdd
Ġtenant s
nom Sol
Ġtreatment Summary
enum erable
ĠreturnedTransporter CompanyCRN
ĠreturnedRetailer CompanyCRNForComparision
ĠreturnedBuyerCompanyCRN ForOwner
zzzzzzzzzzzzzzzz zzzzzzzzzzzzzzzz
ĠmodifiedDrugDetailsObject ForCustomer
ForUpdateShipment CRN
DN s
Ġthro wn
nomor Hak
roaming Rate
queryKey ByOwner
ĠcompanyId Key
ĠProp ietario
CR UD
itive Info
contain Subset
player Number
yZ zIuZXhhbXBsZS
generated ShipmentCompositeKey
ĠwalletTo BePaidOut
15525 216
Ġfir ma
Channel Credentials
Ġorganiz aciÃ³n
buffered FundStruct
privateAsset List
Ġprevious Key
getMsg TxContextId
queryWallet ByAddress
ĠSH T
returnedBuyer CompanyNameForOwner
returnedBuyer CompanyCRNForOwner
Ġconsumption s
round Id
Ġissu es
Nj I
ĠwaitingList Data
ĠnewLsp Gln
REQUE ST
He ader
Ġmultisig Contract
ĠCru dChaincode
Ġframe AsBytes
transport ForUpdateShipmentCRN
vis ing
PrivateDetails Collection
ĠĠĠĠĠĠĠĠĠĠĠĠĉ Ġ
isPenalizedBy Destination
ĠCert netContract
Ġhigh OfferBidPrice
Ġwithdraw Data
returnedTransporter CompanyCRN
ĠtransportForUpdateShipment Name
ĠResult Voting
219 8
Ii w
Oi J
zM zE
Ġfilter ed
ĠDec imals
ModificationPendingApproval FromAsset
datam arshall
ĠgetM spid
allow Overage
META DATA
Ġdeploy ed
Ġcarton Id
rit ical
sk u
Ġ'< ==');
ĠgetUn approvedPayments
ĠcreatePrivate AssetsFromBatch
Cho ices
ĠReg Exp
REVIE W
KU MA
MD gwMz
ĠEst ado
ĠisEqual s
ĠPA TIENT
ĠsetTime out
BOOK ED
Ġskip Names
Cupp ing
QyM DBa
dull fn
eno me
Ġang le
StationId IndexKey
Ġmand atory
getResult OfCompositeKeyStatemant
ĠBenc h
ĠChairs Contract
ĠArg s
artWork Id
Inclu dedInTravel
loadPrices PrivateDetailsCollection
ToAd vising
DataFrom AddDrugBuffer
WithLong DNs
ĠchangeCage Age
mockTransaction Start
ĠreturnedBuy erCRN
ĠstatusChange ShipmentBuffer
ĠserialnumberOf TheDrug
ROOTC ERT
preCandidate Id
MDgwMz QyMDBa
) \
) ==
) ([
) ")
) =>{
. *
2 50
9 1
9 00
; }
= ')[
C read
D TN
E U
E s
F E
F P
F abric
H ierarchy
H igh
I A
N A
N gh
P TC
P tos
P redict
P seudonym
P VB
R Q
S la
T MT
T enant
V ER
Y TE
\ "]
] (
] }`);
a shivani
b ug
c ough
c ache
d k
g uy
i x
l ank
n Redeeming
p ret
s Key
s inh
s pec
t ers
u ng
u ario
} :
} =${
é ĩ
Ġ Issue
ĠĠĠĠ ĉčĊ
Ġc anceled
Ġc atpro
in to
in vok
in voking
or a
Ġ} ];
al erID
it ed
Ġ' (
Ġt ake
Ġcon tr
ing Price
Ġm usic
ro om
nt erID
de adline
ur ers
Res ervation
get Buyer
get Receiver
get EventService
Ġnew Patient
Ġnew ShipmentObj
per y
ion s
State ment
Ġp acking
value A
value B
value AsBytes
is a
is Pending
ĠB y
Ġres ervePrice
query string
query name
ĠC B
ĠC ollege
ch est
ad a
ĠA D
Ġd iff
Ġre j
Ġre gistrar
Ġquery With
Ġquery Partial
Ġquery Named
Ġquery Marks
Ġquery Adhoc
Ġquery SingleCar
ot e
Ġ! (
ha m
Ġs at
Ġs Key
Ġb ranch
Ġb lank
Ġcar Object
Ġowner Data
put Entity
Re c
quire d
Tr aveled
pon g
Ġget Partial
Ġget Num
ID E
car Status
Ġname d
') ])};
Ġ" "))
Qu al
Ġmodel le
Ġmodel Data
li mit
ĠS SN
ust ry
Ġh ouse
By Type
For mat
Ġdo gs
asset Array
AndP assword
To List
ĠnewOwner Id
ĠnewOwner MSP
sta ck
user Details
con fig
Ġcreate Iterator
Ġcreate Invoice
ic ag
set Init
set Product
Ġis User
Ġis PenalizedBy
Lo op
Ġ4 000000
Ġtransfer Status
ND ING
Ġch arging
Ġ- >
Ġinit Time
contract Data
order er
Ġdata base
Data Json
Ġdelete Marks
Ġuser Exists
Pro c
Ġat tend
Ġchange Blog
Ġde livered
Ġde fine
Ġde bug
transaction Record
Th uc
que nce
Ġholder Exists
User Contract
User Info
([ ])};
'] =
'] ('
Of fice
Ġorder Line
Ġĉĉĉĉ Ġ
Ġse lect
Ġse cond
Ġdrug current
Ġdrug SerialNumber
Ch ild
Ġper mitted
ĠP ay
Ġupdate JSON
Ġupdate Product
ĠF ruitBasket
ĠF ailure
ver ifierId
"} ],"
drug A
Ġ========= ");
") ){
ĠERROR S
Ġown ing
ĠM ake
22 5
ang o
('../ ../
Ġadd Marks
oo lean
ac List
ac ies
Ġproduct State
Ġproduct TestsId
Vot ed
Ġtx Obj
Ġg v
01 5
NT Ngh
im age
product TestsId
Ġseller Role
Ġtoken OwnerMspId
ByOwner AndPassword
Ġevent AsBytes
fi ll
Trans form
newOwner MSP
Un iversity
request Results
anet er
Ġshipment Data
Ġaccount Id
11 1
11 5
ĠGet All
process lin
batch State
account List
My Drug
Ġvalid ated
cert ifierId
Ġemail Id
low er
PE NDING
ill i
assign ment
Ġapp raisalForm
cp u
ins ufficient
000 3
ME D
doctor Info
ĠPro ject
Ġprivate Data
Access Key
Access Control
eal Id
Ġmedic ations
medic ationId
Ġsource BatchId
Ġdoctor Exists
Ġtest ed
Ġup gradCoins
09 2198
identity Id
ĠProduct Pallet
creator s
Ġph on
Ballot Insert
Ship Cert
ĠClient Id
Ret rie
----- \
emr ID
sign ature
Ġhospital Exists
55 2
Ġraw Data
Ins pect
wit ness
Ġverifier ID
Ġprop Coins
Or Create
dummy Value
medicine Receipt
("======== =
bank AsBytes
customer loyaltynew
14 5
Ġreport ing
student Name
:[ ],
Ġproposal Name
ĠSt orage
diem moi
prop ietario
http Service
Ġspec s
normal izedCert
Ġdocument s
Ġfunc Args
Ġcontact Number
66 6
Lab Record
approval Record
Ġreview s
getH TTPService
Ġsecret NameIndexKey
ĠgetHistory ByKey
Fact ory
uni que
voting List
Ġrawmaterial Id
ĠprofileOld JSON
IBU TOR
Ġdiem moi
Ġeal Id
bill Id
Ġdis pute
Stock Account
passport No
Ġack nowledge
Ġman uID
Ġwallets Object
Prescription Asset
utx o
CP Number
Ġregistration Type
Ġfinish Time
Ġinsurance No
Ġpar aneter
Ġma AsBytes
Ġma LopHocPhan
Ġap i
Ġ'../../ ../../
ĠgetKeys ByRange
0002 55
YY YY
APPRO VED
ĠgetQueryResult WithPagination
redeem DateTime
Ġemp loyee
abc de
queryKey ByPartial
rawmaterial Id
Ġregist erC
15525 286
LOCK CHAIN
)/ ;
ĠAuthor ize
Ġtracking State
Ġissu ingOwnerMSP
Ġ?[^-]+?\-\-\-\-\- )([
Ġ?[^-]+?\-\-\-\-\- )/;
lot Number
-------------------- ---
setUpdate Time
]*)( \-\-\-\-\-\
AssetSale Id
99999999 99
1504054 225
priv ShipCert
erCont act
Estonia ShipCertificates
DISTR IBUTOR
bukutanah List
Denmark ShipCertificates
Pres ent
pin Code
Pack aging
issu ingOwnerMSP
modify AssetInfo
FAI LED
VT Thuc
confirm DateTime
)- (
oln ica
Ġ/( \-\-\-\-\-\
Cread o
DTN guy
PTC ang
PVB ua
TMT hai
sinh vien
invoking MSP
ĠgetPartial CompositeKey
icag o
NTNgh e
092198 000255
Ġ?[^-]+?\-\-\-\-\-)([ \
DTNguy en
! ='
" ),
# /
( ${
) +'-'+
+ ":"+
. `
/ )
3 15
4 00
4 99
4 50
4 16
8 3
9 2
= -
A g
A ir
A TA
B lack
C M
C at
C laim
D omain
D etailed
F ailure
G B
G t
G MT
H K
H arvest
H SC
J am
L ER
M essages
N i
N z
N CA
N EY
N ative
O M
O k
O verallRating
O WED
P ark
P ost
Q B
Q S
R t
R ound
R aj
S TORED
T P
T ree
U f
U om
X K
Y Z
Z v
a CompositeKey
a ves
a fil
b b
b all
b ind
b ac
b its
c ls
d d
d v
d By
d istrict
e f
f f
f AsBytes
f arm
g Y
g it
h L
h i
h eight
h qi
h ora
i ado
j MQ
k a
k p
k into
l ongitude
m l
n b
n i
n ist
n one
n erId
o verallRating
p harnet
r ut
s n
s uppli
s ingle
s qi
v Y
z ure
å Ń
Ġ With
Ġ OK
Ġ Year
Ġ Updated
Ġ Leave
Ġ Organs
et urn
on Thi
st ationId
st ador
Ġ= "
Ġc urrency
in teger
or ate
at rans
Ġ{ \
al ers
(' ')
Ġ' ~'
Ġ' =============
Ġt c
Ġr ai
Ġr out
Ġcon ctr
Ġn bc
Ġm d
Ġm em
Ġm gt
Ġm onetaryStatus
me asurement
ro ot
if X
se q
se mno
re issue
re marks
de vices
de partDate
an imalId
ur able
ur erId
ĠE C
ĠE V
ĠE HR
ĠE mployee
nc h
Ġret rieved
get C
get By
get Transaction
get Invoice
get Loan
get DataService
get Field
Ġnew Message
Ġnew Rating
Ġnew Course
Ġnew Hospital
Ġnew Quality
Ġnew DrugBuffer
Ġnew StudentObject
ul k
Ġo o
to GMT
Ġconst ants
State Metadata
State Device
Ġp riv
Ġp ubkey
Ġe missionsRecord
is Registered
is Approved
is Treated
um a
tr x
tr xn
th reshold
In Link
In Days
ch nology
log level
log WarnSpy
ad Provider
ĠA ge
Ġf actory
Ġf rames
Ġd omain
Ġd iploma
Ġre f
Ġre cieverMSPId
Ġre putation
Ġquery string
Ġquery Record
Ġquery Value
Ġquery Vote
ot ball
() +'-'+
Ġ! !");
Ġs ummary
Ġs gpa
Ġb anks
Ġb etween
Ġb oolean
Ġarg User
Ġargument os
lass ifier
Ġctx ID
am age
ord inationCode
ce ess
Ġowner Key
Re ad
Ġin ventory
Tr anxData
Ġto JSON
car Detail
key From
Ġ======== ========================
Ġ: '
Ġ" ").
li ght
ĠS CF
ĠS CM
Ġh ome
Ġh istor
By CRN
By Hash
By Prop
all Part
ve n
asset Asbytes
Comp leted
Ġend or
Car Data
AndP lace
To DigitalAsset
em b
sta ge
user Utils
Ġcreate Vehicle
of fset
(" ::
set In
set Creator
set CurrentState
set Approved
set UTC
Ġis Roaming
Lo ading
new Request
new Course
new Doctor
(` >>>
response From
Ġkey A
Ġkey B
ĠContract s
order History
Ġdata str
update Transaction
update Flag
next Response
Ġstring s
Ġwh ere
org ans
ient s
format DN
Ġuser Sender
Ġuser Projects
as m
Ġmetadata Buffer
Ġchange Item
Ġde liver
Ad Provider
Th rice
Th reshold
Chaincode ID
method s
Ġholder AsBytes
mock Response
mock Exists
mock Clear
Identity Service
data str
called Thrice
De alers
Ġcurrent Hash
Ġha shedKey
From Directory
([ ^
Ġresult bytes
Ġresult Object
Of PreviousProjects
net Context
net node
RE S
RE TAI
Ġun kno
Ġun pack
Call er
Ġ5 0
Ġse at
Ġdrug Iterator
Ġdrug CompositeKey
Ġdrug Sales
ĠqueryAll Products
ĠqueryAll organs
list enerCount
list OfPreviousProjects
init Organ
init Payment
Transaction AsJSON
Get CompositeKey
}, {"
ĠP ension
Exists CompositeKey
Ġupdate Owner
Ġupdate Invoice
ĠKey modification
gen er
ĠgetHistoryFor Asset
ĠF OR
ĠF IN
ĠF actory
drug Iterator
add Order
add Member
Order Contract
organ Asbytes
TE RM
TE ST
Ġhas n
.. ';
Up dating
ĠRe fund
Ġread Candidate
ĠM on
ĠM an
gre g
22 2
22 6
Log ic
buy Request
0000 01
cars ManufacturedBy
check up
Ġmy Counter
comp onent
Ġadd Product
Ġadd Member
Property Owner
Ġproduct Data
Ġcompany Iterator
Ġpatient PK
Request AsBytes
Ġg ive
Ġg pa
im ate
Ġnum Passengers
Ġbatch ToTransfer
patient Data
Ġbuyer Obj
product Quality
Ġupdated UserObject
Ġseller Buffer
Ġseller Obj
Ġseller Details
event Key
event service
donationId s
Ġevent Name
fi elds
Ġass urance
Ġlog WarnSpy
Ġproperty Price
Details buffer
seller ID
call Begin
has Access
has More
Ġorgan Asbytes
Ġorgan JSONasBytes
ash Trade
Ġcheck Paid
ful fil
Ġl ambda
11 77
TA T
Valid AssetId
current Profile
ĠT ag
PrivateData List
batch Vaccine
com pensation
word Count
vehicle Listing
Helper s
model File
Ġset ToReturn
ĠN E
AL ER
do g
part yId
updated Time
updated UserObject
cert WithAttrs
state AsBytes
state List
Ġaccess Results
Ġcandidate For
Ġvoter ID
serial Number
ĠUser Context
ĠQuery Contract
ĠQuery Chaincode
Ġchannel name
Comm odities
Ġcp ty
wallet List
Ġview Invoice
member A
Ġsub BC
Ġresol ution
Reg ional
IP MENT
ĠW asm
Ġtransporter Object
Ġsender Data
time Of
Ġinfo Obj
Ġretail ers
item Name
Ġaddress C
Ġinvoice Key
url s
Aw QF
Aw RQ
test BusinessNetwork
Ġexp iry
Ġcertificate Key
Ġcertificate Object
Project Review
Enter ance
Ġdoctor Email
Ġdoctor PK
lab sId
Ġfile UseId
di ct
Port ion
land Commission
invoice Key
SA AwRQ
Ġtest Opts
bid Value
dec orate
node eventservice
ergy Trade
Ġle git
Ġsign er
Ġcredit s
PRO FILE
getPrivateData ByRange
ĠlistOfAssets Array
Ġsh op
Ġsh ortTxid
Ġencrypt er
Model File
ĠData Service
credit List
ĠProduct ID
Ġreceiver Data
13 50
chain Context
Ġph i
78 6
78 9
Ġspender MSPId
approved User
pre stador
service Key
service Code
MB Bw
ast er
verify Certificate
33 7
ĠLog Message
Ġmod ification
HO LES
Ġmax Weigth
Ġmin max
receiv ed
ĠSimple Token
ĠToken Contract
conc ile
Ġpaid Date
validate Params
Ġvalidate Stub
55 5
Ġss iSmartContract
ĠgetState Id
ere gister
accepted Pacient
max Weight
vote Token
vote ObjId
Ġoriginal Hash
ĠcreateAsset Obj
ĠRequest ed
44 44
Ġretailer Name
Medic ations
Sub AsBtyes
Ġapproved UserObject
device Id
36 8
num UpgradCoins
Ġresp Proto
Deposit Returned
Ġcom Bytes
job AsBytes
Gre eting
fund ing
fund AuthValue
Search Results
Utility Company
Ġlab sId
IB Bggq
inh Diem
send erId
---------------- -----
ĠUpdate Values
Ġship ped
Ġk m
Ġk q
Ġbill s
Ġcash Value
Ġcash Balance
ST U
Ġprefix s
AD D
Ġrule AsBytes
energy ReceiverId
energy SenderId
listOfAssets Array
licence No
ĠCh ange
Ġdocument List
cash Balance
cash ReceiverId
cash SenderId
govOrg s
Ġdecrypt er
Ġquotation ID
Logs Id
)+ (
Ġfn param
ĠK ilo
Ġpolicy Bytes
organization Id
participant Id
Ġparty Name
farmer UserName
Close Error
ne wable
Lab s
Ġdevice Exists
ĠProfile Contract
ĠProfile chainContext
Ap i
Ġoption Number
loan Key
iang vien
Ġdi ct
Acc ident
ĠEMR States
Controller ID
Ġmo ment
Ġretrieve Wallet
permission s
ĠgetHistory Device
Clear Transfer
ĠTr ust
Ġser vices
holder AsBytes
Buy Sell
Ġloan Key
OU ND
ByUser name
aidOrg s
aidOrg Id
ĠEvent Service
ĠCheck List
keyTo Update
Ġgrade Received
Pen sion
234 56
lat itude
ĠPaymentRecon Contract
ĠPaymentRecon Context
pacient List
Ġip iName
setRe ad
original Hash
ĠType Error
Ġbypass ing
ĠlistOf Asset
ĠbalanceOf Receiver
SHIP MENT
May ClearTransfer
ĠStudent s
down link
Ġrecharge Am
.... ....
Ġpassport No
ĠPatientRecord Contract
wW TAT
contact Number
-*-*-*-* -*-*-*-*
Ġrecon ciled
CP Name
Ġreissue CheckNumber
Ġreissue CheckDate
Ġvaccine AsBytes
Ġutility Companies
Ġcontroller AsBytes
Ġord AsBytes
health Care
ĠOfferta AsBytes
active BidID
Ġapproval s
ĠaidOrg Id
orp Approval
getOrder er
ĠgetRe lationsArray
Grad es
Ġresident s
ĠTransporter Contract
Ġtrack Id
Ġquality At
ĠBuy Request
Ġpush StateDevice
Ġupload er
Medicine Receipt
Ġcoupon Id
Composite Object
Ġpost alCode
isReferred Accepted
isReferred AndTreated
Ġgood SerialNo
Ġoutput CarData
ĠnewPO Object
Password Storage
ĠProp netContext
Ġenterance AsBytes
Author ity
ĠWork ID
Ġpayee Name
Ġpayee Id
Distribut e
Ġchild Name
Ġorganiz ations
Ġprevious ly
frame AsBytes
pack aging
queryWallet ByID
ĠALL OWED
unknown Transaction
ĠSH IPMENT
Ġshipping Obj
ĠoldAccount User
accessToken List
APPLI CATION
Ġteach erId
SO LD
ĠAc ronym
Ġhoc phan
Ġkyc AsBytes
Ġenvironment Status
ĠUsers Contract
Ownership OfAsset
Ġworkers Ids
feature Size
Don ate
Ip fsHash
ĠEdTech Contract
ĠEdTech Context
Ġreiss CheckNumber
Ġreiss CheckDate
ĠqueryTotal ProductionsForMeterpoint
ĠqueryTotal ConsumptionsForMeterpoint
ByPatient AndPlace
connect Contract
endor ser
ĠDis pute
ĠTe acher
ĠTe chnology
Bgc q
Bgc IA
Bggq AwQF
nodedata collection
nodedata service
ĠrewardTo Owner
ĠrewardTo System
hkjOPQ MBBw
hkjOPQ IBBggq
ssiSmartContract Exists
Ġunix ts
external Approvers
Bal nce
ĠClose Error
Ġ'../../../ ..';
PRODU CT
cdr Date
statistic List
ammend List
}"} },{"
tool Name
prod ID
ĠMod ification
Ġreceipient PK
meta Es
Ġhappen ed
verified On
walletTo Fund
managingOrg MSP
Ġmanu Key
Academic Record
ĠQuotation Contract
inger Print
ĠCount ry
ĠqueryC redential
createC ipher
ignal PropertyOwner
Ġdns Names
Ġreferenc es
verification Result
spec s
invok ingId
ĠAD DED
processlin elist
Native API
Tree Hash
afil iado
suppli erId
onThi rdCall
atrans form
Ġrai se
Ġrout e
Ġconctr act
getField Value
toGMT String
()+'-'+ (
ceess ByPatientAndPlace
ĠSCF Contract
ĠSCM Logic
allPart yId
setUTC Seconds
(`>>> ${
RETAI LER
Ġunkno w
ĠPension Fund
ĠFIN NEY
TERM S
Ġassurance Obj
ĠcheckPaid Date
fulfil led
currentProfile State
compensation NoTimes
ProjectReview s
SAAwRQ Ih
Ġlegit imate
HOLES ALER
Pension Fund
ĠrechargeAm mount
........ ...');
BggqAwQF BgcIA
hkjOPQMBBw NCA
hkjOPQIBBggq hkjOPQMBBwNCA
! =='
' }},
) `);
) ["
+ ":"
3 13
5 43
6 00
7 30
9 29
9 43
< =
= ');
A A
A S
A v
A SE
A ug
B R
B a
B LMA
B REE
B xM
D a
D tm
E state
E HA
E GA
E mployee
E arlyPay
F D
F LO
F eb
F tc
F irmName
F saW
F OUND
G OR
G REE
G CCqGSM
G jC
G Ftc
H g
I G
J S
J ul
J un
K W
L N
L Y
L ibrary
M anufact
M CA
N vb
O p
O ct
P l
P ublished
Q C
Q R
Q GA
R T
R U
T ask
U CI
V o
W S
W U
W MB
Y our
Z y
[ ]
] ]['
a f
b MQswCQYDVQQGEwJVUz
c d
c orrect
c laim
c linic
e ce
e valuationMeeting
f AndP
f MB
g al
g Owner
g ps
g AME
h om
i y
i or
i ating
i BG
j TT
k ar
k own
l Lm
m onth
m issing
n sed
o to
o GCCqGSM
p J
p or
p arameter
p lay
p iryDate
p oliceRecord
p ubkey
p YTE
q n
s ic
s witch
s ChainXId
u ce
x timestamp
x yz
y n
y ph
} "
æ ĸ
ç İ
Ġ Vehicle
Ġ Verification
Ġ zero
Ġ volent
Ġ uri
Ġ lower
er ing
er Data
Ġc ap
Ġc ustom
Ġc amp
Ġc gpa
es u
at rix
at ible
le GFtc
Ġ} ))
it or
(' .',
Ġ' '),
Ġ' '});
Ġ' #####
Ġt ally
Ġt ipo
Ġr an
Ġcon signment
ub le
Ġm m
Ġm any
Ġm aN
Ġm obile
re al
re new
re en
re lationsArray
re ntForTime
Ġth ose
de ncies
ĠE mail
ĠE hr
ĠE ns
ue de
get Address
get Entity
get IdBytes
get ClientLogged
Ġnew Address
Ġnew provider
Ġnew Location
Ġnew Carton
Ġnew DrugObj
lo e
lo aded
to Format
Ġp id
Ġp ty
Ġp aramet
Ġp uede
ut er
Ġe Project
Ġe lem
Ġe arlyPay
yt h
value To
is fi
is Array
is Filled
is MintingAllowed
Ġof fset
ch Name
ch ure
ĠA P
ĠA l
ĠA n
ĠA JSON
Ġf AndP
Ġd b
Ġd os
Ġd ummy
Ġd amage
res earcher
Ġre flect
Ġre conciliation
Ġre nterID
mp li
Ġquery Transaction
Ġquery Product
ment ario
Ġtr ung
ed u
ed Contacts
() }
() ];
() ");
ri d
Owner Type
Ġs la
Ġs pen
Ġs ales
Ġs ChainXId
Ġb inh
Ġb io
Ġb sn
Ġst ates
ex address
ex ception
Id IndexKey
Ġin comp
Ġi mpli
Ġex t
un issued
Ġpaper ContractId
Ġget Result
Ġget Item
Ġget Patient
Ġget Plate
Ġget BalanceOf
Ġget TotalSupply
Ġ1 50
('======== ==
ID A
') }`);
paper ContractId
us a
il ik
Ġ: ',
parse Float
li ed
ers core
ĠS chema
ĠS CBeta
delete Voting
delete Chairs
By Index
By PerPassenger
By qGSM
asset Credentials
Ġend date
Car Number
create Plate
create Voting
create Chairs
create PatientRecord
To Array
Ġv illager
user list
Ġcreate Id
Ġcreate Client
Ġcreate New
Ġcreate Plate
Ġcreate TimeStamp
Ġ2 8
Ġ2 01
(" ----------------
Ġstart date
ic ro
set Purchase
set Confirmed
new Patient
new Rule
new Quotation
new RequestObject
new PriceDepositPerPassenger
new AssetValue
ail field
en ied
Ledger Contract
Ġkey AsBytes
ĠContract No
red uce
Ġpro du
order bytes
order list
update Product
update Voting
update Chairs
:' });
Ġwh olesaler
Ġcontract Address
bo ve
format ted
Ġuser a
as ing
as ures
stant iating
Ġde be
Ġde gree
SP HA
Ġ', '
Ġjson OraclizeQueryResult
la uses
end key
Ġnon ce
read Voting
read Chairs
Ġid info
mock Ajv
All Licence
De pen
De gree
On kar
pt able
Ex posure
Of SerialNumber
Ġorder Json
Ġorder Lines
able DB
dOn e
CO MPLETE
Ġun load
Ġun ace
Obj s
Ġdrug Number
Ġdrug key
Ch ua
Ch ris
Sh ort
Sh op
Ġper ten
Info Buffer
Ġconstructor s
some Contract
Get JsonObject
ĠP AC
ĠP oint
ĠP aid
CODE S
Ġ10 2
Ġupdate Buyer
No v
ann ulation
drug Number
add Drug
lice nsed
Peer Library
Ġwork er
ace AsBytes
Ġhas More
Map ping
Ġ== "
.. ")
.. '+
result ToPublish
Count Using
Ġtransaction Record
Drug List
ĠRe conciliation
Ġread Data
ĠM ed
ĠM anufactured
my private
my MachineId
network Definition
cars Requested
Ġmy MachineId
Ġadd Account
Ġadd Doctor
oo se
ac quire
Assets By
Se p
Se at
chel or
ina sh
Update Values
Hy per
Ġpatient Name
Ġpatient details
Request Event
Ġrequest Buffer
Ġan imalId
Ġinvoke Functionality
Ġg o
MA oGCCqGSM
Add ing
Registration RequestList
Ġprice TravelPerPassenger
Ġbatch Parsed
patient InfoObj
Ġbuyer Buffer
Ġbuyer JsonObject
Shi ps
the name
Ġseller JsonObject
Ġseller HierarchyKey
Ġtoken AsBytes
event AsBytes
newOwner Wallet
Un kown
seller Name
has Voted
ĠD enied
ĠĠĠĠĠĠĠĠĠĠĠĠĠĠĠĠ ĠĠčĊ
ĠĠĠĠĠĠĠĠĠĠĠĠĠĠĠĠ ĠĠĠĠĠĠ
Ġcheck Plate
Ġpass wd
Shipment Key
CA cC
Per form
index Username
"] =
Ġl ong
trans Id
ĠT D
Ġregister Sell
model Id
model Manager
IN SU
tot ally
wr ong
path ExistsStub
Ġset Owner
AL L
AL LO
AL ITY
AL READY
Ġvalid ity
sF irmName
cert Path
sub mission
sub scriber
Batch Ids
12 6
STE D
... ",
mpl ates
ppro ver
collection Paper
Ġassets List
ET MB
Ġcert ifierId
Ġcert UUID
ĠQuery All
Ġchannel Name
34 3
candidate Id
Ġprocess Depen
BA MCA
Ġsub jobID
RO M
Ġresol ved
Ġ{} )
Ġ{} }});
acc Prefix
Reg Request
:" ));
ĠW arehouse
Ġschema Certificate
lock ed
Buyer Or
doctor s
doctor AsBytes
doctor InfoObj
secure clinic
Ġproject BidsAsBytes
FI CI
details Data
urr Status
STA TU
url List
Aw wW
Aw EHA
Offer ed
Ġexp ress
Ġexp licit
project Name
project Obj
Ġro w
Ġdoctor Name
Ġdoctor AsBytes
lab Result
End Time
Ġlo phoc
Ġpart yId
Ġfile AsBytes
Ġcourse Key
travel Object
Ġcorrect Data
Ġoffer AsBuffer
ĠDrug RegistrationContract
inc rement
Ġallowed Districts
Ġtest Date
Ġcre ar
bid AsBytes
bid Details
ĠTotal Gre
Ġorigin BatchIds
Num er
Num Proj
Ġorg ans
Ġbid Price
logging Service
COR P
Ġsh asum
UE BxM
UE AwwW
schema AsBytes
Ġĉĉĉĉĉĉ ĉčĊ
Success ful
ĠProduct Name
13 2
ble m
private Function
issue Request
issue Status
issue Requested
ĠJ ose
Ġstock Code
Ġlogistic sFirmName
alpha Stub
!!! `);
Ġformat ted
HO SPHA
Vote Obj
Ġglobal s
ĠTransfer Drug
Ġarray OfSerialNumber
Ġdelivery AsBtyes
Ġdelivery IDcheck
dr CountUsing
ma GiangVien
Ġold Owner
patent s
orator io
Ġraw tx
aadhar Id
Ġnetwork Definition
CATE GOR
Ġbank TxIdArray
vote Id
ĠDe livered
ĠDe aler
Ġentity Input
Ġentity Container
existing Po
entity Name
sFor PP
Ġmark down
Ġmedicine Number
stock Code
Ġapproved User
ĠpurchaseOrder Buffer
num Contractors
num ProjectsAsBytes
num ContractorsAsBytes
getUser Key
Profile AsByte
Ġprovider Update
person Public
Dec ision
commodity Bytes
receiver MspId
diem tb
Ġship Obj
Ġclear ing
App lications
Ġfull Name
AssetOwner Id
ĠkeyMod ificationObject
(... )");
Voting Contract
Voting Result
58 9
Ġus ual
ateg or
common Name
ĠCON STANT
Ġdocument Type
Ġdocument Ids
document Type
Ġreward ByPerPassenger
Material s
Ġx fix
Ġtransport Carton
Ġtransport Milk
Ġprescription s
zE fMB
Raw Data
ĠStart ed
EG CCqGSM
Ġlogs Access
29 6
Lab oratorio
supplier ID
Ap r
Age nt
TX NS
parsed Item
permission Array
jb zEfMB
uni xtimestamp
PAR IN
ĠbuyOrder UnitOnMarket
ĠDo Nothing
auction eer
Ġdistributor Name
ĠMock DataMarhsall
voting Exists
voting ResultEvent
lat ive
policy Key
ĠEx piryDate
Ġpharmacy Received
Ġ******** **
Ġpublish ers
resource Key
keyMod ificationObject
ĠdrugHistory Transaction
Tests Exists
co ver
ĠloggedClient IncludedInTravel
Ġdiem tb
Nhb iBG
35 216
IT S
ja XN
ĠqueryPoc Results
00000000 0
Ġgrad uation
cw NjI
IE Zy
Po Object
ĠbalanceOf Sender
)( .*
Fu IEZy
after Transaction
after FnStubA
}. `
Ġte am
HE PARIN
paid Amount
Meta Schema
bserv ers
Ġplayer AsBytes
before Transaction
before FnStubA
EAwIw czE
publish erId
Ġdrugs ToSend
Ġgrant Access
Ġpartial Metadata
cartons Register
cartons Sales
cartons Transports
cartons Inventory
ĠInspect er
ĠInspect Batch
REGIS TERED
sal do
}_ ${
('******** ****
arton InInventory
Ġproof Type
155 35216
ĠRawMaterial Name
ĠRawMaterial Quantity
Ġma GiangVien
ĠqueryTMC Results
Ġhost s
ĠPurchase Batch
JuaWExFjAUBgNVBAcTDV NhbiBG
Ġpwd Sig
queryPoc Results
ĠRegistration Contract
setStateToShipment Assign
Ġpac Id
ĠBuy RequestList
Ser ver
coffee Id
UECBM KQ
beta Stub
Ġprocessor FirmName
nomor Akta
Ġcoffee Id
Ġtranscript Id
ĠMedic al
ĠPh one
ĠNew User
Ġemergency Contacts
LAND ED
sprint AssetState
Ġoraclize Query
Ġoraclize QueryResponse
transcript Id
Ġund erscore
Ġca dena
reporting Municipality
reporting Canton
ĠĉĠĠĠĠĠĠĠĠĉĉ ĉ
An imal
vaccine AsBytes
batches Transports
TB Z
predict Result
Ġdue Amount
ĠaddUser Details
REQUE STED
(': :');
Ġsug gestedDestinations
SSSS SSSS
Al ready
Ġ={ };
ssiSmartContract Id
Ġbuild Key
Ġunix timestamp
vari ables
vari ableDB
queryTMC Results
queryTMC ResultsParse
Ġbro chure
ĠregisterMilk Batch
ĠregisterMilk Carton
ĠRawMaterialUsed Name
ĠRawMaterialUsed Quantity
Ġcal c
Ġcons loe
ĠaddPatient Details
Ġenrollment Id
ĠViewL ifecycleContract
MO DEL
Ġreci bi
EAjAA MCsGA
wQEAwI Hg
ITE M
Gx lLm
Ġfe cha
partial Metadata
ĠProduce Batch
ĠUN ITS
Ġsorted Travels
WhcNMj cwNjI
ĠGre eting
Ġ************ *');
ĠAbort ing
ĠCB OR
Ġsat isfi
ĠregisterC artonInInventory
Ag EGCCqGSM
Zv cm
ĠMon itor
timeOf Action
ĠssiSmartContract Id
Ġkm Traveled
+":" +'
Av inash
Ba chelor
BREE DER
FLO WN
FsaW Zvcm
GjC CAcC
Nvb TBZ
Op sta
UCI QC
WMB QGA
bMQswCQYDVQQGEwJVUz ETMB
correct Data
gAME UCIQC
jTT BLMA
pYTE WMBQGA
sic ian
yph er
leGFtc GxlLm
Ġran chName
ĠmaN hom
renew ed
reen shot
ĠEns ure
Ġparamet ros
Ġincomp atible
Ġimpli ct
Ġunace ptable
Ġperten ece
licensed To
ĠManufactured Date
ĠaddDoctor Details
Perform ing
ĠregisterSell ing
ALLO WED
subscriber s
ĠprocessDepen dencies
BuyerOr Retailer
STATU S
ĠTotalGre y
UEBxM N
HOSPHA TE
CATEGOR Y
ĠtransportMilk Batch
jaXN jbzEfMB
FuIEZy YW
EAwIwczE L
setStateToShipmentAssign ed
Ġbrochure Path
wQEAwIHg DAMBgNVHRMBAf
Ġsatisfi ed
GjCCAcC gAwIBAg
bMQswCQYDVQQGEwJVUzETMB EGA
leGFtcGxlLm NvbTBZ
! ")
# '+
' !=
) };
) }`;
- ')
. ,
. "));
. ',[
/ ';
3 56
3 96
6 07
: <
: `
: ]*)(
= ")
= ")[
> :<
? ::
A E
A NT
B ack
B etween
B undle
B UYER
C a
C n
C an
C ent
C US
D j
D ir
D RO
D istrib
E cho
F J
F our
F req
F rmKey
G ovOrg
G rant
G RESS
G enome
H il
H AN
I b
I m
I CE
I PEM
J oi
K V
M AR
M TY
M aintenance
N C
O LLER
P os
P TED
P ACK
Q x
S um
S ent
S av
S CDelta
T D
T ri
T ST
U RL
U PLI
V M
V u
V ING
V ERY
Y MB
Y XR
] ])
] ==='
^ )(.*
` }));
a Bytes
a Val
a Coin
b at
b urn
b log
b Bytes
b orrower
c op
c ds
c fg
c ategor
d List
d iv
d ns
e S
e le
f old
f reedom
f ruitBasket
f utureContract
f acilities
g ger
g te
i os
k q
l date
m ode
n ulation
o es
o People
o otball
p gm
q r
r den
s Of
s ample
s upply
s upplychain
s urveyID
t reatingOrganization
v L
w ar
w ers
w ard
y et
y per
y To
z ation
| ^)(.*
¬ ¬
® ŀ
¯ id
» ĵ
¼ Ģ
¾ ĭ
ä ¾ĭ
å ľ
ç ¬¬
ç »ĵ
Ġ ~
Ġ les
Ġ getStateByRange
Ġ Travel
Ġ ]));
Ġ Prototype
Ġ Viewer
Ġ eth
Ġ ORDER
Ġ ä¸į
Ġ TxnAsBytes
Ġ åĪĿå§ĭåĮĸè´¦æľ¬
Ġ âĢ
Ġ question
Ġ ç»ĵ
İ éĿ¢
ĺ åľ
er ce
er ica
et e
on y
ar edKey
st uff
Ġc itizen
Ġc spName
Ġc att
Ġc apacity
in es
in her
or ID
or Org
es Module
at io
Ġ{ \"
Ġa kta
al Info
it er
it core
it ness
(' ;
(' |
(' --------
(' __
(' ','');
(' ---------------------
ct a
Ġr ules
ing Currency
ing Units
ub sub
Ġlet ters
arg e
arg v
Ġm ail
Ġm essages
me i
val Bytes
se e
se aled
args Name
re flect
re ciever
re lations
Ġth ru
Ġth ree
so chi
ĠE xpected
get Timestamp
get Names
get Processline
get NativeAPI
Ġnew Name
Ġnew key
Ġnew Paper
Ġnew Logger
Ġnew Pay
Ġnew AssetOwner
Ġnew Consent
Ġnew ViewerId
Ġnew Des
ul ate
ul ations
sh ort
Ġo mit
lo dash
Ġĉ ĠĠĠĠĠ
Ġargs AsBuffer
ion Cent
State Retrie
Ġp romises
ult ip
sy mptoms
ON E
Ġe missions
Ġe cds
value Bytes
is er
is Init
is Purchase
is Com
is bn
is Roaming
is AddShipping
ĠB log
ĠB lue
ĠB olnica
ĠB ASE
ber g
tr aders
query HistoryForKey
query result
ĠC orrection
ĠC reating
ĠC losed
uf en
th at
In Suspense
In Transit
ch Data
ch allenges
act iv
act ivationdate
ĠA zure
Ġf loor
Ġf rmKey
Ġd rivers
Ġre payment
Ġre lations
Ġre ntForTime
Ġquery Paper
Ġĉĉ ĠĠĉĉĉ
Ġĉĉ ĠĠĠĠĠĠĠĠĠĠĠĠĠĠĠĠĠĠ
from ID
from Address
ri endKey
Owner sData
Ġb uf
Ġb ack
Ġb ackorder
Ġb arcode
=== "
Ġasset Asbytes
ord AsBytes
ce il
ll ers
Ġowner String
Re nt
Re ferenc
Re quired
Ġin tern
oc ial
Ġi mei
art be
ess ion
Ġget Call
Ġget Transaction
Ġget PrivateData
Ġget Fin
Ġget TokenName
Ġget ClientData
Ġget Future
Ġget ModelManager
Ġ1 23
Ġ1 23456
('======== ====
ID ENTITY
car Buffer
key AsBytes
key Path
key SSS
ent a
il it
il age
id Gen
id GVzd
Ġ" /
Ġ" __
Ġ" =====================================================================
Paper Context
Ġ!= '
ĠS AMPLE
ĠS YMB
ĠS ocial
ĠChaincode SupportClient
Ġh o
Ġh ere
Ġh ocki
Ġh tt
AR R
List ByOwner
ime i
Ġdo g
Ġdo uble
all ment
all Payments
all Profiles
ve lo
asset Sale
Comp letionDate
Comp ony
Ġĉĉĉ ĠĠ
Ġĉĉĉ ĠčĊ
Car riage
create PO
create Payment
To Create
To Issuing
ĠnewOwner AsByte
Ġv ol
Contract Exists
te l
te sta
user ReqObj
Ġcreate Transaction
Ġcreate File
Ġcreate Mobilenumber
Ġcreate Consumption
Ġcreate PatientRecord
of fice
(" __
Ġstart mileageno
Date Range
Ġhold Balance
ap any
type Index
no Cte
set C
set ClientIdentity
set Commodity
set ToReturn
Ġis TLS
Ġis WhoRegistered
Ġis Verified
Ġstate AsBytes
Ġstate Data
Ġresponse Proto
new Project
new Bill
new Component
new ShipperId
new TrackingInfo
new Mesg
new Stage
new Appointment
urre d
number ToCreate
(` =============
Ġtransfer Batch
Ġfound Challenge
Ġch allenges
ĠContract Wallet
ĠCommercialPaper List
Ġinit LM
contract or
contract ID
contract Class
contract Added
order Event
order States
Ġdata Viewer
Ġdata Subject
mat ured
update Donation
update Entity
update Loan
update Processline
Data set
Ġstring Contract
org AsByte
org Ip
With Lot
Ġcontract Class
Ġcontract Info
Ġuser Receiver
as d
as cript
Ġ${ <%=
Ġchange FrmKey
Ġde l
Ġde duct
Ġde vices
SP ENT
Ġjson History
Error s
HistoryFor Order
read User
read Donation
read Documents
Ġchaincode Id
ĠCreate Paper
Args Type
Ġid Org
mock Shim
data AssetExists
)) ).
deem Paper
User Event
User WithAttrs
status Info
De fa
ĠCar Model
Donation ArgsType
done eId
ir cul
Ġcurrent Sim
Ex its
assert This
Ġmodule Path
'] [
sg pa
Of Park
Ġorder JSON
RE SER
Pri ority
able Token
CO MM
Ġun approved
Ġun approvedPayments
Call Charges
Ġĉĉĉĉ ĠĠ
Ġ5 40
Ġse x
Ġrecord Key
DE N
Ġdrug Owner
ĠqueryAll B
ĠqueryAll C
ĠqueryAll Mobilenumber
ĠqueryAll Messages
Ch icago
Ġper iod
Info Contract
Ġsu re
logger Stub
some other
donation Obj
Transaction CompletionDate
Ġissue Certificate
Get UserInfo
ĠAsset Context
ĠAsset Lease
ĠP ublish
ĠP oC
ĠP reference
** ');
OK E
throw IfEmpty
Ġ10 1
Ġperson Address
Ġperson alDataCategory
Ord ination
ĠqueryBy Blood
work erId
work ingCurrency
ĠF akeLogger
ĠF ootball
"} )
llow orld
drug store
add WaitingList
add MonthlyForecast
Order Received
Ġwork ID
ax les
ye kinto
valid ation
valid ator
Added Before
Up To
ĠRe nt
ĠRe ferral
ĠRe putation
ĠRe deemPaper
Ġread MyDrug
shipment History
shipment Data
shipment list
ĠM ain
ĠM ug
ĠM ultisig
ĠM anager
ĠM aritime
my Counter
file Info
file hash
ign Did
ĠOwner s
ĠOwner Id
Mi ll
Org Id
Org Details
check Successful
check DonationArgsType
Ġmy Wallet
(), '
comp osite
ĠFab User
ĠFab File
Ġadd Owner
Ġadd File
Ġadd Viewer
Ġadd Shipping
Ġadd Future
ia GY
ee v
Se quence
Ġproduct History
Ġproduct Listing
Ġproduct AsByte
Test UserWithAttrs
Vot es
Vot erId
Ġcompany Commons
Ġcompany RegistrationObject
company Crn
Company buffer
Ro om
Ro yaltyFee
Ġpatient PublicKey
property Request
Ġrequest Number
Ġrequest ID
Ġan imal
Ġcont rollers
Ġclient FiResult
Ġnum Of
Add r
Ġindex Viewer
Is Trading
Is Redeemed
Ġbatch AsBytes
02 1
Private AssetExists
rea Room
Ġbuyer HierarchyKey
product Exists
product AsByte
product TestsExists
Ġupdated data
Ġupdated Course
Ġhandle DataAttributes
Ġseller Iterator
Ġseller User
Ġevent Payload
fi AsBytes
fa st
Ġlog Message
Ġproperty Req
newOwner AsByte
store Asset
":" ${
request Id
Ġcall s
call erID
call Duration
TI CE
Ġshipment History
Collection One
ĠD ON
ĠD oc
ĠD UPLI
buyer Buffer
buyer Role
Ġstatus Info
Product o
Ġ[' "
Shipment Details
!! ");
CA T
Per cent
Per Inst
ship ID
ship List
Ġall Keys
Ġall Errors
11 0
TA MIN
TA SK
current Viewers
ĠT MC
ĠGet HistoryForOrder
batch AsBytes
com Bytes
account AsBytes
account Status
Token Chaincode
Token Transferred
vehicle String
model Reponse
IN E
IN S
pen fold
Ġdate String
total Transactions
ĠN AME
My Wallet
My TestUserWithAttrs
election Buffer
ĠR FID
ĠR eturn
ĠR IPEM
part ners
File CompositeKey
RON E
ified Timestamp
min max
sub Class
sub job
str Array
state Type
state base
Ġfi xed
Ġfi ClientResult
Ġaccess Key
Ġtitle List
Ġwallet sAsBytes
po v
po DataBuffer
ĠOrder Context
ĠG V
ĠG lobalCitizen
ĠG RADE
ĠUser Id
ĠUser Asset
Ġcert Hash
New Vehicle
istribut ionCent
NO TICE
Ġcp AsBytes
wallet Key
wallet sAsBytes
des c
last ModifiedBy
member Type
Ġballot Id
Ġsub Class
Ġsub job
Ġsub scri
Ġsub contractID
allowance Value
000 552
view User
ĠW A
ĠH O
Ġservice Code
doctor index
ĠPro posal
ĠPro dList
Ġfin ished
Ġtransporter Details
Ġproject Bytes
Ġsender PK
time ToExpiration
(! ([
Hold Operator
Hold OperatorFor
Access To
ĠNode RSA
ĠNode LoggingService
eng v
test Contract
test Token
project Bytes
medic inas
arn ed
]) ",
Ġgenerate Initial
Ġgenerate LinkKey
lab Records
lab RecordId
End ors
Ġdone eId
Ġlo cate
listing Data
posit ion
Ġ/ ([^
her o
:: ${
Ġtest ClientIdentity
Ġtest Transient
Ġtest Config
Student Exists
Ġput Key
Node AsBytes
Node DataService
Ġinitial zation
Ġco erce
Ġorg AsByte
getM anufacturer
cepted Pacient
Ġcredit sE
48 6
48 8
Ġcustomer AsBytes
Ġcustomer ID
CONTR OLLER
manufacturer Org
sum mary
('../../../ ../../
Ġmanufacturer Key
Ġencrypt ed
Model Id
Model IndexKey
ĠData List
ĠData Context
Ġfind All
mod ules
mod ifiedTimestamp
raw Id
raw Ts
Ġcontent s
credit Card
Ġsave Array
ĠProduct List
ĠProduct Context
ĠProduct sContract
subject Key
pre ference
service provider
service area
90 6
verify Wallet
verify Sign
Fin ished
Ġ] };
ĠO rden
origin Balance
Ġbuffered Seller
!!! `}));
Ġ===== ');
Ġcreator Id
Ġcreator PublicKey
Vote Token
Ġemr s
Ġphone No
ma AsBytes
25 00
instance Cp
transient Data
orator s
ultisig Contract
Pay Request
ĠgetAsset ByProp
55 55
Ġraw Id
Ġraw Ts
Ġapprove Cert
17 7
Ġoriginal Ajv
Ġoriginal Controller
Operator Value
Operator Org
Ġinc rement
]+ ":"+
lan e
Ġsubmit ted
Ġverifier Data
Ġstudent Name
existing Request
Ġprop iet
sFor Hospital
Ġstatic s
Ġpermission Data
ĠSe llers
Or den
Ġyear s
stock Account
charg ed
device ControllerIndexKey
medicine Receipts
leng ht
("======== ===
Logistic ID
26 0
Weight Matrix
Ġcom s
recon ciled
customer Number
Profile Access
super Class
Ġlicense AsBytes
Market place
ĠState List
attr Value
Ġreq identity
ĠThe Issuer
Ġocc urred
Ġblock chains
":{ }};
content s
ĠSeller List
Ġrequested Serializer
CE LED
title List
queryBy Key
Ġsmart meter
ĠgetCreator Id
Ġwrite Data
END ED
Tw oPeople
initial ClientData
initial FIData
ĠTransaction Record
ĠTransaction List
Ġauction AsBytes
Ġauction id
Full Genome
Be aring
normal izeX
ĠpublicKey Hash
ĠpublicKey Pair
ĠCh arging
Ġremove Owner
Ġremove Viewer
class name
module Path
operator s
operator Id
Ġoperator A
ĠK uma
Ġbook ings
Pacient s
Pacient PrivateData
ĠCredit Marketplace
Ġinstance Key
Ġinstance Cp
Ġexport ed
rule AsBytes
Job Assign
LO C
Ġmed Number
Person Asbytes
`) }
poll Bytes
Ġli ke
Ġenc r
trade Event
Ġrecords List
supplier AsBytes
target Company
ĠEngine ering
Ap pend
ĠI ssuing
getCompany Role
Ġstr Array
TRANS FER
ehr s
Ġresource Parsed
Ġdi ag
Ġpatent Status
Ġcreation Date
public did
publisher Data
ĠInvoice List
Ġattr Value
Ġpayment Key
Ġunit code
balanceOf Spender
Ġsubject Parsed
Ġfetch Company
Ġreferral Issue
Ġreferral Accept
aidOrg AsBytes
upg rade
design ation
processline Key
debtor FoundIndex
firmed Shipping
creditor Obj
Ac ronym
auction Id
dis count
Ġdistributor s
234 5
ĠMock Handler
ĠRetailer Context
ĠEx ist
ical Items
ĠdrugHistory Buffer
requested To
riv ing
Ġloading end
Ju ice
ĠProcessLine List
ĠProcessLine Contract
ĠProcessLine Context
Ġ{' $
ancial Inst
ĠgetUser Details
Coin Contract
pacient Lbo
pacient PrivateDataList
00000000 00
Ġgrad ient
ChainX Exists
blood ProfileId
ĠmedicalRecord s
ĠmedicalRecord ID
08 0
ĠnewUser name
Ġdataset s
ĠDistributor Contract
ĠbalanceOf Owner
ĠbalanceOf Spender
warn ing
itution Data
KYC Number
Ġoverage Threshold
ĠDO B
controller AsBytes
ĠPatientRecord List
ĠPatientRecord Context
setStateTo OrderReceived
Overage Flag
ĠCO IN
ĠAct ivationdate
Ġrevoke Access
Ġroaming Partner
Ġbad Action
ĠModel Type
Ġconvert Date
Ġpacient Data
Ġfacility Id
Ġutility Id
Pharmanet Helper
Ġord s
Ġord inationCode
('******** *');
('******** **');
Ġnormal izedCert
Prod SM
ĠProofit List
ĠProofit Contract
ĠProofit Context
ĠaidOrg AsBytes
EHR Access
ĠTrans OrderInfo
Ġprecord Key
Grad ients
Ġap pend
Ġind ustry
ĠPurchase Paper
ĠPurchase OrderList
çļĦ è°ĥçĶ¨
gA reaRoom
leave Balance
ĠSub scriberSim
ĠBook Store
setStateToShipment Received
setStateToShipment Created
setStateToShipment InTransit
PH C
ĠqueryResult Src
ĠInitial ise
Activ ate
ä¸ªåıĤæķ° æĺ
HarvestBatch IndexKey
Mu chData
ĠList OnMarket
Ġmodeled WaitingList
updateUser Balance
pair Object
isInitiator Valid
ĠService provider
ĠService area
åĲ İéĿ¢
Listings ByUser
ĠTRANS FER
CR ITI
Dis connect
Pair Id
]+' .');
isPaid ToAdvising
Ġstored User
Ġinter pret
rawmaterial Exists
Author ize
Trip Status
overage Rate
player AsBytes
}:: ${
getRe lationBy
ACCE PTED
Constructor Return
Ġcredential sAsBytes
creditNote Id
Processor Attributes
royaltyManagement Id
royaltyManagement Asset
audit or
track List
Ġdd ldate
frame Key
ĠBike AsBytes
ĠparsePeerUrl Fcn
ĠupdatedDonation Json
ĠcallDuration InSeconds
ible ConstructorReturn
ĠVote Count
isco very
release Hold
upload er
Ġcatalog s
Ġcatalog AsBytes
ĠAc ceptedPacient
Down ID
globalCitizen AsBytes
skill Number
proyect o
ĠjsonQuery Src
Ġann ulation
PHARMA NETORGS
PHARMA NETROLES
RFID batchtag
RFID TagIndexKey
Ġconfirmed Shipping
Ġme asures
Ġmultisig Wallet
ĠEnc ryption
Ġel ID
ĠCru iser
Ġfrequency Table
papers ToList
Ġsug gestedDestination
ĠpatientKey Pair
ĠRP name
ĠputPrivate Collection
ĠoriginWallet AsByte
-------------------- --
Am erica
Digital Assets
ĠCont roller
ĠgetData Rating
setUpdate Process
Ġ36 00
processor List
Bal ances
build WalletBS
operation List
Ġpur pose
TAI LS
ĠcandidateInfo JSON
ĠdonorInfo JSON
ĠglobalCitizen AsBytes
plant Base
ĠleaveApplication Key
enterance AsBytes
ĠpensionFund Address
societyId StationIdIndexKey
House ID
IAB LE
mon d
ris k
Ġsearch key
196 3
ell ar
Ġå ®ŀ
Ġå ¼Ģ
Ġpending Data
search key
ĠgetToken Owner
ĠgetToken Symbol
drugHistory Buffer
Ġguest Company
]:* ').
originWallet AsByte
Ġprev IpfsHash
ĠgetRelationBy Fi
ĠgetRelationBy Client
ĠCommerical PaperContract
ĠCommerical PaperContext
sens itiveInfo
getRequest orOrg
convert Date
Ġsens or
wholesale Market
CAN CELED
commit Id
éĶĻè¯¯ çļĦè°ĥçĶ¨
lectronic s
FH IR
VAR IABLE
æĿ Ł
ĠCo lour
ĠAss ignDid
Ġdriver AsBytes
Release dBy
Ġlocal MspID
Inspector ID
ĠproyectTo Donate
credential sAsBytes
every thing
stored User
Ġcho ice
Ġfetched State
Ġdash core
Ġmeta key
ĠSec urity
veHdr str
erComm ons
DELI VERY
ĠFood Contract
poss ibleConstructorReturn
ĠgetAllCertificate By
Iiw idGVzd
Loop ing
Ġselect Commodities
Ġdrugcurrent Info
OrCreate MyWallet
medicineReceipt Id
----------------------- ')
åŃ ĺåľ
Ġ=" ";
Ġnbc lassifier
(":: ")[
ĠchangeItem Owner
gener alInfo
component A
ĠNE W
Regional office
ĠshortTxid Stub
STU DENT
ADD RESS
BuySell Request
setRead yTo
GREE TING
Ġcap ability
Ġdos age
Ġ150 3
Ġprodu c
cover ed
Ġgraduation Date
:]*)( ?::
Between TwoPeople
CUS IP
Hil ux
Sav ed
TST T
bat man
facilities List
sOf Attrs
supplychain net
|^)(.* )/
Ġles see
ĠTravel Asset
Ġä¸į åŃĺåľ
ĠâĢ ľ
Ġç»ĵ æĿŁ
aredKey PairId
Ġcatt le
inher its
Ġthru Date
getNames pace
ĠargsAsBuffer s
StateRetrie val
Ġecds a
isCom firmedShipping
ĠBlue CoinContract
ufen berg
Referenc ed
artbe at
ĠgetCall erId
ĠgetFin ancialInst
Ġ"===================================================================== "
ĠSYMB OL
Ġhtt ps
allPayments InLink
testa gent
ĠcreateConsumption Record
setCommodity Description
matured Paper
WithLot sOfAttrs
Defa ults
ircul ar
assertThis Initialized
OfPark ing
RESER VE
ĠqueryAllMobilenumber s
ĠMultisig Chaincode
checkSuccessful StateRetrieval
iaGY u
companyCrn Request
ĠDUPLI CATE
PerInst allment
TAMIN E
ĠRIPEM D
statebase d
istributionCent erID
ĠgenerateInitial Coin
ĠgenerateLinkKey Helper
Ġ/([^ :]*)(?::
Ġcoerce Types
ĠcreditsE arned
Ġpropiet atio
FullGenome Sequence
ĠCharging Option
ĠKuma TokenChaincode
JobAssign ment
ĠreferralAccept ance
ĠTransOrderInfo ID
ä¸ªåıĤæķ°æĺ ¯id
åĲİéĿ¢ çļĦ
CRITI CAL
Ġinterpret er
getRelationBy Fi
ĠEncryption Chaincode
Ġå®ŀ ä¾ĭ
Ġå¼Ģ å§ĭ
éĶĻè¯¯çļĦè°ĥçĶ¨ åıĤæķ°
Ġä¸įåŃĺåľ ¨
ĠgetFinancialInst itutionData
Ġ/([^:]*)(?:: |^)(.*)/
' -
) }
* (
, (
1 997
2 13
2 002
3 76
4 0000
4 12
5 9
5 10
5 40
6 24
7 9
9 56
9 006
: :"));
B B
B esu
C TR
C LO
C linic
D C
D ist
D OG
E ither
E valuationMeeting
F ir
F irst
F CA
F airTrade
F FICI
G E
G U
G al
H i
H ist
H ttp
I RA
J J
K N
K ET
K yc
M it
M ove
M ug
M ale
M icro
N ormal
O OP
P h
P m
P ar
P our
P romise
P acking
S R
T hao
U nder
V G
V is
W ON
W HOLESALER
[ \"
] }`;
` ${
b ri
b ination
c b
c ur
c annot
c oop
d l
d Products
e et
f ess
f requency
f airTradePremiumInvested
f qn
g i
g ies
g rainContract
g greg
h istor
i qu
i mport
j k
j u
k y
l n
m er
m ilk
n os
n erC
n Lin
o ken
o ws
p ari
p op
p romises
s J
s ales
s ChainXExists
t Id
u chase
v Pid
v gAreaRoom
w ind
y g
y ou
} ];
} }`);
} .`);
¡ åħ
¤ ä¸ªåıĤæķ°
¥ ĭ
« ĺ
± ¼
² Ľ
¿ Ľ
å ¼
å Ĭ
å ¥ĭ
å ²Ľ
æ İ
è ĥ
è Ĺ
è ¿Ľ
é ģ
é Ĵ
é Ľ
é «ĺ
é ±¼
Ġ Incorrect
Ġ )));
Ġ Th
Ġ ))
Ġ Ord
Ġ 999
Ġ Lease
Ġ Verify
Ġ library
Ġ Metric
Ġ Resolve
Ġ 000000002
ī æĺ
ĭ å¤§å£®
İ åı·
ı éĶĻè¯¯
ĵ é±¼
ĺ èĥ
ł å·
et erm
ar a
Ġc ertificates
es h
es sed
at in
le ep
Ġa ller
Ġa bi
Ġa vailability
Ġa bac
Ġa ggreg
Ġa vgAreaRoom
(' ===
(' ----------------------
ĠĠĠĠĠ ĉ
Ġt s
Ġr a
Ġr pc
Ġr usultAsBytes
Ġcon Wallet
St ored
Ġn ano
ub RSA
Ġm atrix
Ġ( -
nt e
se cond
re ight
re lation
re conciliation
wa ne
de alerID
so ld
ĠE missionsRecord
ue nt
get Account
get Definition
get ting
get Url
Ġnew Doctor
Ġnew ProductID
sh oes
pe di
Ġĉ Ġĉ
Ġp age
Ġp ack
Ġp rescri
ut e
Ġ+ (
info spy
is Buffer
is Allowed
Key EndorsementPolicy
ĠB ar
json Path
query Spend
ĠC P
ĠC ST
ĠC icero
ĠC ancelled
ĠC argo
jsonRes ponce
In secure
In Mill
ĠA cc
ĠA pproved
Ġf arm
Ġf illed
Ġd iplo
Ġre place
Ġre gistry
Ġquery Private
Ġquery Batch
Ġquery Certificate
Ġquery Payment
Ġquery Candidate
Ġquery Customer
Ġquery Fish
from Json
od es
() }};
Ġs in
Ġarg Json
Ġasset Array
Ġcar Buffer
am bi
ord s
ll ager
Re conciliation
Ġex ternal
Ġex its
Ġto Currency
Ġget Results
Ġget Query
Ġget Contract
Ġget Company
Ġget MSPID
Ġget File
Ġget Files
Ġget Truck
('======== ================================================================
car Key
car Count
key List
') )).
ĠIn stantiate
Ġ[ ...
paper ContractExists
il ization
id ad
id List
id ity
Ġ" \"
Ġ" {\"
Ġmodel Name
Ġmodel Number
Ġmake Payment
Transfer Drug
Ġbe ne
Ġbe long
Asset Buy
ers Bank
ĠS end
ĠS ale
ĠS ona
delete User
delete Order
return FactId
ĠChaincode Message
Ġh ig
Ġh dr
By Limit
Ġw ifi
all erg
Comp lete
Comp lexity
Ġend Coordinate
create Shipment
To Json
up lic
up link
). _
user info
user Obj
pro cessed
Ġcreate Org
Ġcreate Wallet
Ġcreate Batch
Ġcreate MyAsset
Ġcreate Patient
Ġcreate Course
Ġcreate Customer
Ġcreate Meterpoint
Ġcreate Pseudonym
History Item
ĠĠĠĠĠĠĠĠ ĠĠĠĠĠĠĠĠĠĠĠĠĠ
start ing
start Coordinate
(" ::"));
ap is
no ther
set Data
set Transaction
set Processing
date Stripped
new Object
new EHR
new Laboratory
new Pharmacy
new LabRecord
new MedicineReceipt
Ġtransfer red
en ded
en sor
Ġch arges
Ġch arge
Ġ- ')
Ġdata Key
tri gger
org Name
org Description
Ġcontract Detail
Pro v
Pro of
Pro pery
Ġat temp
Ġchange CPName
Ġjson Map
la ina
vi llager
read Cert
mock MsgQueueHandler
data Key
ag ed
User ID
User List
De stion
sp ain
Ġcurrent Rule
Ġcurrent Review
js rsasign
Ġtrans act
Ġtrans id
Ex am
Ġrecord Fish
Ġdrug HasSeller
ĠqueryAll Assets
ĠqueryAll Fish
Ch ang
Ġissue Request
Get bytes
Get Asset
Ġfrom Date
Ġfrom Currency
ĠP ut
Ġ_ ',
Ġupdate MyAsset
Ġupdate Patient
Ġupdate PatientRecord
ĠF in
ĠF und
ĠF ish
ĠF ISH
ĠF reight
"} ]
"} '),
add Company
Order ID
Ġad Provider
TE NT
ax y
valid Option
ĠRe port
shipment s
gre es
my PrivateAssetExists
ĠOwner ship
Ġmy Logger
Ġadd Donation
Ġadd Balance
Ġadd Logs
Ġadd Truck
ac idity
Ġtotal Productions
Ġtotal Consumptions
Ġproduct Name
Ġproduct Quantity
company Iterator
property Obj
property Req
Ġrequest UserObject
Ġg ov
Ġg adget
': {
fetch CompanyName
fetch CompanyKey
Ġbatch size
Ġbuyer Results
Ġbuyer Role
product Order
Ġseller CompanyKey
event Object
Ġnumer c
Ġevent Object
client identity
Ġproperty Name
Ġproperty Number
Ġproperty ReqKey
Ġno OfParking
request Status
Ġcall Type
seller CompanyBuffer
Ġshipment s
Ġshipment Details
Ġ` '
Ġ` ,
ĠD r
buyer CompanyBuffer
buyer UserKey
Ġaccount ID
Ġaccount Balance
ĠĠĠĠĠĠĠĠĠĠĠĠĠĠĠĠ ĠĠĠĠĠĠĠĠĠĠčĊ
Ġcheck Role
Product Buffer
Ġcomp are
Shipment List
ated Amount
out going
CA NT
Ġexpected Result
Ġexpected Opts
Ġl bo
Ġl ists
11 6
Valid ator
Client Name
current url
ĠT elco
ra h
account BalanceVal
Rating sForPP
Token Owner
model Exists
IN V
50 4
expected Opts
Ġbreak fast
Ġdate Received
ledger file
updated Property
10 9
cert Name
generate ValidAssetId
12 1
Ġaccess List
Ġwallet Info
Ġwallet str
Ġ200 0
po Details
Ġver ifiers
Ġy a
Ġy yy
PE N
Ġcert i
Ġcert s
34 1
34 78
34 55
Sy mptoms
last Update
last Pour
56 8
Ġballot Insert
BA NK
cp AsBytes
cp Number
Ġpo Id
Ġpo DataBuffer
Ġpo wer
000 6
EX T
Con signment
:" +
ĠH e
Ġtransporter Obj
Ġsender Address
registration Type
lect ric
Ġinfo spy
token AsBytes
STA GE
ĠNode HTTPService
ĠNode IdentityService
ĠSh i
project s
debug Spy
19 0
Ġtemp urature
travel s
Ġdec od
fir Id
offer AsBuffer
Ġinitial Amount
ib m
'} };
98 1
98 8
Not es
48 88
raw tx
raw Job
Ġreceiver Balance
Ġreceiver Address
creator Cert
18 9
pre Consent
Ġ6 0000
90 34
Ġsupplier Name
Ġsupplier Amount
Ġsupplier Mobile
Ġbuffered Asset
hospital AsBytes
hospital List
TH IS
wer e
Ġ+' :'
LI QU
Ġhospital AsBytes
25 7
access Key
Ġbank AsBytes
temp Class
vote Count
ĠDe livering
Ġsubmit Tx
Ġsubmit Weight
Ġsubmit FairTrade
Ġsubmit Packing
05 47
entity Resp
Ġfish Number
Ġtxn Details
26 4
Ġcom bination
customer AsBytes
customer UserName
1234 58
Ġreport AsBytes
Ġreport Type
Ġenergy Use
Ġlicense Id
Ġproposal Key
receiver Balance
receiver BalanceVal
ĠSt ore
spender MspId
Ve hicles
77 12
report Name
report Year
eting Date
Ġdes ired
Ġmanufact uring
æķ° éĩ
AD MIN
Ġus uario
initial Amount
Ġtrade Event
Recon ciled
Ġauction Id
getAsset Data
Ġpoll Key
fc bf
ĠclientIdentity Instance
returned Color
Ġlogistics Name
Ġlogistics Amount
Ġlogistics Address
Ġlogistics Mobile
document Ids
Ġremove Contract
ROLE S
operator A
delivery FactId
Argument s
Ġfunc Name
66 8
====== ')
author ity
ä¸ ¤ä¸ªåıĤæķ°
07 0
waitingList Exists
93 7712
Ġsubject Key
SI ON
Ass essed
pallet List
åĪ ĺèĥ
fish es
fish Number
food Order
truck Contract
dis patch
dis pose
Ġ'] ');
Ġword list
Ġsplit edKey
Ġcondition s
reg Request
Review State
modeled Pending
modeled Ammend
TRANSACTION S
\": [\"
Ġeal AsBytes
CB T
gested Location
åıĤæķ° æķ°éĩ
06 0
06 39
Out put
ĠV ideo
logistics ID
HE I
ĠexistingUser Obj
getProperty Key
pac Exists
Grad Coins
Ġap provers
+" -
Ġvideo Provider
final Score
coffee Exists
cbtObj Key
Ġ':'+ ('
ref user
ref Field
Ġvari able
Ġprob s
ĠHarvestBatch Results
ĉĉĉĉĉĉĉĉ ĉĉĉĉĉĉĉĉ
nomor SHT
ĠnewPO Obj
Ġecho Transient
bag sExpected
Ġtask AsBytes
Ġinter connectContract
Ġregist ro
Change Event
åħ īæĺ
Ġdif fs
Ġemergency Contact
150405 4888
Ġcard AsBytes
sprint Names
transcript Exists
Ġtmp ProdList
precord Key
ĠgetProduct Detail
ĠPres ent
production Date
Don ativos
Des ignation
ProcessRequest Attributes
199 8
web urls
ĠLogistic ID
ĠCont act
meter Price
ĠvoteList Bytes
voteList Bytes
IBO Agreed
akta List
child Name
Ġreciever ID
Ġbo th
Progress ive
PRODU CER
1504054 666
GO ING
GO LD
cul ate
Ġlevel Spy
ĠQR data
AG E
CLA SS
trust edContacts
ĠViewL ifeCycle
54 76
basket Key
gadget s
sug gestedDestinations
Ġlease Number
condition s
Ġroot Path
Ġmanufactured ByManu
éľĢè¦ģ ä¸¤ä¸ªåıĤæķ°
911 0547
ĠRo ad
ĠVaccine ID
ĠEnt er
ĠEnt ry
Ġbreed ers
insert ing
getCompanyObject ByCRN
Del State
emergency Contacts
Proyect s
ĠPRE FIX
UdIwQkMCKA IB
Pur pose
Sug gestedLocation
1022 937712
ĠLice nse
FUND S
15525216 00
\"] }"
Reservation Time
ĠisPenalizedBy Time
Ġcharging Station
Ġdebug Spy
Ġphon enum
Ġ'../../../../ ../
root Path
ĠdrugSales Info
çİ ĭå¤§å£®
Ġmobile No
getAddress ByID
ĠAP PRO
Ġspen Email
Ġbio Metrics
INSU FFICI
Ġformatted Results
AE MIN
Tri al
fruitBasket List
ĠnewDes c
ĠgetTransaction History
ilit ary
956 1022937712
CLO SE
Clinic ian
Vis ited
nerC ategory
uchase dProducts
wind ows
¡åħ °
åĬ łå·
å¥ĭ è¿Ľ
æİ ¡
èĹ ¥
éĴ ĵé±¼
é«ĺ å¤§å£®
Ġaller gies
Ġavailability Timestamp
('---------------------- ')
Ġnano ID
relation Key
pedi ja
ambi ar
('======================================================================== ======')
AssetBuy erId
ersBank Approval
ĠSona wane
Ġhig her
allerg ies
laina nt
readCert PEM
validOption s
LIQU AEMIN
ĠsubmitWeight Tally
ĠsubmitFairTrade Data
ĠsubmitPacking List
123458 97
åĪĺèĥ ¡åħ°
\":[\" _
åıĤæķ°æķ°éĩ ıéĶĻè¯¯
åħīæĺ İåı·
9110547 0639
INSUFFICI ENT
åĬłå· ¥
å¥ĭè¿Ľ åı·
éĴĵé±¼ å²Ľ
! @
! ";
! "));
! ="
" .
" '],
# ${
& &
' m
( ([
) >
) ]
) ();
+ ",
+ ':
- ((
/ +
1 56
2 18
2 76
3 18
3 26
5 1
5 50
5 98
6 000
6 03
6 44
6 77
7 2
7 98
7 15
7 18
7 23
7 44
7 96
8 5
8 50
8 18
8 64
9 64
9 40
= \"
A F
A ri
A ctor
A LE
A IP
A TOR
A ES
A bout
B P
B T
B b
B d
B q
B z
B ad
B TE
B AL
B irth
C ad
C orrect
C sc
C hair
C LS
C reation
C ritical
D M
D r
D ha
D ark
D ual
D river
D uplic
E i
E q
E ng
E quipment
E pn
E thi
F ic
F etch
F aculty
F rame
F unded
F ruitBasket
F ABRIC
F ingerPrint
G q
G ot
G pro
G DA
G zE
G RA
G PS
H ot
H RE
H ere
H ING
H km
H VL
I I
I K
I LL
I ced
J b
J ub
J pe
J zY
J Xa
J osh
J Ib
J HVL
K z
K ha
K sF
K ard
K Ck
K cg
L C
L R
L V
L yt
L WN
L IST
L ifeCycle
L isa
M Z
M ant
M inutes
M ah
M wWTAT
N c
N it
N LS
N YW
N ativity
N ATION
N IM
N EXT
O b
O TI
O DA
P Un
P ackage
P NK
P sJ
Q pe
Q XR
R k
R q
R zz
S q
S iv
S ample
S ME
S CC
S kill
S CR
S dk
T ick
U wCgYIKoZIzj
V P
V h
V Qu
V ITY
V XN
V GVzd
V ended
W g
W v
W Up
W ant
W Kcg
X f
X Ro
X CONTRACTORS
Y a
Y PE
Z MB
Z hb
Z lc
Z Jub
Z PUn
\ ]
a u
a State
a ult
a Type
a Contract
a Payload
a eyJh
a EndTime
a Lyt
b ON
b arcode
c B
c st
c am
c ru
c red
c GA
c urrency
c lid
d z
d an
d har
d Hash
d iff
d Funding
d eregister
d istributionCenterID
d yg
e qu
e quest
e IN
e Fw
f r
f u
f fe
f BgNVH
f IW
f lavor
f RP
f amily
f Uf
f BT
g Tw
g QW
g ija
g VL
g iangvien
g oose
h o
h ang
h HK
h Rt
i W
i rg
i Unit
i BgNV
i AIP
j i
j un
j FA
j Nw
j pM
j LWN
k g
k oko
k hoiTao
l ing
l us
l cn
l dOn
l andid
l sc
l ifecycle
l tH
m B
m m
m u
m as
m gt
m ergedObj
m BggqAwQFBgcIA
m cd
n F
n m
n x
n IndexKey
n ResultsIterator
n ated
n BH
o Contract
o grad
o len
o Ya
p O
p age
p Gpro
q ME
q wer
q Bz
q aLyt
r M
r t
r Contract
r ca
r usultAsBytes
r LV
s ing
s iSmartContract
t es
t ID
t wo
u led
u Eq
v N
v Details
v za
v JJ
v Bq
v pGpro
w es
w ise
w Ih
x Nz
x ios
y I
y O
y di
y FD
z AZ
z ZX
z kp
} ":
} ],
} !`);
} !!!`}));
¸ é
¼ ç
ã Ģ
å ł
æ Ķ
é ħ
Ġ |
Ġ ge
Ġ Time
Ġ Metadata
Ġ RR
Ġ ]).
Ġ 98
Ġ 003
Ġ Inter
Ġ vendor
Ġ artWorkId
Ġ licensedTo
İ ç
ĠĠĠĠ ĉĉčĊ
er ior
et es
on ed
on Chaincode
ar ed
ar ds
ar oma
ar jun
st ia
Ġ= [
Ġc ta
Ġc icero
Ġc asing
Ġc ypher
in ter
in formation
in ventory
in sectActivity
or aclizeQueryResult
or ignalPropertyOwner
es st
at i
at tend
at Ca
Ġ{ $
Ġ{ _
Ġ} ]
Ġa ad
Ġa vg
Ġa nother
Ġa xios
al t
al yt
al pur
al iy
it es
let er
ct Ju
Ġ' #/
Ġt th
Ġt imes
Ġt inhDiem
Ġcon cate
Ġcon fidence
Ġn b
Ġn eed
ing Data
ing Patient
ing Table
arg Json
Ġm g
Ġm ode
Ġm ass
Ġm aterial
Ġ( ${
Ġ( (!
ro ast
ss cc
ss BP
re gistry
re newable
Ġth us
de alerCarsList
an onym
ur gija
so bj
so ft
ĠE lectronic
ĠE VotingContract
Res pon
get A
get Ex
get Course
get Vaccine
get Po
get Observer
get Subject
get Challenge
Ġnew Init
Ġnew count
Ġnew Le
Ġnew Account
Ġnew Ship
Ġnew Rate
Ġnew Method
Ġnew Trade
Ġnew Book
Ġnew PriceTravelPerPassenger
Ġnew PriceDepositPerPassenger
Ġnew Laboratory
Ġnew Dis
Ġnew Entry
Ġnew BatchFeed
Ġnew Poll
Ġnew ProdList
Ġnew Stage
Ġnew ASN
Ġnew LSP
Ġnew Qual
Ġnew NumProj
Ġnew PoObject
ul a
sh old
sh op
sh aredKeyPairId
qu iry
Ġo user
Ġo ver
Ġo ldOn
Ġo wes
lo cale
ol lect
to ID
to Data
to pedija
Ġconst ru
Ġreturn ByTravel
Ġreturn ByDeposit
State JSON
Ġp or
Ġp incode
Ġp lay
Ġp ourCup
ut c
row dFunding
ON GOING
Ġe contr
info List
is Issue
is Request
is Status
is Place
is Funding
is Cancelled
is Statement
is Present
is EarlyPay
um ulator
um bON
ĠB RN
ĠB ackordered
ĠB UYER
ĠB LOCKCHAIN
ist iUnit
json Credit
ode ji
query ing
query Data
query Material
ĠC ode
ĠC HAIN
ĠC redential
ĠC ERT
shim Error
In Text
In DateRange
In Zhb
Name String
ch an
ch ang
ch ive
log Message
act e
ad Time
ĠA M
ĠA ve
ĠA pt
ĠA WS
ĠA pprover
Ġf air
Ġf raud
Ġf light
Ġd pe
Ġd ist
Ġd od
Ġd igital
Ġre mark
Ġre plyPaper
Ġre voked
Ġquery Asset
Ġquery Contract
Ġquery Message
Ġquery Material
Ġquery Netherlands
Ġquery Spain
Ġquery Hist
Ġquery Proyects
Ġshim Error
Ġtr uy
Ġĉĉ ĠčĊ
Ġĉĉ ĠĠĠĠĠĠĠĠĠĠĠĠĠĠĠ
Ġĉĉ ĠĠčĊ
Ġĉĉ ĠĠĠĠĠĠĠĠčĊ
from Ar
ed In
ed Applications
ed mond
() ]
() ")
() });
ri ght
ha shed
Owner Re
Owner Contract
Owner Info
Ġs ession
Ġs leep
Ġs rca
Ġb urn
Ġb yte
Ġb arista
Ġb itcore
Ġmet erpoint
Ġasset History
Ġasset De
Ġasset Modifier
Ġcar Data
Ġcar Location
ce ed
Ġowner Object
Ġowner Detail
Ġowner PubKey
ex port
ex Report
ou dhar
Re cipient
Re putation
Re concile
Ġin active
Number Request
Ġi mpl
Tr as
Ġex chang
un reconciled
art er
Inc ome
Ġto p
Ġto Email
Ġto Organization
cc d
cc up
Ġpaper Content
Ġget Paper
Ġget CompositeKey
Ġget Amount
Ġget Request
Ġget Method
Ġget TransactionId
Ġget RangeResults
Ġget Invoker
Ġget Tenant
Ġget ShipmentDetails
Ġ1 1111
ID S
ID Sub
car year
key Name
key Number
Ġit er
ĠIn av
ĠIn Process
us r
ab i
ab etes
ab alpur
iz ing
Ġ: '+
ial Asset
Query ResponseMetadata
00 8
00 9
00 67
Ġmake Request
Ġmake Offer
Ġmake Equipment
cn MwWTAT
li ca
ay odeji
ould n
ize Timestamp
Ġbe low
Ġbe acon
Asset Status
Asset Exist
om oContract
ĠS ALE
ĠS SCC
ĠS siSmartContract
({ }))
delete Asset
delete Batch
delete Vote
delete Stock
delete Food
delete SsiSmartContract
return Plan
Ġh p
Ġh yper
and o
By On
By by
By Registrar
By Dealers
Ġfor nitore
Ġcars ManufacturedBy
Ġw olesaler
For All
all data
all Party
all Owners
Ġamount To
asset Number
asset Details
Comp are
Ġend orse
Ġend orsement
Function Executed
create Asset
create Value
create Batch
create Vote
create Ss
create Stock
create Food
create SsiSmartContract
create Insecure
To Travel
To Check
up Date
up GradCoins
Ġv tID
Contract Context
user Projects
user RegRequestKey
con sign
con firmed
con fidence
CompositeKey s
pro ve
pro ps
Ġcreate Identity
Ġcreate Project
Ġcreate Student
Ġcreate Payment
Ġcreate Vaccination
Ġcreate ContractWallet
Ġ2 9
Ġ2 341
old count
start key
start Coordinates
(" {\"
(" =====================================================================
(" ******
be anType
Ġvalue A
Ġvalue B
Ġstart ed
Ġstart key
ic s
ok FV
type IndexDoc
set Query
set Value
set Date
set Partial
set Request
set Payment
set Ship
set Invoice
set Confirm
set Sold
Ġis In
Ġis Allowed
Ġis Referenced
Buffer Existing
erC RM
qual ity
qual ifications
new Asset
new count
new Entity
new Hospital
new Consent
new Lsp
new DataAttributes
new BatchFeed
new ApprovedModifier
new Researcher
new Insurer
new LSP
new ControllerID
for Actor
owner Wallet
owner UserKey
owner PubKey
Ġtransfer Detail
ND IDA
en ers
en abled
Ġkey val
Ġkey End
Ġ3 9
ck et
Ġinit Payment
order Time
order Json
Ġdata Bytes
Ġdata Trust
update Owner
update Data
update Batch
update Vote
update Book
update Stock
update Food
update SsiSmartContract
Data Path
Data Subject
Ġutil sc
Ġmock QMsg
Ġmock NodeEventService
Ġmock NodeContainer
Ġmock NodeHTTPService
Ġdelete Record
Ġdelete CompositeKey
Ġdelete Return
Ġdelete ModificationPendingApprovalFromAsset
mark down
Pro cessed
Pro ceed
Ġat t
ĠInvoke Chaincode
Ġchange Balance
Ġchange Account
Ġchange UserName
Ġchange Prefix
Ġchange Rate
Ġchange Device
Ġchange Bike
Ġchange AssetStatus
Ġde leting
Ġde livering
el ong
el hi
Ad har
Ġcc DecodedPayload
Spend Amount
Ġjson Object
Ġjson Text
Ġjson Credit
iate d
la ced
OR DEN
Chaincode Spec
read Order
read Batch
read Vote
read FileStub
read Stock
read Food
read SsiSmartContract
ĠCreate Member
ĠCreate Proposal
ĠCreate Approval
ĠCreate Partner
ĠCreate ProductContract
pp lications
ule nt
data base
har rah
User Obj
De Le
Ġtype Exam
ĠCar Asset
ĠCar zkp
sp am
ir urgija
Ġcurrent Data
Ġerror Details
issuer Type
issuer equest
([ ]));
Ex ports
Ex ception
Ġal ternateTxContextId
'] ]
net herlands
RE JEC
RE ST
Ġun secure
Ġun approve
Ġredeem er
Ġ5 0000
med iate
med ium
Ġbuy OrderId
Ġbuy OrSell
Ġrecord Data
DE ifX
Ġdrug DataFromAddDrugBuffer
Ġdrug information
100 002
SE NT
ĠqueryAll Values
ĠqueryAll Candidates
ĠqueryAll Productions
ĠqueryAll Consumptions
Ch oudhar
Sh ortTxid
Ġper mit
20 8
init LM
some EP
chaincode ID
Transaction ID
Ġissue AsBytes
Pag ar
Ġfrom Email
ĠAsset List
ĠP P
ĠP ass
ĠP Record
ĠP ublicKey
ĠP atent
ĠP HOSPHATE
ĠP laced
Ġ_ .
ine Org
Ord erCommons
est s
Ġon nx
--- ");
transfer Detail
transfer toBytes
proto Props
ĠgetHistoryFor Patient
ĠgetHistoryFor DigitalAsset
ĠgetHistoryFor Person
ann er
ann ualLeave
ĠF reedom
ĠF SM
ĠF ix
ĠF ROM
drug DetailsBuffer
drug DataFromAddDrugBuffer
drug CompositeObject
drug regRequest
ress ure
add Shipment
add Coffee
add Vehicle
pharm acies
Ġwork IDcheck
Ġad haar
TE REST
result Value
Ġ<--> ,
ĠRe funded
allo cated
shipment CompositeKeyID
shipment DetailsBuffer
record er
my Chaincode
Pass port
count AsBytes
count ries
Ġbuffer Car
22 9
file AsBytes
atur al
buy OrSell
0000 9
ang al
ang ana
Org Buffer
ĠPaper Contract
cars ByDealers
check Balance
Ġmy code
comp letionDate
Ġadd Coffee
Ġadd Vehicle
Ġadd ApprovedModifier
Ġadd PendingModification
Ġtotal Balance
Ġtotal CallCharges
Ġtotal Stored
reject New
otar y
Ġproduct Order
Ġproduct Status
Ġproduct DrugID
ption Id
uc ion
Ġpatient Index
Ġpatient Score
Ġpatient AccessCompositeKey
Request er
Request Date
Request Instance
ach ed
property Utils
Ġrequest Transfer
Ġrequest Wrapper
Ġan alyt
Ġg d
Ġg ailfield
01 2345
im um
Ġnum Projects
Ġnum Proj
MA kGA
MA XCONTRACTORS
Ġbatch JSON
Ġbatch no
patient AccessCompositeKey
02 4
Ġhistory Value
Ġbuyer DetailJSON
Ġbuyer PurchaseBuffer
AC Key
AC ME
the Meta
the EP
the StartKey
the EndKey
Ġupdated Drug
Ġupdated DrugBuffer
Ġupdated PropertyKey
uid or
Ġhandle Init
Ġhandle Transaction
Ġseller DetailJSON
Ġpurchase Car
Trans porterCRN
Ġproperty AsBytes
Ġshould n
Code At
Un available
store ID
":" ","
Ġfab Date
request Wrapper
request DrugKey
Ġcall End
seller Buffer
seller ResponseRange
Ġlist eners
call Type
call Count
call Detail
call Charges
TI ME
TI LI
TI zMzE
TI VITY
Ġshipment CompositeKeyID
Ġshipment CompanyObj
Ġshipment DetailsBuffer
ip met
Ġas Bytes
ĠD uration
ĠD icom
ĠD ividend
ĠD istrib
ĠD elhi
buyer ResponseRange
buyer PurchaseBuffer
buyer Adhar
Ġaccount Quantity
Ġaccount Question
Ġcheck User
Ġcheck AssetExist
itle ments
Ġstatus Int
CA NDIDA
Ġall data
Ġall RawData
Ġall RoyaltyFee
11 8
11 9
TA TE
TA vJJ
commercialpaper list
ĠT ot
ĠT YPE
ĠGet QueryResult
ĠGet Metadata
ĠGet HistoryForKey
ĠGet ting
Ġregister Patient
Ġregister Doctor
metadata Buffer
process Request
Redeem Time
__ ')
batch Exists
Ġĉĉĉĉĉ ĠĠ
com s
com ingOwner
ra j
account State
word List
Token izer
vehicle Trust
IN VALID
expected Date
wr itable
path Check
op B
op ian
Ġfund rais
Ġdate Arr
Ġset Value
ĠN har
ĠN atural
IS ZJub
My Word
ĠR etail
ĠR edmond
part Id
Le gal
updated Drug
updated Logistic
updated CarInfo
}` ),
min imum
10 7
cert Contract
cert WithLongDNs
sub jobID
sub scribe
ink type
generate BuyerCompanyID
generate SellerCompanyID
generate POID
Batch es
12 75
12 97
12 74
state Key
state list
ĠValid ated
Ġaccess Time
Ġwallet Id
Ġitem Number
Ġitem id
Ġitem ToTransfer
Ġent ries
Ġent itlements
collection Events
ca h
Ġcandidate State
po Id
po Buf
ierarch ical
PE D
ĠG LN
Path Json
ĠUser AsBytes
Ġcert WithAttrs
Ġcert WithLongDNs
Travel ForAll
New Rule
34 9
emp loye
candidate State
ant erior
Ġcp u
Ġapp prove
wallet str
ĠL ab
ĠL ifecycleContract
TY KL
last Updated
EC K
Ġreject New
Ġreject Candidate
Ġview EHR
56 4
56 78
56 38
zz z
BA SE
Ġpath Check
_' +
theChannelID aTX
theChannelID another
Ġpo List
Ġpo Obj
Ġpo Buf
Ġpo CompositeKeys
EX AMPLE
Patient ID
Patient Files
Con nection
inst ructions
acc esst
gh dB
IP TION
IP Rw
Ġschema AsBytes
Ġschema Version
'}, {
fg Place
lock Tick
ĠH TTP
Check upDate
Ġservice Key
DA mBggqAwQFBgcIA
Buyer Object
Ġfin anceCos
Ġfin dOne
Ġtransporter Identity
Ġaadhar AsBytes
Ġaadhar Card
Ġproject Pledges
Ġsender Acc
Ġexisting Po
time Stamp
voter ID
Ġcop y
token List
Ġvehicle Number
default Event
STA MP
Ġuse PointsTransactionsKey
Ġuse Defaults
Ġinvoice DateTime
Access List
eal AsBytes
}) -((
olic ies
ĠSh ouldn
ĠMy SmartContract
]) +
ĠAd min
Ġgenerate CompanyID
Ġgenerate POID
Ġdoctor Id
Ġsell OrderId
End ing
End Date
Ġtime Arr
Ġtime UntilBeginTravel
orm cert
Ġfile Type
Ġtemp OwnerID
Ġtemp BidID
tag s
Plate NumberRequest
Ġregistered Msg
land Owner
Ġdec Text
Ġdec Cert
ĠDrug Contract
Ġcount AsBytes
Ġval To
Ġval From
30 7
Ġallowed Choices
Student Number
ĠtransporterCRN ResponseRange
PO Object
Ġput CompositeKey
Ġput Balance
Ġput Message
Ġlisting State
Ġlisting Key
Node ID
Num Projects
'} )));
'} }});
Not Available
save Project
Ġup Owner
transporter Details
09 4
09 060
Ġle aves
48 25
Total Amount
manufacturer Found
place PatientAccessCompositeKey
Ġbid ding
PRO GRESS
getPrivateData QueryResult
Ġtxid s
pay ee
sender Acc
provider ID
provider Update
Ġmanufacturer Org
Ġmanufacturer CompanyID
Ġmanufacturer CompKey
Ġverify Seller
Ġverify Certificate
Ġverify BuyerOrRetailer
Ġidentity JSON
Ġidentity Id
identity Results
identity Service
97 7
mod FileName
Ġhash AsBytes
Ġhash File
Ġhash ToVerify
schema Version
Ġsave Class
Ġsave ShortTxid
ĠProduct o
ĠProduct Type
Ġreceiver Acc
13 99
DV X
Ġcommodity Bytes
approved Property
18 0
issue DateTime
ĠJ abalpur
zzzz zzz
course list
ident Info
MB MG
MB va
retailer Org
Ballot Buffer
verify Drug
verify Request
28 8
28 20
33 3
ĠO bservers
ĠO ccup
Ġsupplier AsBytes
ide nce
ĠU int
ĠU rl
ĠU TILI
ĠSmart Context
Ġsend VoteObj
Ġbuffered Buyer
Ġbuffered Observer
ĠLog ging
SG RM
Ġvote Token
Do e
Do g
HO YZ
ĠSu per
ruct ure
Vote Count
\" /);
Ġemr Number
wer Info
Cert net
Cert Exists
Ġarray List
Ġjob IDcheck
emr Key
quotation JSON
quotation Provided
Ġhospital Id
Ġhospital Data
Ġold Asset
Ġold count
enc a
enc Text
Pay Event
AP uEq
validate Data
Ġvalidate Cert
Ġapprove Payment
available Token
vote Exists
ĠsellerCRN ResponseRange
Return FactList
Rate Event
Ġsubmit Cupping
05 2
Iz MTI
ĠComp lete
ĠComp onents
ĠComm onChaincode
Ġstudent ID
Ġrequester AsBytes
Ġstatic TransactionAsJSON
Smart Legal
su aDiem
Or topedija
Ġretailer Org
Ġretailer Company
Ġretailer Details
Ġarr String
Ġarr Key
Ġarr Buffer
ighest Bid
Sub scriber
stock Exists
hash ToVerify
36 0
num Projects
Users Contract
26 8
76 03
Policy Exists
Policy Request
jA eFw
jA fBgNVH
wC Jb
Trade Event
License No
logistic sAsBytes
Ġreport ingAgency
transporterCRN Found
PL R
PRE SCR
doc ID
doc Count
doc Numer
Ġprovider Json
STATE MENT
STATE IDS
Ġdebtor Exists
AT mB
encrypt ed
sv TT
ous es
Ġlicense ID
Ġlicense No
Ġproposal s
ĠgetAll EHR
match ing
ĠSt ellar
49 3
Ġ'' };
submit Cupping
ĠSeller Info
Ġ9 00000
ĠMap ping
yc yI
ĠUpdate Enterance
rs a
report ingAgency
Ġlot Count
queryBy Status
prop Value
prop RegRequestKey
MI IB
MI Gq
AME TER
Ġk olen
Ġmanufact urers
Miss ions
58 7
58 8
Ġeslabon Genesis
KEY S
Ġus age
Ġrule Number
Ss Ei
Ġtrade Price
ĠRegnet RegistrarContract
ĠDN s
PER ATOR
edAsset Base
za qG
Ġac ronym
Inter medi
returned CompanyName
returned CompanyCRN
Pending s
ĠpublicKey Hex
Ġlogistics ID
document Data
sellerCRN Found
ĠPharmanet Context
Some Method
bm lsc
Ġquotation Buffer
delivery AsBtyes
Logs Contract
Logs Exists
finish Time
ĠK ing
Ġpre fKey
Ġpre fAsBytes
Ġpallet JSON
Ġpolicy Key
Ġpolicy Parsed
Ġten sor
Ġplace PatientAccessCompositeKey
ĠchangeCar Color
ĠchangeCar Make
requester AsBytes
Person alDataCategory
Raw Tx
EG zAZ
poll Key
trade Record
47 4
ĠI lic
ĠI mage
trader Bytes
trader Data
Ġjason Object
IC T
Ġshipper s
ĠPO List
TRANS IT
Right Holder
pag edQrPayload
parsed PurchaseOrder
Offerta AsBytes
Offerta ID
MQ Zm
Ġresource Key
Ġdi ary
38 26
Acc out
Land Commission
host Id
man ame
Ġpatent s
Ġpatent Id
Ġpatent Number
ĠBuyer List
output Data
Ġcancel led
QQ aeyJh
house Number
Ġdoc Number
Delivery FactList
Delivery FactObject
Ġincome AsBytes
arr String
Ġunit JSON
Ġunit OnMarket
ĠTr ader
ĠTr anxData
Ġsubject Bytes
Ġmain Exchange
ĠassetC redentials
Ġreferral Note
Ġreferral Reason
Ġreferral Priority
Ġsim sForCSP
Transport ed
Transport ador
retailerCRN FoundForComparision
67 78
Ġunique Hash
purchaseOrder Key
purchaseOrder Buffer
Bill s
OU FZ
Sim Event
pallet JSON
pallet SsccKey
åĪ Ĩ
Ġreferred ByUserID
Ig Qpe
PAR AMETER
proposal s
ĠbuyOrder PlaceTime
Ġenter ed
Ġleave AsBytes
Ġleave Type
food Exists
tra Courses
agent Number
Ġcaller MspId
ĠDo es
PendingA pplications
dis approve
Ġfarmer ID
Ġdon ativos
Ġdistributor Arr
Ġqueue Msg
Ġearn PointsTransactionsKey
filter ByLimit
Ġrawmaterial name
Ġrawmaterial quantity
Credit Note
}] ',
Ġlast Key
ĠEx ecute
Leave Balance
Leave Application
Ġpharmacy Exists
cup per
Ġ******** ************
ĠCertificate Contract
co very
reg ion
reg Ex
Review edApplications
ĠHas Location
ĠHas Duration
ĠHas Storage
ĠHas Processing
ĠHas Purpose
ĠHas Recipient
ĠHas DataSubject
ĠHas PersonalDataCategory
Netherlands Collection
Netherlands Access
Ġdiem TotNghiep
Ġloading AsBtyes
Ġloading IDcheck
123456 78
Nhb DAmBggqAwQFBgcIA
Pre v
first graduate
Ġreg Ex
ĠdrugDetails Buffer
Spain Collection
Spain Access
37 3
IT DM
Ġpres erve
ĠgetUser Data
ĠPerson Contract
CB DAMBgNVHRMBAf
getDrug Key
Ġest ablished
Ġest ablishedMsg
tracking s
Ġip fsHash
Ġip Destion
medical Leave
Ġmodified Timestamp
Work er
Work ID
Work ers
Ġ'[ {
setRe f
setRe ferred
observer Key
Commodity Class
ĠmedicalRecord Array
Out Event
US ro
cw yFD
ĠV enta
ĠWallet sContract
Trust Value
party Buffer
ĠShip any
>> >>
Block chain
ĠnewUser asset
ĠCustomer Name
ĠCustomer ID
Ġdataset Number
Ġdataset sAsBytes
Txn Id
Ġadmin Logged
companyId Key
SHIP PED
after Taste
yM SI
Ġ24 23
checkUser In
passport AsBytes
Ġfinal Status
Ġequipment Name
Ġprov iders
insurance List
ĠcreditNote Exists
La ufenberg
ĠSupplychain V
Ġpassport AsBytes
ĠGetState ByRange
ĠGetState Metadata
PP x
Spec s
manufact uring
Ġpla ced
ĠPart iesId
contact Id
ĠObserver List
Ġlaboratory Exists
ĠEvents Chaincode
Ġbad RegisteredMsg
Ġbad EstablishedMsg
amt Trans
ĠModel Util
ĠModel Manager
Ġgrant NetherlandsAccess
Ġgrant SpainAccess
ĠPharma Context
ĠPharma LedgerContract
carton Registered
ĠInspect orID
Option List
freq Asbytes
Ġ**** **
Ġclause Data
Ġnext Travel
Ġpacient Lbo
Ġajv Stub
unit Asbytes
unit ites
Insurance Request
Insurance ForNewNumber
Bike AsBytes
Uz pJ
}' `);
('******** ************
Storage List
ĠCon sumer
Ġanswer AsBytes
buyerCRNFound ForOwner
ĠTrans por
('/ ',
Ġoperation Attributes
ĠgetRe port
Ġ"\ ",
Ġblockchain AsBytes
Grad uate
xn info
Ġap pending
Ġnom Sol
char CodeAt
Ġsav ed
landPaper Key
ĠlandPaper Key
ache ffe
Permission DoctorId
FA iAIP
ĠY irg
ĠY aliy
Ġammend Data
ĠBuy ers
Ġexs it
newUser asset
drugs InShipment
ĠWaitingList Contract
Ġencoded Buffer
+" -"+
Cd Wv
Has AccessTo
OB C
ĠIdentity Contract
Ġowners List
Ġupload Cert
ĠCommunity List
ĠCommunity Contract
ĠCommunity Context
Tech nology
MIIC GjCCAcCgAwIBAg
Ġaccept Candidate
blockchain Number
gAwIBAgIU Hkm
CV S
ĠList Context
static Props
Ġtrip Buffer
Form ula
ĠFile PasswordStorage
DATA SET
zzzzzzzzzzzzzzzz zzzzzzz
coinConfig String
wHhcNMTcw Nj
BY o
dateOf Delivery
dateOf Distribution
dateOf Packaging
dateOf Birth
Ġprocessor Attributes
MedicalRecord Id
PI ltH
Ġjs rsasign
Ġcdr Id
Ġtot Balance
Ġtot Count
Ġdst BCOINJson
ĠMedic ation
ĠMedic ine
ĠMedic alRecord
withdraw Data
ĠProp Reg
Ġnetnode id
Ġcollect Owner
EAwID SAAwRQIh
Summary Results
WjB bMQswCQYDVQQGEwJVUzETMBEGA
XN du
XN lcn
bag Number
mG WKcg
pV nF
rX Kz
ĠTrade OrderList
Ġobserver Key
ĠĉĠĠĠĠ ĉĉ
Ġstored Assets
Ġstored AssetInfo
Ġinter est
Ġhealth Care
(`[ ${
Ġchang es
ĠPharnet Manufact
ĠPharnet Dist
Roaming Contract
medication Exists
TCCA Y
UEAx MQZm
Ġaccepted Pacient
ĠImport PaperContract
87 3
ĠON LY
them GiangVien
them SinhVien
Ġregist erCont
Ġsc reenshot
ĠRemove Values
ĠallPartners Key
ĠWork AsBtyes
creditNote History
ĠbankAccount s
SubscriberSim Event
audit ors
åħ ¬
Ġprint j
Channel Id
medicalRecord ID
Ġactual Result
HIS TAMINE
Qr pVnF
category Name
ĠUn iversity
consumption Id
Ġoraclize QueryResult
ĠcallDuration Minutes
ĠTopic s
ĠreferredTo Email
ĠreferredTo Contact
ĠreferredTo LocalID
ĠreferredTo UserID
Pla nt
ohn son
Ġca usa
ĠApp lication
Ġshare Number
SO MET
Vaccination s
\(\ )
ĠDelete User
Ġbc rypt
Ġmedical Leave
ĠdeliveryPlan Id
åĪĿ åĬłå·¥
iGuard Contract
Js wCgYIKoZIzj
TB Rk
ĠIN IT
proyect AsBytes
Ġann ualLeave
Ġann ulations
ĠGlobal Finance
RawMaterial Name
RawMaterial Quantity
RawMaterial Used
UdD gQW
ĠImportPaper Context
MnemonicWord Key
ĠOffer Asset
ĠEnc FabCar
Ġframe Key
Ġfrequency InText
endor sed
Ġfunding Type
laborator ies
ĠputPrivate NetherlandsCollection
ĠputPrivate SpainCollection
tenance Info
Bw KCk
xM TIzMzE
getIdentity Service
ĠSupplier Name
ĠPallet Group
ĠRead User
Ġapply Job
ĠHealthcare Contract
ĠHealthcare LogsContract
inspector Wallet
ĠJob SubAsBtyes
back Value
catalog AsBytes
curriculum Exists
vg OUFZ
vg IgQpe
isPenalizedBy Time
truyVan TotNghiep
Ġflag s
Ġbro ker
Ġincoming Asset
oldAccount Bytes
Ġtransports AsBytes
drugCompositeKeyForSearch Buffer
calls Arg
ĠschemaPath Check
encoded Buffer
returnedTransporter CompanyName
ĠKYC Number
ĠtransportForUpdateShipment CRN
ĠreferredBy Email
ĠreferredBy Contact
ĠreferredBy LocalID
ĠleaveBalance AsBytes
Gln String
templateData String
templateData Array
IAB Bd
ie sta
ĠTransport Contract
ĠTransport Context
Ġcant idad
getProduct RequestKey
employee id
Ġprocessing Plant
Funds InSuspense
ĠQR Proto
DISTR ICT
Eal RequestEvent
dHR ycyI
dHR yMSI
lc jFA
osh is
}"} `,
Ġticket AsBytes
Ġcons ult
isIn voiced
ched uled
estate List
ĠupdatedProperty Obj
ĠpropertyStatus Map
ĠdateOf Issuing
doOrder Transfer
doOrder Payout
Ġenrollment ID
Ġsubscriber s
Jn W
Jn Mi
MO VING
tp f
âĢ Ŀ
Ġes per
Ġes cal
convert Exception
Priv ilage
Ġ`{" ${
ĠDelivery Info
Ġmanufactured date
@@@@@@@@ @@@@@@@@
EAjAA MB
wQEAwI CBDAMBgNVHRMBAf
GY gY
HY L
can SpendAmount
driver AsBytes
gd UserName
kyc AsBytes
ĠRo yaltyManagement
Ġpoint ed
Ġev AsBytes
thi rdCall
Ġcontractor Username
ĠissueRequests At
:\/ \
:\/ \/
LEAVE APPLICATION
Ġcommit Id
MEDI CAL
transporterIterator ResponseRange
ĠassetKeys List
DOC TOR
ĠproyectTo Activate
ĠoverageFlag s
emissions List
Dig ialAsset
EL SE
Gdt Request
Gdt ForNewNumber
Su ave
World State
ticket AsBytes
Ġqu arter
ĠevaluationMeeting JSON
isA cknowledge
isA ceessByPatientAndPlace
ĠAmmend List
Proyect o
ĠchangeOrder Owner
(/\ [
ĠHealth Care
ĠUse Points
ĠUse PointsTransactionsInfo
Ġoutgoing Asset
Ġadditional Properties
UdIwQkMCKA IK
FV zZX
FZ JswCgYIKoZIzj
Je QS
Je CANT
jav ascript
less dullfn
pM cg
times Available
Ġmis match
ĠEarn Points
ĠEarn PointsTransactionsInfo
eyJh dHRyMSI
Ġestate Obj
ĠCreation Time
ĠCreation Date
Ġdr inkType
Ġdr inktype
Ġdat atransform
Ġdimension Name
Ġdimension Value
ĠgetMsg TxContextId
ĠcreateValue Disconnect
typeAnd AssetOwner
ĠdrugCompositeKeyForSearch Buffer
ĠPolicy Id
****** ");
transports AsBytes
506 004
ĠQueryState Next
ĠQueryState Close
1598 784
1598 0067
schemaPath Check
previous Owners
previous OwnerType
ĠDeAsx Contract
ĠDeAsx Context
ĠquotationJSON String
ĠreferralLocal PatientID
ĠreferralLocal NodeID
traverse History
Ġrawmaterialused name
Ġrawmaterialused quantity
ĠPHARMA NETORGS
ĠPHARMA NETROLES
ĠBooking AsBytes
nomSol IndexKey
zzzzzzzzzzzzzzzzzzzzzzzzzzzzzzzz zzzzzzzzzzzzzzzzzzzzzzz
Ġfiltered Results
ĠgetUnapprovedPayments BetweenTwoPeople
MDgwMzQyMDBa MB
MDgwMzQyMDBa Fw
NA TIVITY
Ġcatpro bs
ĠqueryWith Vaccination
config urable
Ġattend ance
illi seconds
ĠprivateData String
abcde fg
ATA iBgNV
Gt MIGq
bb Sq
hL XNlcn
jMQ po
ka Metro
ml jLWN
vY bbSq
Ġmd DecodedPayload
getC drCountUsing
getBy UserName
StateMetadata Result
Ġendor sed
emb ler
setIn voiced
Loading info
Ġlambda Old
ĠWasm Chaincode
Ġexpiry date
Labs Exists
Api Helpers
healthCare ID
packaging HouseID
OwnershipOfAsset Event
Bgcq hkjOPQIBBggqhkjOPQMBBwNCA
ĠqueryCredential sFor
Pl anet
QR wCJb
RU LE
WU JeCANT
æĸ ¤
uter Name
Ġdummy Transactions
Ġ201 8
ĠMed iGuardContract
myprivate key
ĠQueryAll Txn
RegRequest Obj
UEAwwW VXN
ĠapprovedUser Data
Ġteam name
WhcNMjcwNjI xMTIzMzE
ANT vza
Cn N
Dj JnW
Dir ty
Distrib uidor
Grant ed
NC b
URL s
categor ies
ele stia
war angal
ĠPrototype Contract
Ġcitizen Ship
('; ');
ĠnewPay Method
tel angana
Ġdeduct ible
ĠreadMyDrug Private
callDuration InSeconds
ĠDoc Management
INS IDE
ĠRFID batchtag
OverageFlag Event
iscovery Event
Regionaloffice Address
Ġlessee ID
BB TYKL
First Graduate
IRA IPRw
Micro Suave
Ph one
Par cel
VG wIh
frequency Table
milk Batch
pari harrah
eterm ineOrg
ĠgetCompany Details
Complexity FunctionExecuted
Prov iders
Propery Object
Ġattemp ts
ĠPut State
INV OKE
Ġyyy y
Ġdecod ing
preConsent Trial
ĠAPPRO VED
æİ¡ æĶ
!@ #
AF MAoGCCqGSM
Bb FZJswCgYIKoZIzj
BTE s
Csc oin
Dr jAfBgNVH
Dha kaMetro
Dark o
Epn PsJ
Ethi opian
Fic mljLWN
Fetch ing
GDA Wg
GzE ZMB
GRA NT
HRE EGzAZ
II ITDM
Jpe gOwner
JzY Nc
JXa XRo
JHVL hHK
KsF QrpVnF
Kard io
MZ ZPUn
Mant ri
Nit ro
NLS VQu
NYW NCb
NATION ALITY
NIM w
Ob Buffer
PNK hang
Rq Ss
Rzz FF
SME GDAWg
Vh gTw
VGVzd FVzZX
Vended or
Want ed
Xf JzYNc
Zlc jAeFw
aEndTime IndexKey
cru d
dz mu
dHash Bytes
dyg okFV
equ ipmet
eIN cB
fIW WUJeCANT
fUf vpGpro
fBT qBz
ho HOYZ
jNw vgOUFZ
nBH jpM
qME PLR
qaLyt BYo
rLV Byby
vBq LR
xNz A
ydi R
ãĢ ģ
éħ ¸é
Ġ98 052
Ġaad ar
ctJu z
Ġtth p
Ġconcate nated
ingPatient Bills
ssBP vgIgQpe
anonym ous
Respon ding
ĠnewInit Payment
ĠnewLe adTime
ĠnewShip Method
ĠnewMethod s
ĠnewTrade Term
ĠnewDis patchDate
ĠnewQual ifiedOperator
ĠoldOn wer
locale Compare
Ġconstru ction
Ġecontr Ã³
isPlace HasAccessTo
umbON NLSVQu
istiUnit AsBytes
ĠCHAIN CODE
InZhb DEifX
Ġfraud ulent
Ġtruy van
fromAr chive
OwnerRe lation
ĠassetDe leter
Tras fer
Ġexchang es
unreconciled Amount
ĠgetAmount Owed
ĠgetRequest Result
ĠInav lid
ĠSsiSmartContract Contract
returnPlan Id
ByOn wer
Ġwolesaler Distribute
createSs l
("===================================================================== ");
setPartial Filled
Ġutilsc lass
Processed Data
ĠchangeAccount Status
ĠchangeDevice Controller
ĠchangeBike Owner
DeLe PPx
REJEC TED
Choudhar y
ĠPublicKey Storage
ĠFix edAssetBase
Ġadhaar Number
ĠtotalStored Assets
Ġanalyt ics
theMeta Key
TIME STAMP
ĠDuration InDays
ĠDicom Contract
ĠDistrib ucion
CANDIDA TE
TAvJJ K
ISZJub sy
MyWord Processor
theChannelIDanother TX
ghdB bmlsc
ĠMySmartContract Contract
ĠdecCert ID
MBMG ByqGSM
MBva qaLytBYo
ĠOccup ation
ĠUTILI TY
SGRM MBvaqaLytBYo
APuEq WUp
IzMTI zMzE
SmartLegal Contract
PRESCR IPTION
svTT vBqLR
ĠgetAllEHR forActor
ĠStellar Sdk
Ġkolen a
SsEi FH
zaqG RqSs
Intermedi ary
ĠreferralPriority Flag
NhbDAmBggqAwQFBgcIA QQaeyJh
UzpJ DVX
ĠTranspor te
ĠYirg acheffe
ĠYaliy omoContract
CdWv OOP
MIICGjCCAcCgAwIBAg IRAIPRw
gAwIBAgIUHkm Y
wHhcNMTcwNj IzMTIzMzE
PIltH vYbbSq
EAwIDSAAwRQIh APuEqWUp
mGWKcg SGRMMBvaqaLytBYo
rXKz PIltHvYbbSq
ĠPharnetManufact Contract
ĠPharnetDist rContract
UEAxMQZm FicmljLWN
ĠregisterCont ent
ĠcallDurationMinutes Portion
SOMET HING
TBRk fIWWUJeCANT
UdDgQW BBTYKL
BwKCk MZZPUn
lcjFA b
GYgY XNdu
isAceessByPatientAndPlace Exist
UdIwQkMCKAIK fUfvpGpro
JeQS ctJuz
1598784 337
15980067 37
GtMIGq MA
hLXNlcn ZlcjAeFw
BgcqhkjOPQIBBggqhkjOPQMBBwNCA ATmB
UEAwwWVXN lcjFAb
ANTvza BwKCkMZZPUn
VGwIh jMQpo
pariharrah ul
preConsentTrial Id
æİ¡æĶ ¶
DrjAfBgNVH SMEGDAWg
EpnPsJ rM
GzEZMB cGA
HREEGzAZ ghdBbmlsc
JXaXRo QXR
VhgTw u
VGVzdFVzZX JXaXRoQXR
XfJzYNc if
dzmu A
dygokFV KW
hoHOYZ Q
isPlaceHasAccessTo PatientFiles
umbONNLSVQu EpnPsJrM
MIICGjCCAcCgAwIBAgIRAIPRw JHVLhHK
rXKzPIltHvYbbSq ISZJubsy
UEAxMQZmFicmljLWN hLXNlcnZlcjAeFw
TBRkfIWWUJeCANT UY
UdDgQWBBTYKL TAvJJK
UdIwQkMCKAIKfUfvpGpro H
ANTvzaBwKCkMZZPUn UwCgYIKoZIzj
DrjAfBgNVHSMEGDAWg BTEs
HREEGzAZghdBbmlsc y
! '
! )")
" )));
% ',
( (`
( <%=
) }::${
, [
. "});
1 20
2 0000
2 10
2 15
3 25
5 23
: ")
= ["
> ';
> "');
A h
A ry
A my
A BA
A cknowledge
B MI
B asic
B og
B LOCKCHAIN
C TOR
C argo
C losed
C ashTrade
D b
D i
D if
D ON
D am
D iploma
E Q
E k
E AR
E RR
E mission
E hr
E MP
E dTech
F y
F AB
G ender
H BA
H ighestOffer
I L
I Q
L READY
M S
M ak
M ultiple
M ilitary
N on
N vo
N AD
N omor
N otaryId
O VER
P D
P ublisher
P lay
P atin
R am
R etail
R ACE
S Q
S IS
S LA
S ched
T M
T yp
T reatment
T elco
U uid
V ar
V ta
W er
W illi
X r
Y ER
Y ES
Y tes
Y EAR
\ "}}
] ")
] ["
` };
a Balance
b d
b p
b in
b ed
b usiness
b yte
b ranch
b utos
b uff
c ost
c iphertext
c atpro
c veHdrstr
d le
d if
d out
d etermineOrg
e erId
e ach
e ncy
f b
f id
f name
f actor
f riendKey
g y
g rant
h h
h ra
h ome
h irurgija
i ari
k ing
k im
l am
l name
m ut
m ad
m sp
m anufactured
m ango
n ded
n ib
n Category
o le
o id
o Metrics
p ey
p id
p ty
p dc
s ch
s By
s ig
s la
s ure
s pen
s cho
s itration
t ub
t ake
u ery
v s
v ic
w inner
y sician
} #${
© į
« éĿ¢
° İ
å Ģ
å °İ
ç ©į
Ġ Res
Ġ Int
Ġ For
Ġ Peer
Ġ pen
Ġ 001
Ġ VALID
ħ åĢ
ķ «éĿ¢
ķ å°İ
ĠĠĠĠ ĉĉ
ĠĠĠĠ ĉĉĠĠĠĠĠĠĠĠčĊ
er ied
er eward
et y
ar c
ar ship
st ay
Ġc ur
Ġc have
Ġc lauses
Ġc urrStatus
in Objs
Ġ} ],
Ġa llo
Ġa Balance
Ġa bove
ct uation
Ġ' ***
Ġt iqu
ate Obj
Ġm id
Ġm ango
Ġm tub
me nded
ro file
if mp
if AsBytes
re ar
re fs
de jav
', },
ĠE al
ĠE missions
ĠE ither
ĠE kb
ue ments
get Value
get Payload
get Per
get Transactions
get Lease
get Book
get Community
get BuyRequest
get AccessControl
get DepositReturned
Ġnew UserKey
Ġnew Pharmacy
Ġnew Medications
urn out
sh ub
Ġo ur
Ġo verallRating
ame nte
pe ment
ol ist
ol arship
to Array
to MspId
Ġp rom
Ġp ri
Ġp olice
Ġp uchasedProducts
Ġp ressure
row ing
row Id
Ġ+ '.
Ġe g
JSON Serializer
is ing
is Confirmed
Key Modification
Key pairObject
ĠB C
ĠB ad
ist er
Ġres Array
Ġres TreeHash
query Payment
ĠC om
ĠC ashTrade
ĠC ircular
ch hra
ans ation
log ged
ad Pid
ĠA ir
ĠA LREADY
ĠA chhra
Ġf ai
Ġf ine
Ġd n
res Array
Ġre lative
Ġquery M
Ġquery Test
Ġquery Company
Ġquery Status
Ġquery Farmer
ment recon
Ġtr aver
pect ion
from Acc
from PEM
ed Results
ed To
ed te
ed From
od ist
ri ctions
ri butos
Ġs ig
Ġs qi
Ġs af
Ġb usiness
Ġarg uements
getState ment
Ġasset Tag
am s
Ġowner Bytes
Ġowner Wallet
ex porter
Re gist
Re pair
Re moved
Ġi m
Ġi Ballot
un ication
un ctuation
Ġto o
Ġto String
Ġto Record
Ġget X
Ġget Car
Ġget Ledger
Ġget Details
Ġget Student
Ġget Doctor
Ġget Full
Ġget Person
Ġget Quotation
Ġget Sla
Ġget OverallRating
Ġget ComplexityFunctionExecuted
Ġ1 20
Ġ1 25
car Name
key value
ent ic
') &&
ab out
il s
id Field
Ġ" <
omp son
Qu eried
Ġmake ACKey
Ġ0 1
Ġexist ed
ĠS a
ĠS p
ĠS er
ĠS OP
ĠS TATE
delete Entity
|| ${
Ġh qi
Ġh ierarchical
By Math
Ġdo Matching
all JSON
all Files
ve hicles
ve Header
asset Set
Ġend Lot
create Certificate
create Profile
create Dec
create MyPrivateAsset
create DrugKey
[...]
