{"<s>":0,"<pad>":1,"</s>":2,"<unk>":3,"<mask>":4,"!":5,"\"":6,"#":7,"$":8,"%":9,"&":10,"'":11,"(":12,")":13,"*":14,"+":15,",":16,"-":17,".":18,"/":19,"0":20,"1":21,"2":22,"3":23,"4":24,"5":25,"6":26,"7":27,"8":28,"9":29,":":30,";":31,"<":32,"=":33,">":34,"?":35,"@":36,"A":37,"B":38,"C":39,"D":40,"E":41,"F":42,"G":43,"H":44,"I":45,"J":46,"K":47,"L":48,"M":49,"N":50,"O":51,"P":52,"Q":53,"R":54,"S":55,"T":56,"U":57,"V":58,"W":59,"X":60,"Y":61,"Z":62,"[":63,"\\":64,"]":65,"^":66,"_":67,"`":68,"a":69,"b":70,"c":71,"d":72,"e":73,"f":74,"g":75,"h":76,"i":77,"j":78,"k":79,"l":80,"m":81,"n":82,"o":83,"p":84,"q":85,"r":86,"s":87,"t":88,"u":89,"v":90,"w":91,"x":92,"y":93,"z":94,"{":95,"|":96,"}":97,"~":98,"¡":99,"¢":100,"£":101,"¤":102,"¥":103,"¦":104,"§":105,"¨":106,"©":107,"ª":108,"«":109,"¬":110,"®":111,"¯":112,"°":113,"±":114,"²":115,"³":116,"´":117,"µ":118,"¶":119,"·":120,"¸":121,"¹":122,"º":123,"»":124,"¼":125,"½":126,"¾":127,"¿":128,"Ã":129,"Ð":130,"Ñ":131,"â":132,"ã":133,"ä":134,"å":135,"æ":136,"ç":137,"è":138,"é":139,"ĉ":140,"Ċ":141,"č":142,"Ġ":143,"Ģ":144,"ģ":145,"Ĥ":146,"ĥ":147,"Ħ":148,"ħ":149,"Ĩ":150,"ĩ":151,"Ī":152,"ī":153,"Ĭ":154,"ĭ":155,"Į":156,"į":157,"İ":158,"ı":159,"Ĳ":160,"ĳ":161,"Ĵ":162,"ĵ":163,"Ķ":164,"ķ":165,"ĸ":166,"Ĺ":167,"ĺ":168,"Ļ":169,"ļ":170,"Ľ":171,"ľ":172,"Ŀ":173,"ŀ":174,"Ł":175,"ł":176,"Ń":177,"ĠĠ":178,"čĊ":179,"ĠčĊ":180,"ĠĠĠĠ":181,"ĠĠĠ":182,"er":183,"==":184,"et":185,");":186,"ĠĠĠĠĠĠĠ":187,"on":188,"ar":189,"st":190,"Ġ=":191,"Ġc":192,"in":193,"or":194,"es":195,"at":196,"Ġ{":197,"le":198,"Ġ}":199,"Ġa":200,"ĠĠĠĠĠĠĠĠĠĠĠ":201,"al":202,"====":203,"it":204,"let":205,"('":206,"ĠĠĠĠĠ":207,"ct":208,"Ġ'":209,"Ġt":210,"Ġr":211,"Ġcon":212,"St":213,"Ġn":214,"ing":215,"ub":216,"Ġlet":217,"arg":218,"ate":219,"stub":220,"Ġm":221,"me":222,"Ġ(":223,"ro":224,"nt":225,"val":226,"if":227,"');":228,"ring":229,"ss":230,"se":231,"args":232,"re":233,"Ġth":234,"wa":235,"de":236,"an":237,"',":238,"wait":239,"Ġawait":240,"ur":241,"ew":242,"so":243,"ror":244,"ĠE":245,"nc":246,"ue":247,"ĠĠĠĠĠĠĠĠĠĠĠĠĠĠĠ":248,"sole":249,"Ġconsole":250,"Ġret":251,"arb":252,"Res":253,"get":254,"ĠĠĠĠčĊ":255,"Ġnew":256,"ul":257,"Ġif":258,"urn":259,"arble":260,"sh":261,"ey":262,"qu":263,"Ġo":264,"ame":265,"pe":266,"));":267,"ĠĠčĊ":268,"String":269,"lo":270,"wn":271,"========":272,"fer":273,"Ġĉ":274,"ol":275,"Ġargs":276,"per":277,"fo":278,"to":279,"Ġconst":280,"ion":281,"rror":282,"Ġreturn":283,"State":284,"wner":285,"Ġp":286,"ult":287,"ut":288,"ery":289,"sy":290,"nd":291,"sync":292,"row":293,"ON":294,"ĠError":295,"Ġ+":296,"Ġthrow":297,"Ġe":298,"Ġstub":299,"Ġasync":300,"yt":301,"ytes":302,"value":303,"info":304,"SON":305,"JSON":306,"is":307,"sset":308,"son":309,"Key":310,"um":311,"aper":312,"];":313,"ĠB":314,"ber":315,"umber":316,"ist":317,"json":318,"tr":319,"ults":320,"();":321,"olor":322,"ode":323,"toString":324,"shi":325,"Ġres":326,"query":327,"ĠC":328,"jsonRes":329,"shim":330,"uf":331,"Ġof":332,"rom":333,"th":334,"In":335,"uffer":336,"Name":337,"ch":338,"ans":339,"log":340,"act":341,"ad":342,"ĠA":343,"Ġf":344,"Ġmarble":345,"Ġd":346,"res":347,"err":348,"Ġre":349,"mp":350,"Ġquery":351,"Ġshim":352,"ng":353,"ment":354,"string":355,"Ġtr":356,"ot":357,"ass":358,"Ġthis":359,"pect":360,"xpect":361,"Ġĉĉ":362,"from":363,"As":364,"ed":365,"od":366,"ngth":367,"length":368,"ke":369,"()":370,"ri":371,"ge":372,"Bytes":373,"Ġ!":374,"ha":375,"arse":376,"ĠjsonRes":377,"tx":378,"Owner":379,"ĠBuffer":380,"Ġs":381,"ĠĠĠĠĠĠĠĠčĊ":382,"ify":383,"Results":384,"ation":385,"stringify":386,"ument":387,"Ġb":388,"===":389,"Ġarg":390,"Ġ(!":391,"Ġargument":392,"error":393,"getState":394,"lass":395,"Ġctx":396,"Ġcolor":397,"code":398,"Ġmet":399,"tract":400,"ator":401,"##":402,"hod":403,"Ġasset":404,"Ġcar":405,"am":406,"Ġ});":407,"reate":408,"ord":409,"ret":410,"ai":411,"AsBytes":412,"ce":413,"ll":414,"ata":415,"Ġowner":416,"bytes":417,"Ġst":418,"ex":419,"put":420,"ctx":421,"erator":422,"ĠJSON":423,"ou":424,"ype":425,"Re":426,"xpecting":427,"ansfer":428,"marble":429,"putState":430,"incode":431,"Id":432,"ire":433,"ount":434,"Ġin":435,"atch":436,"quire":437,"Ġmethod":438,"Ġrequire":439,"Ġarguments":440,"aram":441,"ction":442,"oc":443,"Number":444,"Ġi":445,"Tr":446,"Ġnumber":447,"Ġex":448,"ontract":449,"haincode":450,"ĠĠĠĠĠĠĠĠĠ":451,"orre":452,"un":453,"Ġnot":454,"orrect":455,"art":456,"());":457,"Inc":458,"Ġto":459,"Incorrect":460,"pon":461,"ess":462,"cc":463,"ĠExpecting":464,"Ġpaper":465,"ponse":466,"Ġget":467,"Ġ1":468,"('========":469,"ID":470,"car":471,"ext":472,"ake":473,"valbytes":474,"';":475,"ange":476,"key":477,"Stub":478,"ent":479,"Class":480,"Ġit":481,"Ġname":482,"')":483,"ĠthisClass":484,"Ġ========":485,"ĠIn":486,"Ġcatch":487,"ĠĠĠĠĠĠĠĠĠĠĠĠĠĠĠĠĠĠĠ":488,"Ġ[":489,"===');":490,"cord":491,"]);":492,"paper":493,"Ġ=>":494,"us":495,"ab":496,"iz":497,"led":498,"il":499,"odel":500,"Ġ:":501,"};":502,"llResults":503,"unction":504,"Ġtry":505,"Ġ<":506,"id":507,"Ġ\"":508,"omp":509,"parse":510,"Qu":511,"ial":512,"Query":513,"ccess":514,"00":515,"Ġmodel":516,"ĠjsonResp":517,"Ġmake":518,"Transfer":519,"cn":520,"Ġ===========');":521,"lete":522,"name":523,"Ġ{};":524,"li":525,"ger":526,"ay":527,"oul":528,"ould":529,"ize":530,"Paper":531,"should":532,"Ġbe":533,"uccess":534,"mount":535,"Marble":536,"util":537,"=====":538,"Asset":539,"Ġ!=":540,"--":541,"Ġ0":542,"bj":543,"Val":544,"ect":545,"ty":546,"Ġ()":547,"ers":548,"Ġexist":549,"('=============":550,"Ġparse":551,"Int":552,"dex":553,"Range":554,"load":555,"Record":556,"om":557,"ĠS":558,"Type":559,"It":560,"({":561,"delete":562,"ust":563,"ĠqueryString":564,"ĠparseInt":565,"return":566,"ĠChaincode":567,"fcn":568,"pend":569,"ont":570,"||":571,"Ġ||":572,"].":573,"Ġh":574,"AR":575,"utf":576,"and":577,"By":578,"success":579,"ush":580,"ite":581,"Ġfor":582,"List":583,"push":584,"Ġcars":585,"Ġw":586,"For":587,"And":588,"os":589,"ayload":590,"['":591,"color":592,"ime":593,"Ġdo":594,"all":595,"Iterator":596,"ase":597,"arams":598,"vo":599,"Value":600,"ve":601,"Ġamount":602,"Ġdoes":603,"ontext":604,"ĠBval":605,"asset":606,"Ġ};":607,"onation":608,"'));":609,"ory":610,"Comp":611,"Ġĉĉĉ":612,"Ġend":613,"Ġ!==":614,"ance":615,"())":616,")));":617,"ailed":618,"Ġmust":619,"Car":620,"istory":621,"ĠInit":622,"Function":623,"ssu":624,"ock":625,"ssuer":626,"aramet":627,"ity":628,"AndP":629,"create":630,"ĠmarbleName":631,"bject":632,"ru":633,"arameters":634,"Ġresults":635,"voke":636,"Ġthe":637,"ric":638,"To":639,"ĠnewOwner":640,"FunctionAndP":641,"FunctionAndParameters":642,"em":643,"abric":644,"inon":645,"getFunctionAndParameters":646,"Ġiterator":647,"fabric":648,"mpty":649,"ĠAval":650,"osite":651,"ith":652,"up":653,").":654,"Ġv":655,"Failed":656,"ositeKey":657,"les":658,"und":659,"Contract":660,"arbles":661,"te":662,"sta":663,"user":664,"Ġ},":665,"con":666,"CompositeKey":667,"pro":668,"Ġcreate":669,"ctor":670,"Ġ2":671,"action":672,"Ġclass":673,"old":674,"of":675,"ansaction":676,"omm":677,"History":678,"ĠĠĠĠĠĠĠĠ":679,"${":680,"adata":681,"Aval":682,"Time":683,"jsonResp":684,"start":685,"(\"":686,"be":687,"Ġvalue":688,"ĠallResults":689,"results":690,"Ġ===":691,"llo":692,"Ġstart":693,"AllResults":694,"Ġ%":695,"Context":696,"('-":697,"params":698,"Date":699,"ile":700,"ĠpaperNumber":701,"Marbles":702,"Ġhold":703,"marbleName":704,"Ġsinon":705,"ap":706,"ic":707,"ok":708,"type":709,"ocType":710,"no":711,"set":712,"'];":713,"Ġis":714,"\":":715,"Ġstate":716,"date":717,"ĠAvalbytes":718,"Lo":719,"####":720,"use":721,"ert":722,"Buffer":723,"Ġresponse":724,"erC":725,"qual":726,"TAR":727,"new":728,"TART":729,"Result":730,"ail":731,"ĠSTART":732,"],":733,"Ġexpect":734,"urre":735,"equal":736,"ĠendKey":737,"cial":738,"urrent":739,"ommer":740,"ommercial":741,"for":742,"Ġ4":743,"owner":744,"lient":745,"number":746,"(`":747,"lse":748,"Index":749,"age":750,"response":751,"Ġfo":752,"Ġtransfer":753,"Ġ&":754,"cri":755,"Ġ&&":756,"Ġfound":757,"ND":758,"IndexKey":759,"Color":760,"Ġelse":761,"rug":762,"Bval":763,"en":764,"Led":765,"Ledger":766,"ĠcarAsBytes":767,"Ġch":768,"`);":769,"QueryResult":770,"ĠEND":771,"Ġkey":772,"ort":773,"rict":774,"Object":775,"Ġstrict":776,"NameIndexKey":777,"ĠContract":778,"alse":779,"ommercialPaper":780,"ĠCommercialPaper":781,"Ġ-":782,"Ġ3":783,"Asbytes":784,"escri":785,"Response":786,"dent":787,"ck":788,"Ġinit":789,"red":790,"ByRange":791,"Ġissuer":792,"but":793,"contract":794,"Ġvar":795,"Ġpro":796,"order":797,"Ġdata":798,"rg":799,"Ġ<=":800,"port":801,"carNumber":802,"mat":803,"update":804,"ĠĠĠĠĠĠčĊ":805,"Data":806,"./":807,"){":808,"next":809,"()));":810,"Avalbytes":811,"Ġdescri":812,"Ġstring":813,":'":814,"Ġfunction":815,"Ġutil":816,"Ġwh":817,"tri":818,"ark":819,"org":820,"lloc":821,"docType":822,"With":823,"ToTransfer":824,"Ġmock":825,"atus":826,"ig":827,"Ġfalse":828,"allResults":829,"responseRange":830,"queryString":831,"tribut":832,"Ġdelete":833,"('####":834,"Ġ[];":835,"met":836,"returns":837,"Ġcontract":838,"bo":839,"dee":840,"Ġdescribe":841,"Ġpayload":842,"ient":843,"format":844,"Ġuser":845,"Low":846,"uy":847,"ĠassetTransfer":848,"alance":849,"toLow":850,"erCase":851,"toLowerCase":852,"as":853,"true":854,"\",":855,"mark":856,"Ġempty":857,"ser":858,"Pro":859,"carAsBytes":860,"edMarble":861,"('#####":862,"ĠmarbleJSON":863,"deleteState":864,"const":865,"okmark":866,"Ġ${":867,"lector":868,"Ġat":869,"typeof":870,"Ġmetadata":871,"Ġdonation":872,"DateTime":873,"ĠInvoke":874,"stant":875,"one":876,"Ġchange":877,"ĠRecord":878,"selector":879,"Ġde":880,"ĠĉčĊ":881,"tributes":882,"paperList":883,"QueryString":884,"el":885,"alled":886,"Ad":887,"SP":888,"transaction":889,"Ġ',":890,"Ġcc":891,"any":892,"Spend":893,"================":894,"Ġspend":895,"Ġjson":896,"iate":897,"createCompositeKey":898,"la":899,"end":900,"Ġattributes":901,"getAllResults":902,"Ġwhile":903,"sed":904,"stance":905,"Th":906,"OR":907,"payload":908,"stantiate":909,"Error":910,"ssue":911,"Ġnon":912,"').":913,"vi":914,"dentity":915,"empty":916,"HistoryFor":917,"rd":918,"Chaincode":919,"dexName":920,"ĠĠĠĠĠĠĠĠĠĠĠĠĠ":921,"read":922,"stamp":923,"method":924,"Ġchaincode":925,"\");":926,"que":927,"Ġexte":928,"Instance":929,"CarOwner":930,"Ġtrue":931,"ĠCreate":932,"Ġextend":933,"ork":934,"Ġextends":935,"Arg":936,"vent":937,"pp":938,"colorNameIndexKey":939,"gist":940,"ForQueryString":941,"QueryResultForQueryString":942,"ĠchangeCarOwner":943,"ule":944,"ler":945,"teger":946,"andler":947,"Ġinteger":948,"Tx":949,"CAR":950,"Args":951,"Ġid":952,"getStateByRange":953,"lection":954,"ialize":955,"Size":956,"du":957,"Ġholder":958,"quest":959,"mock":960,"Identity":961,"nce":962,"data":963,"))":964,"deem":965,"Expecting":966,"Ġholding":967,"perty":968,"called":969,"ag":970,"ĠqueryResults":971,"har":972,"User":973,"All":974,"ĠĠĠĠĠĠĠĠĠĠĠĠĠĠĠĠĠĠĠĠĠĠĠ":975,"status":976,"Bvalbytes":977,"ĠLedger":978,"De":979,"ĠstartKey":980,"lose":981,"Ġtype":982,"await":983,"ĠCar":984,"startKey":985,"ĠInitialize":986,"().":987,"Donation":988,"lientIdentity":989,"ookmark":990,"ĠresultsIterator":991,"done":992,"aised":993,"raised":994,"On":995,"raisedValue":996,"Ġobject":997,"sp":998,"transactionContext":999,"ir":1000,"Ġcurrent":1001,"odule":1002,"Met":1003,"async":1004,"99":1005,"duct":1006,"api":1007,"mple":1008,"close":1009,"ject":1010,"js":1011,"Ġha":1012,"pt":1013,"Ġerror":1014,"iv":1015,"issuer":1016,"From":1017,"ists":1018,"Ġtrans":1019,"lent":1020,"Ġsize":1021,"----":1022,"ports":1023,"ĠgetAllResults":1024,"marbleAsBytes":1025,"([":1026,"Ex":1027,"ly":1028,"ready":1029,"Ġresult":1030,"Ġal":1031,"lenth":1032,"ĠobjectType":1033,"assert":1034,"ppraisedValue":1035,"Ġmodule":1036,"']":1037,"exports":1038,"Pe":1039,"resultsIterator":1040,"box":1041,"sg":1042,"andbox":1043,":%":1044,"Of":1045,"net":1046,"Alloc":1047,"Ġalready":1048,"Ġand":1049,"Ġorder":1050,"atient":1051,"RE":1052,"ĠĉĉčĊ":1053,"Metadata":1054,"Ġexists":1055,"ĠID":1056,"Init":1057,"Base":1058,"Pri":1059,"Ġparams":1060,"able":1061,"dOn":1062,"spend":1063,"ructor":1064,"BasedOn":1065,"onor":1066,"BasedOnColor":1067,"MarblesBasedOnColor":1068,"CO":1069,"Ġun":1070,"deep":1071,"ĠtransferMarblesBasedOnColor":1072,"ompany":1073,"Ġredeem":1074,"ĠtransferMarble":1075,"edMarbleName":1076,"resol":1077,"Call":1078,"Ġsandbox":1079,"('#":1080,"(`${":1081,"Ġĉĉĉĉ":1082,"('./":1083,"eck":1084,"ĠmarbleToTransfer":1085,"Ġwith":1086,"Amount":1087,"iterator":1088,"ceiv":1089,"Ġ5":1090,"RN":1091,"med":1092,"Obj":1093,"cha":1094,"ination":1095,"ĠcarNumber":1096,"Ġbuy":1097,"Ġse":1098,"essage":1099,"pment":1100,"Ġrecord":1101,"ller":1102,"DE":1103,"ded":1104,"Ġdrug":1105,"100":1106,"SE":1107,"ĠqueryAll":1108,"unc":1109,"Ch":1110,"++":1111,"list":1112,"Allocation":1113,"Sh":1114,"ĠcurrentOwner":1115,"Ġper":1116,"20":1117,"Ġfcn":1118,"valAsbytes":1119,"ĠĠĠĠĠĠĠĠĠĠĠĠčĊ":1120,"The":1121,"init":1122,"NG":1123,"Info":1124,"Ġsu":1125,"logger":1126,"Ġconstructor":1127,"some":1128,"Invoke":1129,"Balance":1130,"donation":1131,"chaincode":1132,"RR":1133,"Transaction":1134,"Ġissue":1135,"Get":1136,"Ġreturned":1137,"Pag":1138,"irst":1139,"RROR":1140,"WithPag":1141,"WithPagination":1142,"setOwner":1143,"make":1144,"Create":1145,"},":1146,"Ġfrom":1147,"ĠAsset":1148,"ĠmockStub":1149,"ĠP":1150,"Msg":1151,"upp":1152,"console":1153,"amount":1154,"harm":1155,"ave":1156,"kno":1157,"etail":1158,"oney":1159,"../":1160,"ResultsIterator":1161,"known":1162,"ading":1163,"ample":1164,"Ġ_":1165,"Ġ[]":1166,"ĠqueryMarbles":1167,"ageSize":1168,"ĠchaincodeStub":1169,"CODE":1170,"Ġdecode":1171,"**":1172,"ĠpageSize":1173,"Handler":1174,"Ġbookmark":1175,"OK":1176,"('\\":1177,"ove":1178,"ĠContext":1179,"throw":1180,"createStub":1181,"._":1182,"ccount":1183,"Delete":1184,"Exists":1185,"Payload":1186,"ine":1187,"ĠisHistory":1188,"deemed":1189,"Ġ10":1190,"Ġsuper":1191,"imestamp":1192,"ONSE":1193,"SPONSE":1194,"RESPONSE":1195,"Ġperson":1196,"Receiv":1197,"createStubInstance":1198,"Ġupdate":1199,"ken":1200,"No":1201,"CreateAsset":1202,"Ord":1203,"makeKey":1204,"est":1205,"MSP":1206,"Ġon":1207,"ĠdocType":1208,"stantiated":1209,"ĠqueryBy":1210,"++)":1211,"Once":1212,"calledOnce":1213,"hai":1214,"oin":1215,"asBytes":1216,"HistoryForKey":1217,"Func":1218,"---":1219,"ry":1220,"transfer":1221,"=======');":1222,"ves":1223,"ĠKey":1224,"andle":1225,"indexName":1226,"Ġtypeof":1227,"work":1228,"ĠindexName":1229,"erId":1230,"ocation":1231,"proto":1232,"Ġexample":1233,"========================":1234,"gen":1235,"NGO":1236,"ĠInstantiated":1237,"allet":1238,"('================================":1239,"Ġalloc":1240,"('=======================================');":1241,"ĠgetHistoryFor":1242,"),":1243,"ann":1244,"ĠF":1245,"ĠthisObject":1246,"ver":1247,"ĠAssetTransfer":1248,"Ġunknown":1249,"Received":1250,"\"}":1251,"ĠcolorNameIndexKey":1252,"toBuffer":1253,"llow":1254,"marbleToTransfer":1255,"{\"":1256,"drug":1257,"At":1258,"ress":1259,"add":1260,"lice":1261,"FromContract":1262,"ĠresponsePayload":1263,"ĠBvalbytes":1264,"vice":1265,"gistr":1266,"otal":1267,"ĠgetHistoryForMarble":1268,"Order":1269,"ĠcoloredMarble":1270,"ĠcoloredMarbleResultsIterator":1271,"ĠmarbleJSONasBytes":1272,"ĠreturnedColor":1273,"ĠreturnedMarbleName":1274,"ĠĠĠĠĠĠ":1275,"Timestamp":1276,"TxID":1277,"Part":1278,"getQueryResultForQueryString":1279,"ĠgetQueryResultForQueryString":1280,"ĠResponse":1281,"chai":1282,"vocation":1283,"('===========":1284,"lue":1285,"erCRN":1286,"ferred":1287,"Ġinvocation":1288,"pharm":1289,"resolves":1290,"Ġ=========":1291,"erial":1292,"ĠinitLedger":1293,"\")":1294,"ind":1295,"Ġsuccess":1296,"ĠERROR":1297,"Ġallocate":1298,"ull":1299,"Current":1300,"ath":1301,"Ġ=========');":1302,"Peer":1303,"organ":1304,"Ġwork":1305,"blue":1306,"('=========":1307,"rad":1308,"Ġ100":1309,"Ġad":1310,"TE":1311,"ax":1312,"sinon":1313,"ace":1314,"lib":1315,":');":1316,"ye":1317,"lit":1318,"Ġhas":1319,"Ġtransa":1320,"valid":1321,"gister":1322,"Map":1323,"ollection":1324,"Added":1325,"vate":1326,"Ġ==":1327,"-->":1328,"..":1329,"Donor":1330,"});":1331,"ates":1332,"Ġtransaferred":1333,"balance":1334,"Up":1335,"result":1336,"ĠallocateSpend":1337,"av":1338,"}`);":1339,"getQueryResult":1340,"Ġvot":1341,"Event":1342,"Supp":1343,"wh":1344,"ations":1345,"Ġ('":1346,"])));":1347,"\";":1348,"gistration":1349,"Ġ<-->":1350,"Count":1351,"this":1352,"ter":1353,"Ġown":1354,"Partial":1355,"Ġtransaction":1356,"Drug":1357,"Fi":1358,"ĠRe":1359,"Ġread":1360,"getOwner":1361,"allo":1362,"etails":1363,"ana":1364,"shipment":1365,"Issue":1366,"ĠM":1367,"ore":1368,"gre":1369,"rice":1370,"getPaper":1371,"record":1372,"my":1373,"Pass":1374,"count":1375,"timestamp":1376,"Ġbuffer":1377,"22":1378,"Log":1379,"ByPartial":1380,"file":1381,"ĠpaperKey":1382,"paperKey":1383,"ĠmarbleAsbytes":1384,"marbleAsbytes":1385,"ign":1386,"atur":1387,"split":1388,"updatePaper":1389,"buy":1390,"This":1391,"ĠOwner":1392,"Mi":1393,"0000":1394,"Tom":1395,"ang":1396,"ating":1397,"cess":1398,"ByPartialCompositeKey":1399,"Ġchai":1400,"('../":1401,"getStateByPartialCompositeKey":1402,"ask":1403,"Issued":1404,"Org":1405,"Cars":1406,"ari":1407,"ntity":1408,"ngo":1409,"ĠPaper":1410,"network":1411,"cars":1412,"ĠCommercialPaperContract":1413,"irstCall":1414,"check":1415,"oko":1416,"avel":1417,"den":1418,"Ġmy":1419,"(),":1420,"ingOwner":1421,"Tomoko":1422,"comp":1423,"ĠissueDateTime":1424,"unt":1425,"MarblesByRange":1426,"aceValue":1427,"ĠFab":1428,"Ġadd":1429,"oo":1430,"Trading":1431,"Ġmatur":1432,"ityDateTime":1433,"lack":1434,"ĠmaturityDateTime":1435,"ĠgetMarblesByRange":1436,"ac":1437,"size":1438,"mockStub":1439,"Redeemed":1440,"black":1441,"999":1442,"ĠredeemingOwner":1443,"ĠfaceValue":1444,"ĠPaperList":1445,"prototype":1446,"ĠCommercialPaperContext":1447,"yellow":1448,"ia":1449,"getTxID":1450,"Assets":1451,"Ġ.":1452,"ee":1453,"pur":1454,"Ġ'_":1455,"our":1456,"green":1457,"Se":1458,"try":1459,"ob":1460,"Ġtotal":1461,"Property":1462,"ĠFabCar":1463,"reject":1464,"chel":1465,"otar":1466,"Max":1467,"Ġproduct":1468,"ption":1469,"Ġmoney":1470,"white":1471,"getHistoryForKey":1472,"ĠgetError":1473,"ĠgetErrorResponse":1474,"states":1475,"riana":1476,"Brad":1477,"Jin":1478,"ĠSoo":1479,"Adriana":1480,"initFunc":1481,"Michel":1482,"annel":1483,"Donations":1484,"Test":1485,"ĠColor":1486,"Vot":1487,"ina":1488,"ific":1489,"ĠqueryCar":1490,"ĠAppraisedValue":1491,"AppraisedValue":1492,"ervice":1493,"Update":1494,"ĠSize":1495,"Ġcompany":1496,"company":1497,"Ġrs":1498,"chase":1499,"andid":1500,"ks":1501,"Listen":1502,"AndListen":1503,"PeerAndListen":1504,"askPeerAndListen":1505,"Ġ>":1506,"ple":1507,"Ġtx":1508,"ifi":1509,"Company":1510,"ĠqueryAllCars":1511,"Ro":1512,"ice":1513,"ĠqueryByString":1514,"romi":1515,"etch":1516,"ĠcreateCar":1517,"((":1518,"ano":1519,"cation":1520,"uc":1521,"Hy":1522,"Ġpatient":1523,"Next":1524,"rValue":1525,"ĠDate":1526,"Bar":1527,"bro":1528,"calledWith":1529,"yot":1530,"Request":1531,"Toyot":1532,"205":1533,"Toyota":1534,"eria":1535,"Must":1536,"ĠmarbleAsBytes":1537,"Mustang":1538,"Valeria":1539,"undai":1540,"Hyundai":1541,"Ford":1542,"otaro":1543,"fin":1544,"Shotaro":1545,"Vol":1546,"esla":1547,"purple":1548,"kswa":1549,"Tesla":1550,"arav":1551,"Ġhave":1552,"Volkswa":1553,"Volkswagen":1554,"Aarav":1555,"Nano":1556,"Pari":1557,"Tata":1558,"olet":1559,"uge":1560,"olden":1561,"igo":1562,"violet":1563,"Peuge":1564,"indigo":1565,"Fiat":1566,"Passat":1567,"Peugeot":1568,"Holden":1569,"Punt":1570,"Tuc":1571,"chem":1572,"Chery":1573,"Punto":1574,"Tucson":1575,"vot":1576,"Barina":1577,"brown":1578,"ach":1579,"Prius":1580,"Ġmove":1581,"property":1582,"Ġrequest":1583,"Ġan":1584,"Ġby":1585,"firstCall":1586,"ĉĉ":1587,"Ġcont":1588,"Ġinvoke":1589,"Ġg":1590,"':":1591,"01":1592,"expect":1593,"Ġclient":1594,"NT":1595,"bookmark":1596,"im":1597,"createInstance":1598,"(()":1599,"Ġnum":1600,"fetch":1601,"invoke":1602,"ain":1603,"ĠresponseRange":1604,"MA":1605,"catch":1606,"urchase":1607,"andidate":1608,"Alice":1609,"arch":1610,"TxId":1611,"Add":1612,"ChaincodeFromContract":1613,"Ġindex":1614,"Ut":1615,"Registration":1616,"Util":1617,"[\"":1618,"Ġ);":1619,"Is":1620,"ailable":1621,"Ġprice":1622,"Ġnull":1623,"Ġbatch":1624,"fetched":1625,"patient":1626,"']);":1627,"02":1628,"getArgs":1629,"Ġinstantiate":1630,"clientIdentity":1631,"sCount":1632,"records":1633,"Private":1634,"Ġhistory":1635,"ies":1636,"Ġ'{\"":1637,"rea":1638,"getCurrent":1639,"Ġ];":1640,"fee":1641,"splitCompositeKey":1642,"IsDelete":1643,"Ġbuyer":1644,"Ġcid":1645,"ubli":1646,"Ġ');":1647,"message":1648,"Shi":1649,"AC":1650,"the":1651,"(_":1652,"allot":1653,"go":1654,"ĠClientIdentity":1655,"product":1656,"Ġupdated":1657,"isHistory":1658,"pharma":1659,"ClientIdentity":1660,"uid":1661,"Ġhandle":1662,"ure":1663,"Ġseller":1664,"Ġar":1665,"Ġpurchase":1666,"Ġtoken":1667,"ForNGO":1668,"ĠBookmark":1669,"ĠRecordsCount":1670,"event":1671,"ResponseMetadata":1672,"oint":1673,"anuf":1674,"anufact":1675,"donationId":1676,"MSPID":1677,"Ġnumer":1678,"ertific":1679,"ByOwner":1680,")');":1681,"chaincodeStub":1682,"Ġ({":1683,"Ġ---":1684,"vailable":1685,"Ġevent":1686,"fi":1687,"Ġmarbles":1688,"ĠcreateContext":1689,"resolve":1690,"fa":1691,"location":1692,"Json":1693,"ĠFailed":1694,"Each":1695,"transferMarble":1696,"ĠcreateCompositeKey":1697,"ĠdrugName":1698,"Ġor":1699,"Utils":1700,"('---":1701,"ĠspendAllocation":1702,"Address":1703,"Ġnumeric":1704,"wance":1705,"marbleJSON":1706,"RegistrationNumber":1707,"client":1708,"mail":1709,"offee":1710,"with":1711,"Trans":1712,"Ġass":1713,"fault":1714,"Ġlog":1715,"Ġproperty":1716,"Transferred":1717,"Item":1718,"ht":1719,"Ġlogger":1720,"DeleteAsset":1721,"Ġshould":1722,"newOwner":1723,"returnedMarbleName":1724,"Code":1725,"ER":1726,"getID":1727,"elper":1728,"Un":1729,"ray":1730,"ĠMarbles":1731,":\\":1732,"move":1733,"ĠreadMarble":1734,"Details":1735,"ĠHandler":1736,"ĠmarbleState":1737,"marbleState":1738,"ĠinitMarble":1739,"spendAllocation":1740,"eq":1741,"ertificate":1742,"Ġusername":1743,"store":1744,"Ġno":1745,"\":\"":1746,"Ġfab":1747,"erate":1748,"porter":1749,"request":1750,"Ġcall":1751,"seller":1752,"adAsset":1753,"--------":1754,"ug":1755,"Ġlist":1756,"voice":1757,"Supply":1758,"udent":1759,"handle":1760,"call":1761,"Service":1762,"Ġerr":1763,"ngoRegistrationNumber":1764,"****":1765,"Ġassert":1766,"Ġngo":1767,"Ġelection":1768,"fore":1769,"Issuer":1770,"ĠĠĠčĊ":1771,"has":1772,"anet":1773,"TI":1774,"ForDonor":1775,"Ar":1776,"ĠqueryMarblesByOwner":1777,"Ġorgan":1778,"stem":1779,"askPeerAndListenStub":1780,"Ġshipment":1781,"ash":1782,"ip":1783,"1000":1784,"ital":1785,"exists":1786,"Ġ`":1787,"Ġas":1788,"prov":1789,".')":1790,"Role":1791,"Instantiate":1792,"Send":1793,"withArgs":1794,"Ġowned":1795,"Collection":1796,"ĠD":1797,"ĠstrValue":1798,"eql":1799,"Logger":1800,"Ġcase":1801,"Ġwhen":1802,"SpendMap":1803,"ORMA":1804,"buyer":1805,"Ġaccount":1806,"ĠĠĠĠĠĠĠĠĠĠĠĠĠĠĠĠ":1807,"Ġcheck":1808,"itle":1809,"Ġstatus":1810,"donor":1811,"Me":1812,"Ġpass":1813,"Product":1814,"ĠvalAsbytes":1815,"rejected":1816,"Ġ['":1817,"mplement":1818,"ĠassetJSON":1819,"chema":1820,"Ġcomp":1821,"ĠCurrent":1822,"(/":1823,"papernet":1824,"hic":1825,"Ġserial":1826,"antity":1827,"ngine":1828,"Shipment":1829,"Ġhandler":1830,"romise":1831,"getCurrentState":1832,"ated":1833,"]).":1834,"out":1835,"urer":1836,"UpdateAsset":1837,"!!":1838,"LE":1839,"isation":1840,"fail":1841,"hicle":1842,"CA":1843,"Ġ{\"":1844,"Ġexpected":1845,"Per":1846,"Ġbefore":1847,"TransferAsset":1848,"Status":1849,"Ġ---')":1850,"dAt":1851,"handler":1852,".');":1853,"getMSPID":1854,"index":1855,"ship":1856,"\"]":1857,"Ġfailed":1858,"ization":1859,"iew":1860,"spId":1861,"Ġmarblename":1862,"nder":1863,"ful":1864,"Ġl":1865,"1001":1866,"ĠquerySpend":1867,"mplementations":1868,"trans":1869,"Ġall":1870,"oser":1871,"fined":1872,"11":1873,"mit":1874,"Suppli":1875,"Cont":1876,"TA":1877,"ging":1878,"Wallet":1879,"Valid":1880,"isIssued":1881,"AmountForDonor":1882,"ack":1883,"reator":1884,"anufacturer":1885,"have":1886,"money":1887,"pos":1888,"uth":1889,"Client":1890,"Coffee":1891,"commercial":1892,"commercialpaper":1893,"current":1894,"ĠT":1895,"Implementations":1896,"setEvent":1897,"context":1898,"adhar":1899,"Calling":1900,"ĠGet":1901,"PrivateData":1902,"ublic":1903,"Ġregister":1904,"pert":1905,"metadata":1906,"addPaper":1907,"process":1908,"buffer":1909,"setIssued":1910,"ĠStub":1911,"getIssuer":1912,"perties":1913,"Ġredeemed":1914,"setTrading":1915,"ableItem":1916,"Ġmessage":1917,"Ġtrading":1918,"ourse":1919,"ĠpurchaseDateTime":1920,"late":1921,"Redeem":1922,"defined":1923,"Ġbalance":1924,"app":1925,"ĠredeemDateTime":1926,"__":1927,"aN":1928,"batch":1929,"uuid":1930,"orange":1931,"paperlist":1932,"Ġĉĉĉĉĉ":1933,"reak":1934,"isationRole":1935,"com":1936,"ra":1937,"account":1938,"pharmanet":1939,"Redeeming":1940,"setRedeemed":1941,"Message":1942,"Rating":1943,"ream":1944,"word":1945,"isTrading":1946,"isRedeemed":1947,"ĠqueryByKey":1948,"Token":1949,"/);":1950,"eig":1951,"nCalling":1952,"invokeFunc":1953,"vehicle":1954,"Helper":1955,"CRN":1956,"false":1957,"model":1958,"IN":1959,"Serial":1960,"pen":1961,"50":1962,"pha":1963,"isN":1964,"\"}}":1965,"ĠĠĠĠĠĠĠčĊ":1966,"Ġfabcar":1967,"tot":1968,"ive":1969,"expected":1970,"ĠĠĠĠĠĠĠĠĠĠĠĠĠĠĠĠĠĠĠĠĠĠĠĠĠĠĠ":1971,"ĠhasNext":1972,"Supplied":1973,"Ġtravel":1974,"Ġbreak":1975,"isNaN":1976,"Sp":1977,"ci":1978,"not":1979,"wr":1980,"path":1981,"orderId":1982,"rejectedWith":1983,"ĠdonationSpendMap":1984,"ĠCarNumber":1985,"rypt":1986,"op":1987,"Ġfund":1988,"Ġdate":1989,"redit":1990,"inue":1991,"ĠCAR":1992,"Ġset":1993,"fter":1994,"total":1995,"ĠN":1996,"IS":1997,"Ġins":1998,"AL":1999,"My":2000,"do":2001,"quantity":2002,"ustom":2003,"fully":2004,"\"}}';":2005,".__":2006,"Array":2007,"Ġare":2008,"election":2009,"sForNGO":2010,"ĠR":2011,"comm":2012,"ĠĠĠĠĠĠĠĠĠĠĠĠĠĠĠĠčĊ":2013,"iss":2014,"Ġvalid":2015,"part":2016,"File":2017,"ledger":2018,"RON":2019,"getStateByRangeWithPagination":2020,"register":2021,"AssetId":2022,"ified":2023,"stemContract":2024,"Le":2025,"Ġavailable":2026,"Ġcontinue":2027,"FORMA":2028,"WRON":2029,"FORMAT":2030,"WRONG":2031,"updated":2032,"sF":2033,"('{\"":2034,"Ġen":2035,"Account":2036,"}`":2037,"Ġtimestamp":2038,"__('":2039,"mt":2040,"Ġthat":2041,"tribute":2042,"min":2043,"10":2044,"Hash":2045,"Ġ15":2046,"ld":2047,"QueryIterator":2048,"annelID":2049,"cert":2050,"Invalid":2051,"ĠChaincodeFromContract":2052,"ally":2053,"ChaincodeStub":2054,"ifier":2055,"sub":2056,"ĠqueryHistoryForKey":2057,"Ġprofile":2058,"callsF":2059,"callsFake":2060,"str":2061,"=>":2062,"ĠUtils":2063,"map":2064,"Ġfirst":2065,"mb":2066,"rivate":2067,"protos":2068,"ink":2069,"generate":2070,"Batch":2071,"12":2072,"Co":2073,"ĠObject":2074,"state":2075,"Ġafter":2076,"email":2077,"\"}'));":2078,"OfDonations":2079,"\\'":2080,"Ġload":2081,"ustomer":2082,"Ġfi":2083,"ĠAB":2084,"STE":2085,"######":2086,"Ġ300":2087,"AssetExists":2088,"1003":2089,"ublicKey":2090,"#######":2091,"ĠValid":2092,"Ġ+=":2093,"Ġsy":2094,"Chai":2095,"Ġaccess":2096,"Ġtitle":2097,"osp":2098,"peration":2099,"llowance":2100,"Ġ'';":2101,"Ġtransient":2102,"...":2103,"ERROR":2104,"mpl":2105,"annot":2106,"ĠABstore":2107,"userId":2108,"ospital":2109,"edic":2110,"onent":2111,"SY":2112,"ember":2113,"ChannelID":2114,"function":2115,"AllAssets":2116,"Ġwallet":2117,"write":2118,"Ġ200":2119,"STEM":2120,"SYSTEM":2121,"Ġitem":2122,"GetState":2123,"Own":2124,"TR":2125,"history":2126,"ong":2127,")).":2128,"ppro":2129,"ersion":2130,"Ġent":2131,"Price":2132,"mbol":2133,"ĠValidations":2134,"Allocated":2135,"collection":2136,"valAsBytes":2137,"ca":2138,"Ġcandidate":2139,"Ġ1003":2140,"ds":2141,"oins":2142,"Ver":2143,"Ġassets":2144,"Ġvoter":2145,"OwnProperty":2146,"ĠnumberOfDonations":2147,"ĠamountAllocated":2148,"ToDonation":2149,"serial":2150,"spendAmount":2151,"Ġ500":2152,"ĠamountAllocatedToDonation":2153,"po":2154,"assetID":2155,"Proto":2156,"ET":2157,"ier":2158,"ĠOrder":2159,"----------":2160,"ierarch":2161,"Ġ'+":2162,"drugName":2163,"totalSupply":2164,"istri":2165,"ĠReadAsset":2166,"rejects":2167,"sec":2168,"ĠTransferAsset":2169,"Ġemail":2170,"Ġver":2171,"ierarchy":2172,"Ġy":2173,"ĠCreateAsset":2174,"ĠbatchCoffee":2175,"low":2176,"keys":2177,"Ġcreated":2178,"Attribute":2179,"Ġfunds":2180,"PE":2181,"ider":2182,"fix":2183,"ĠbeforeEach":2184,"ound":2185,"composer":2186,"romised":2187,"AttributeValue":2188,"Ġdefault":2189,"UserName":2190,"ĠG":2191,"Path":2192,"cont":2193,"ually":2194,"ĠUser":2195,"Ġcert":2196,"Travel":2197,"ĠuserAsBytes":2198,"eventually":2199,"oints":2200,"ill":2201,"ĠPromise":2202,"Sec":2203,"New":2204,"ized":2205,"istribut":2206,"ayment":2207,"Ġmatch":2208,"ĠQuery":2209,"etwork":2210,"ĠĠĠĠĠĠĠĠĠĠ":2211,"ĠhistoryRecord":2212,"Ġchannel":2213,"ission":2214,"refix":2215,"34":2216,"emp":2217,"mart":2218,"ĠqueryMarblesWithPagination":2219,"ĠgetMarblesByRangeWithPagination":2220,"then":2221,"uyer":2222,"MyAsset":2223,"Comm":2224,"eight":2225,"NO":2226,"candidate":2227,"vel":2228,"assign":2229,"ant":2230,"igin":2231,"int":2232,"ĠDeleteAsset":2233,"Transactions":2234,"Ġ1001":2235,"proved":2236,"}},":2237,"Ġj":2238,"Ġcp":2239,"very":2240,"Ġapp":2241,"Sy":2242,"obj":2243,"wallet":2244,"Ġ)":2245,"mem":2246,"ues":2247,"ĠL":2248,"Ġ400":2249,"address":2250,"Entity":2251,"contracts":2252,"ĠserialNo":2253,"des":2254,"pass":2255,"Ġlocation":2256,"ĠdonationId":2257,"Bg":2258,"MspId":2259,"TY":2260,"ĠĠĠĠĠĠĠĠĠĠĠĠ":2261,"last":2262,"ĠbuyerCRN":2263,"Ġinsert":2264,"anceCo":2265,"ĠĉĉĉčĊ":2266,"Ġprocess":2267,"EC":2268,"ENT":2269,"Impl":2270,"Ġreject":2271,"Ġview":2272,"ĠmoneyBytes":2273,"ĠquerySpendAllocation":2274,"Ġ20":2275,"member":2276,"56":2277,"zz":2278,"users":2279,"-'":2280,"oll":2281,"Ġballot":2282,"aid":2283,"Ġundefined":2284,"BA":2285,"Engine":2286,"Ġsub":2287,"ryp":2288,"donorUserName":2289,"ames":2290,"pic":2291,"sSec":2292,"odity":2293,"userAsBytes":2294,"ĠuserId":2295,"chemas":2296,"Transient":2297,"allowance":2298,"cp":2299,"ĠX":2300,"ins":2301,"lace":2302,"uthor":2303,"istributor":2304,"Van":2305,"ank":2306,"Ġpath":2307,"buyerCRN":2308,"_'":2309,"Ġcomm":2310,"llowed":2311,"Called":2312,"theChannelID":2313,"Ġentry":2314,"Bob":2315,"strValue":2316,"equals":2317,"ĠmockClientIdentity":2318,"notCalled":2319,"RO":2320,"aug":2321,"istic":2322,"porterCRN":2323,"Ġpo":2324,"ision":2325,"Ġresol":2326,"mentMetadata":2327,"FromCode":2328,"augmentMetadata":2329,"augmentMetadataFromCode":2330,"ĠUpdateAsset":2331,"Ġ{}":2332,"COU":2333,"Ġ(!(":2334,"000":2335,"TimeObj":2336,")))":2337,"EX":2338,"Us":2339,"ĠappraisedValue":2340,"shipper":2341,"organisationRole":2342,"ĠmyContract":2343,"Patient":2344,"Ġq":2345,"Con":2346,"inst":2347,"PerDonation":2348,"indexOf":2349,"acc":2350,"failed":2351,"gh":2352,"Ġcan":2353,"unity":2354,"constructor":2355,"archKey":2356,"ied":2357,"Voter":2358,"deb":2359,"view":2360,"onents":2361,"ĠTest":2362,"Spy":2363,"ierarchyKey":2364,"Mock":2365,"Ġinserting":2366,"Ġobj":2367,"Reg":2368,":\"":2369,"ChaincodeImpl":2370,"uppli":2371,"IP":2372,"Ġreceiv":2373,"reason":2374,"Parse":2375,"ĠW":2376,"ReadAsset":2377,"COUNT":2378,"Ġschema":2379,"ACCOUNT":2380,"'},":2381,"ade":2382,"fg":2383,"loat":2384,"posal":2385,"lock":2386,"ĠvotableItem":2387,"ĠH":2388,"ĠId":2389,"ĠcreateDonation":2390,"Amt":2391,"Ġquantity":2392,"shed":2393,"peer":2394,"Check":2395,"Ġso":2396,"livery":2397,"ale":2398,"mission":2399,"roy":2400,"Ġservice":2401,"DA":2402,"()).":2403,"ec":2404,"Ġ\"%":2405,"ĠĠĉĉ":2406,"urce":2407,"nse":2408,"ncrypt":2409,"ME":2410,"bal":2411,"Ġ\"'":2412,"getCall":2413,"75":2414,"Buyer":2415,"properties":2416,"\"}';":2417,"Content":2418,"doctor":2419,"ĠPro":2420,"ĠInitLedger":2421,"Char":2422,"Ġfin":2423,"Ġtransporter":2424,"Que":2425,"gain":2426,"lobal":2427,"StateQueryIterator":2428,"CAl":2429,"secure":2430,"16":2431,"var":2432,"Ġaadhar":2433,"Ġproject":2434,"Ġsender":2435,"TOR":2436,"price":2437,"Ġ'\"}}';":2438,"registration":2439,"ĠChaincodeStub":2440,"hasNext":2441,"lect":2442,"Ġversion":2443,"\"){":2444,"Ent":2445,"Found":2446,"Stream":2447,"Ġexisting":2448,"mockHandler":2449,"CAlpha":2450,"AB":2451,"FI":2452,"]]);":2453,"time":2454,"perator":2455,"retail":2456,"ta":2457,"Ġinfo":2458,"Ġretail":2459,"item":2460,"ĠspendAmountForDonor":2461,"ĠspendAmt":2462,"+'":2463,"ResponseRange":2464,"Mar":2465,"]));":2466,"details":2467,"bose":2468,"voter":2469,"ainer":2470,"else":2471,"Ġcop":2472,"token":2473,"Ġuuid":2474,"fere":2475,"server":2476,"pts":2477,"checkSupplied":2478,"checkSuppliedStub":2479,"urr":2480,"ĠorderId":2481,"spendId":2482,"Points":2483,"Ġvehicle":2484,"Ġmockery":2485,"../../":2486,"(['":2487,"Ġmsg":2488,"default":2489,"Pa":2490,"PeerAddress":2491,"ĠNGO":2492,"contractImplementations":2493,"eld":2494,"Ġcopied":2495,"STA":2496,"Ġuse":2497,"ard":2498,"Ġaddress":2499,"obile":2500,"Unit":2501,"pc":2502,"Ġprivate":2503,"Ġinvoice":2504,"ofit":2505,"ĠdataBuffer":2506,"ĠsystemContract":2507,"(!":2508,"Email":2509,"Hold":2510,"actly":2511,"ĠcontractInstance":2512,"Paul":2513,"tern":2514,"Ġtransactions":2515,"Ġpassword":2516,"rypto":2517,"Access":2518,"eal":2519,"url":2520,"Exactly":2521,"Troy":2522,"pink":2523,"OfAssets":2524,"ĠNode":2525,"PublicKey":2526,"object":2527,"lement":2528,"Verbose":2529,"Aw":2530,"NV":2531,"Ġmedic":2532,"profile":2533,"perationId":2534,"CON":2535,"eng":2536,"Offer":2537,"ĠThis":2538,"restore":2539,"getMetadata":2540,"been":2541,"ContextId":2542,"mockChaincodeImpl":2543,"getQueryResultWithPagination":2544,"})":2545,"ncy":2546,"cept":2547,"Ġdonor":2548,"haveOwnProperty":2549,"TYPE":2550,"test":2551,"conds":2552,"GetQueryResult":2553,"imal":2554,"BgNV":2555,"iting":2556,"Ġmember":2557,"ĠqueryDonor":2558,"ublish":2559,"ference":2560,"rpc":2561,"Ġcollection":2562,"olic":2563,"Ġexp":2564,"ility":2565,"utils":2566,"ĠSh":2567,"']['":2568,"ĠMy":2569,"Ġ*":2570,"gainst":2571,"fil":2572,"Ġrequired":2573,"project":2574,"'],":2575,"ballot":2576,"ph":2577,"lease":2578,"Ġspe":2579,"Ġsuccessfully":2580,"ĠcompanyName":2581,"fake":2582,"isVerbose":2583,"izers":2584,"medic":2585,"'t":2586,"ome":2587,"arn":2588,"ContractImplementations":2589,"mockIterator":2590,"resolveContractImplementations":2591,"fic":2592,"Ġcertificate":2593,"olicy":2594,"])":2595,"Ġro":2596,"Start":2597,"ĠAd":2598,"izer":2599,"Ġ\",":2600,"ĠmockPeerAddress":2601,"Project":2602,"Enter":2603,"OG":2604,"hex":2605,"lear":2606,"ĠorderAsBytes":2607,"udentId":2608,"GetStateByRange":2609,"gnet":2610,"null":2611,"theTxID":2612,"inston":2613,"Ġsource":2614,"aw":2615,"ĠNumber":2616,"Ġgenerate":2617,"ĠSpend":2618,"Ġdoctor":2619,"ĠdonationMap":2620,"ĠspendAmount":2621,"ĠspendPerDonation":2622,"Serialization":2623,"ĠdefaultSerialization":2624,"Prefix":2625,"lab":2626,"Ġpassed":2627,"ĠGetAllAssets":2628,"ĠtsSec":2629,"igital":2630,"Ġlogging":2631,"Detail":2632,"hold":2633,"msg":2634,"ĠjsonRecord":2635,"Ġsell":2636,"End":2637,"Ġ'$":2638,"Mod":2639,"Ġdest":2640,"erg":2641,"Ġdone":2642,"ToSend":2643,"ĠĠĠĠĠĠĠĠĠĠčĊ":2644,"WithExactly":2645,"calledOnceWithExactly":2646,"debug":2647,"upplier":2648,"View":2649,"Ġ?":2650,"Ġpay":2651,"Ġaction":2652,"Ġtime":2653,"19":2654,"Ġlo":2655,"orm":2656,"shall":2657,"Ġpart":2658,"Ġfile":2659,"uncAndP":2660,"listing":2661,"di":2662,"ledge":2663,"open":2664,"Ġtemp":2665,"bert":2666,"ocument":2667,"Creator":2668,"tag":2669,"Ġ}).":2670,"vest":2671,"Ġ'.":2672,"Load":2673,"posit":2674,"Float":2675,"Ġcourse":2676,"travel":2677,"RatingsForNGO":2678,"\"];":2679,"SCAlpha":2680,"uffic":2681,"ough":2682,"DataBuffer":2683,"Sender":2684,"iness":2685,"WithQueryString":2686,"checkA":2687,"TION":2688,"ufficient":2689,"atent":2690,"ealth":2691,"Sign":2692,"bt":2693,"Ġ/":2694,"Ġcorrect":2695,"ĠtransactionContext":2696,"Votable":2697,"********":2698,"her":2699,"usiness":2700,"Ġ-=":2701,"Election":2702,"Port":2703,"getTransient":2704,"({},":2705,"vok":2706,"orderAsBytes":2707,"ĠcontractId":2708,"etailer":2709,"Network":2710,"ĠdrugKey":2711,"ternal":2712,"Plate":2713,"line":2714,"ary":2715,"Ġci":2716,"Ġoffer":2717,"Marshall":2718,"::":2719,"getAttributeValue":2720,"Ġregistered":2721,"\\-":2722,"land":2723,"invoice":2724,"AssetInfo":2725,"ecut":2726,"Ġ'',":2727,"otstr":2728,"unsecure":2729,"Ġdec":2730,"Ġenough":2731,"otstrap":2732,"SA":2733,"ĠDrug":2734,"Ġcount":2735,"ĠRule":2736,"cid":2737,"Ġval":2738,"Ġ...":2739,"arm":2740,"leted":2741,"Ġproperties":2742,"ĠvotableItems":2743,"NET":2744,"inc":2745,"imals":2746,"30":2747,"Text":2748,"Ġallowed":2749,"lication":2750,"components":2751,"Seller":2752,"SuppliedMetadata":2753,"gainstSuppliedMetadata":2754,"checkAgainstSuppliedMetadata":2755,".`);":2756,"grad":2757,"admin":2758,"exp":2759,"registerMock":2760,"usinessNetwork":2761,"Ġone":2762,"are":2763,"Ġtmap":2764,"Ġrew":2765,"escription":2766,"inspect":2767,"EY":2768,"uction":2769,"trs":2770,"createdAt":2771,"Ġtest":2772,"Student":2773,"ĠĉĉĠĠĠĠĠĠĠ":2774,"ĠdonationsForNGO":2775,"mockStream":2776,"ivity":2777,"ĠtransporterCRN":2778,"financeCo":2779,"ĠeventReg":2780,"lu":2781,"compile":2782,"PO":2783,"UG":2784,"Ġ####":2785,"Ġaes":2786,"Ġput":2787,"icip":2788,"onth":2789,"Ġcre":2790,"Ġbeen":2791,"spid":2792,"batchId":2793,"Case":2794,"SS":2795,"`;":2796,"jv":2797,"ingA":2798,"('###########":2799,"2020":2800,"Ġlisting":2801,"#######');":2802,"Ġ###########');":2803,"bid":2804,"fir":2805,"stream":2806,"Ġappro":2807,"Ġauthor":2808,"dec":2809,"ĠorganisationRole":2810,"ĠafterEach":2811,"wd":2812,"offer":2813,"ĠsinonChai":2814,"Ġdescription":2815,"CurrentBalance":2816,"sinonChai":2817,"DonationsForNGO":2818,"ĠTestContext":2819,"igitalAsset":2820,"Node":2821,"ps":2822,"sc":2823,"rie":2824,"ĠSy":2825,"myAssetId":2826,"ĠTotal":2827,"Promised":2828,"You":2829,"dit":2830,"ĠĠĉ":2831,"Ġage":2832,"Ġallowance":2833,"Ġpag":2834,"ader":2835,"AsPromised":2836,"({});":2837,"Ġinitial":2838,"ĠqueryAllSpend":2839,"myAssetExists":2840,"ĠquerySpendAllocationFor":2841,"ib":2842,"Ġledger":2843,"assetExists":2844,"ĠcreateSpend":2845,"ĠcreateRating":2846,"ownerId":2847,"Organ":2848,"Ġorigin":2849,"Num":2850,"hy":2851,"node":2852,"Ġ,":2853,"rescri":2854,"ĠmyAssetId":2855,"Transporter":2856,"ĠtimestampString":2857,"ergy":2858,"Ġco":2859,"ummy":2860,"ĠresultAsBytes":2861,"InitLedger":2862,"'}":2863,"Certificate":2864,"','":2865,"AsJson":2866,"Robert":2867,"Ġgot":2868,"\"));":2869,"Ġorg":2870,"hing":2871,"TxTimestamp":2872,"appraisedValue":2873,"98":2874,"Schemas":2875,"certificate":2876,"flect":2877,"Ġdetails":2878,"assetId":2879,"ĠĠĠĠĠĠĠĠĠĠĠĠĠĠĠĠĠĠĠĠĠĠĠĠĠĠĠĠĠĠĠ":2880,"clientId":2881,"compileSchemas":2882,"Not":2883,"decode":2884,"amp":2885,"ero":2886,"ĠtotalSupply":2887,"patientId":2888,"Allowance":2889,"save":2890,"Ġup":2891,"channel":2892,"Ġ>=":2893,"transporter":2894,"ĠCannot":2895,"Register":2896,"ices":2897,"Ġland":2898,"GetQueryResultWithPagination":2899,"09":2900,"AN":2901,"CD":2902,"getM":2903,"otation":2904,"ĠcontractAsBytes":2905,"year":2906,"ource":2907,"voterId":2908,"rescription":2909,"pproved":2910,"iation":2911,"Ġle":2912,"itize":2913,"searchKey":2914,"Ġsign":2915,"ĠcreateDonor":2916,"form":2917,"cepted":2918,"'+":2919,"15":2920,"iator":2921,"vider":2922,"Ġ----------":2923,"Ġcredit":2924,"ĠBo":2925,"Ġwr":2926,"']).":2927,"..');":2928,"ification":2929,"companyID":2930,"Ġ----------');":2931,"Loc":2932,"]:":2933,"ĠDonation":2934,"Ġ})":2935,"ĠcreateNGO":2936,"imPublicKey":2937,"ointment":2938,"48":2939,"Total":2940,"role":2941,"ssv":2942,"Ġinput":2943,"509":2944,"'.":2945,"Available":2946,"Ġcustomer":2947,"ality":2948,"ingId":2949,"Ġfs":2950,"abli":2951,"acient":2952,"Unknown":2953,"CONTR":2954,"ablished":2955,"TC":2956,"manufacturer":2957,"place":2958,"orld":2959,"',[":2960,"Ġbid":2961,"ĠassetID":2962,"'),":2963,"Contractor":2964,"Ġdonations":2965,"hr":2966,"sAsBytes":2967,"PRO":2968,"ipment":2969,"getPrivateData":2970,"logging":2971,"Ġtxid":2972,"ackage":2973,"partment":2974,"COR":2975,"pay":2976,"rating":2977,"ĠĠĠĠĠčĊ":2978,"assets":2979,"ternalGetStateByRange":2980,"sender":2981,"ĠparseFloat":2982,"constant":2983,"license":2984,"ĠlistOfAssets":2985,"lastName":2986,"Ġsh":2987,"ĠBut":2988,"Ġident":2989,"Ġ\"\";":2990,"ChaincodeMessage":2991,"getCurrentUser":2992,"Entering":2993,",\"":2994,"Fund":2995,"ns":2996,"sum":2997,"'){":2998,"('../../../":2999,"provider":3000,"Fn":3001,"grpc":3002,"vinfo":3003,"Ġmanufacturer":3004,"require":3005,"Ġencrypt":3006,"readAsset":3007,"Ġfabprotos":3008,"Level":3009,"Ġverify":3010,"ĠLOG":3011,"\\-\\-":3012,"hyper":3013,"CONTRAC":3014,".\",":3015,"Coins":3016,"ged":3017,"req":3018,"hain":3019,"Ġidentity":3020,"ĠmockResponse":3021,"ĠtotalSpend":3022,"ĠtotalDonations":3023,"spendAllocationAmount":3024,"community":3025,"ĠavailableAmountForDonor":3026,"UE":3027,"ĠQ":3028,"contractAsBytes":3029,"++;":3030,"hyperledger":3031,"BusinessNetwork":3032,"Model":3033,"identity":3034,"ĠVot":3035,"Ġelement":3036,"andom":3037,"ĠĠĠĠĠĠĠĠĠĠĠĠĠĠĠĠĠ":3038,"OfIterator":3039,"romiseOfIterator":3040,"97":3041,"ever":3042,"ms":3043,"Ġem":3044,"ĠhistoryIterator":3045,"Ġidentified":3046,"CONTRACTOR":3047,"MC":3048,"oi":3049,"ĠData":3050,"Ġcrypto":3051,"Ġ((":3052,"somet":3053,"Ġfind":3054,"cces":3055,"lie":3056,"ORMAL":3057,"NOT":3058,"Charlie":3059,"uncAndParams":3060,"something":3061,"NORMAL":3062,"Retailer":3063,"]['":3064,"mod":3065,"username":3066,"Ġhash":3067,"raw":3068,"ABNORMAL":3069,"ccesfully":3070,".'":3071,"col":3072,"option":3073,"schema":3074,"Ġ\\'":3075,"appro":3076,"Ġcontent":3077,"icipant":3078,"credit":3079,"txContextId":3080,"gistrar":3081,"ĠtxTimestamp":3082,"FirstCall":3083,"Payment":3084,"onFirstCall":3085,"AsB":3086,"assetAsBytes":3087,"Ġĉĉĉĉĉĉ":3088,"hoc":3089,"ner":3090,"Ġsave":3091,"ĠuserKey":3092,"MR":3093,"Success":3094,"ĠProduct":3095,"Stamp":3096,"ĠassetInfo":3097,"Ġparsed":3098,"assetJSON":3099,"ĠmockIterator":3100,"\",\"":3101,"drugKey":3102,"ĠcompanyCRN":3103,"password":3104,"Ġreceiver":3105,"13":3106,"DV":3107,"ble":3108,"winston":3109,"ons":3110,"ature":3111,"createContext":3112,"chain":3113,"Counter":3114,"expectedMsg":3115,"ĠSystemContract":3116,"Ye":3117,"creator":3118,"Ġbytes":3119,"putPrivateData":3120,"Ġ\");":3121,"spID":3122,"metadataToSend":3123,"Ġresolve":3124,"join":3125,"promised":3126,"Ġph":3127,"isting":3128,"ĠdataTimeObj":3129,"FromBatch":3130,"irstName":3131,"Passeng":3132,"AssetsFromBatch":3133,"=>{":3134,"getTxTimestamp":3135,"undefined":3136,"')).":3137,"Ġkeys":3138,"Process":3139,"ĠjsonQueryString":3140,"Ġserializers":3141,"ĠGen":3142,"Ġcommodity":3143,"accine":3144,"78":3145,"private":3146,"Ġcannot":3147,"Ġ'-'":3148,"igh":3149,"Ġcontracts":3150,"Ġspender":3151,"historyRecord":3152,"serialNo":3153,"fs":3154,"text":3155,"uck":3156,"Ġrb":3157,"Ġnames":3158,"hair":3159,"assetName":3160,"ĠĠĠĠĠĠĠĠĠĠĠĠĠĠĠĠĠĠĠĠčĊ":3161,"approved":3162,"contractId":3163,"processContract":3164,"18":3165,"issue":3166,"level":3167,"regnet":3168,"cho":3169,"Ġfake":3170,"now":3171,"eigth":3172,"}`;":3173,"subject":3174,"pre":3175,"gest":3176,"service":3177,"dataTimeObj":3178,"Cfg":3179,"non":3180,"qHandler":3181,"Ġ6":3182,"ĠJ":3183,"Ġcalled":3184,"zzzz":3185,"GV":3186,"Sandbox":3187,"course":3188,"ep":3189,"ident":3190,"sell":3191,"Ġstock":3192,"Ġweight":3193,"userKey":3194,"ĠdataCollection":3195,"armer":3196,"urance":3197,"ĠassetBuffer":3198,"AssetState":3199,"ĠPL":3200,"established":3201,"ciever":3202,"inclu":3203,"MB":3204,"hierarchyKey":3205,"roller":3206,"retailer":3207,"hairs":3208,"includes":3209,"90":3210,"Ballot":3211,"Mark":3212,"ast":3213,"slice":3214,"esize":3215,"Ġsufficient":3216,"verify":3217,"Ġlogistic":3218,"htt":3219,"ĠexpectedMsg":3220,"}`,":3221,"ĠballotData":3222,"Fin":3223,"Ġ\"+":3224,"([]);":3225,"CompanyName":3226,"28":3227,"ED":3228,"Ġ]":3229,"ĠProperty":3230,"iredAt":3231,"ForOwner":3232,"ĠresultObj":3233,"ĠproductID":3234,"votable":3235,"33":3236,"Auth":3237,"}}":3238,"ĠO":3239,"origin":3240,"queryWithQueryString":3241,"Ġsupplier":3242,"Ġ---');":3243,"Arr":3244,"ĠBootstrap":3245,"LS":3246,"imple":3247,"operationId":3248,"Ġpeer":3249,"example":3250,"donationAmount":3251,"ide":3252,"ĠU":3253,"atic":3254,"ĠSmart":3255,"cript":3256,"Ġsend":3257,"Ġbuffered":3258,"Serializer":3259,"'});":3260,"hs":3261,"ĠLog":3262,"while":3263,"Ship":3264,"BgNVBA":3265,"Registered":3266,"256":3267,"SG":3268,"ured":3269,"alpha":3270,"ĠClient":3271,"ĠassetName":3272,"ĠassetId":3273,"Ġinvok":3274,"Ġuserid":3275,"ours":3276,"!!!":3277,"Ret":3278,"hospital":3279,"Ġ=====":3280,"Ġcreator":3281,"Ġmod":3282,"Ġopts":3283,"ĠassetKey":3284,"'))":3285,"Ġformat":3286,"-----":3287,"GetAllResults":3288,"verifier":3289,"TED":3290,"Ġvote":3291,"CompanyCRN":3292,"Prototype":3293,"ĠqHandler":3294,"urrElection":3295,"ĠloggingService":3296,"Ġaesjs":3297,"AuthValue":3298,"DO":3299,"Do":3300,"HO":3301,"Mat":3302,"vision":3303,"department":3304,"symbol":3305,"ĠSu":3306,"ruct":3307,"HistoryQueryIterator":3308,"spy":3309,"Vote":3310,"Year":3311,"\\\"":3312,"]))":3313,"Ġselector":3314,"checkMspId":3315,"ĠtxHelper":3316,"STANT":3317,"Ġspent":3318,"Ġemr":3319,"TH":3320,"wer":3321,"Ġcoins":3322,"Ġ+'":3323,"TimeStamp":3324,"ĠmockHandler":3325,"ight":3326,"ĠdrugObject":3327,"Ġglobal":3328,"ĠbatchId":3329,"saveAssetState":3330,"%=":3331,"Cert":3332,"Pend":3333,"vOrg":3334,"ĠTransfer":3335,"Ġcage":3336,"Ġbut":3337,"Ġ%>":3338,"ĠholdObj":3339,"forEach":3340,"ĠdataService":3341,"ĠcontractAsJson":3342,"BalanceOf":3343,"donationSpendMap":3344,"Ġallocation":3345,"ĠtotalAvailable":3346,"Ġarray":3347,"ĠspendAllocations":3348,"ĠspendAllocationId":3349,"acking":3350,"Ġjob":3351,"Queue":3352,"PointsTransactions":3353,"obileNumber":3354,"Ġcover":3355,"Line":3356,"Member":3357,"cwd":3358,"ish":3359,"package":3360,"waiting":3361,"Ġ===========":3362,"emr":3363,"Ġproto":3364,"Ġdelivery":3365,"Ġresolves":3366,"ĠAdd":3367,"constants":3368,"QueueHandler":3369,"03":3370,"hf":3371,"oZ":3372,"Ġtext":3373,"Ġengine":3374,"ĠownerId":3375,"ĠĉĉĉĉčĊ":3376,")){":3377,"LI":3378,"('..');":3379,"Only":3380,"Ġphone":3381,"ĠSuccesfully":3382,"\"',":3383,"Lice":3384,"sign":3385,"Ġ{},":3386,"quotation":3387,"Ġhospital":3388,"assetInfo":3389,"transactions":3390,"vided":3391,"ĠngoKey":3392,"ĠVotableItem":3393,"ĠGenerate":3394,"PrototypeOf":3395,"JEC":3396,"dr":3397,"ma":3398,"Ġmax":3399,"Ġold":3400,"ĠCompany":3401,"userType":3402,"Proposal":3403,"Ġvoters":3404,"ECD":3405,"enc":3406,"ost":3407,"seconds":3408,"ĠqueryDonation":3409,"acy":3410,"CompanyID":3411,"gradCoins":3412,"firm":3413,"ECDSA":3414,"25":3415,"Sale":3416,"patent":3417,"instance":3418,"was":3419,"jsonRecord":3420,"Ġbeing":3421,"GetAllAssets":3422,"STANTS":3423,"Pharm":3424,"fn":3425,"qMsg":3426,"studentId":3427,"Ġcup":3428,"eslab":3429,"alty":3430,"Ġmin":3431,"receiv":3432,"Ġ[\"":3433,"ĠSimple":3434,"env":3435,"Ġsec":3436,"MSPId":3437,"Logging":3438,"ngoQuery":3439,"ĠngoQuery":3440,"Length":3441,"Sync":3442,"Queues":3443,"ĠqueryDonorRatingsForNGO":3444,"eslabon":3445,"!');":3446,"Description":3447,"access":3448,"ello":3449,"plate":3450,"ody":3451,"ability":3452,"Listing":3453,"Ġdoesn":3454,"(\"./":3455,"ĠmockEngine":3456,"upply":3457,"transient":3458,"CC":3459,"Emit":3460,"Schema":3461,"ĠToken":3462,"ĠvalAsBytes":3463,"orator":3464,"Ġ'-":3465,"ultis":3466,"yte":3467,"ĠĉĉĠĠĠ":3468,"care":3469,"conc":3470,"rade":3471,"models":3472,"ealthcare":3473,"obileNumbers":3474,"ultisig":3475,"BS":3476,"Pay":3477,"ĉčĊ":3478,"Ġ7":3479,"Ġ8":3480,"Ġurl":3481,"Ġpaid":3482,"ĠgetAsset":3483,"mockEngine":3484,"Updated":3485,"108":3486,".\");":3487,"AP":3488,"distributor":3489,"ĠTimeStamp":3490,"++){":3491,"validate":3492,"TING":3493,"apply":3494,"Ġvalidate":3495,"candidateID":3496,"Parsed":3497,"vestment":3498,"2000":3499,"Action":3500,"Candidate":3501,"isc":3502,"ĠhierarchyKey":3503,"ĠPharm":3504,"Ġitems":3505,"ormal":3506,"Ġrewire":3507,"Ġprotocol":3508,"55":3509,"FID":3510,"VAL":3511,"pledge":3512,"Ġss":3513,"ĠgetState":3514,"ĠLogger":3515,"Ġraw":3516,"roll":3517,"sent":3518,"Keys":3519,"Ins":3520,"Invoice":3521,"001":3522,"orderNumber":3523,"inding":3524,"Ġ1000":3525,"ĠMSG":3526,"Ġadding":3527,"registered":3528,"ĠfinanceCo":3529,"Ġapprove":3530,"aadhar":3531,"ook":3532,"ere":3533,"Ġparameters":3534,"ĠassetString":3535,"assetString":3536,"ĠsearchKey":3537,"accepted":3538,"container":3539,"Ġrole":3540,"'s":3541,"17":3542,"23":3543,"Ġnetwork":3544,"oles":3545,"ĠqueryNGO":3546,"Quantity":3547,"material":3548,"alledBusinessNetwork":3549,"Exiting":3550,"invokeChaincode":3551,"ipher":3552,"CATE":3553,"Symbol":3554,"(-":3555,"Bid":3556,"Money":3557,"cm":3558,"cage":3559,"max":3560,"ood":3561,"wit":3562,"Ġusers":3563,"Struct":3564,"ollow":3565,"eds":3566,"Ġbank":3567,"temp":3568,"ĠĉĉĉĉĠĠĠĠ":3569,"available":3570,"vote":3571,"ĠsellerCRN":3572,"Ġoriginal":3573,"Return":3574,"Operator":3575,"Rate":3576,"YDV":3577,"aiting":3578,"iem":3579,"ĠDe":3580,"ĠHelper":3581,"ubECDSA":3582,"ules":3583,"ĠcandidateID":3584,"EXIS":3585,"1609":3586,"Viewer":3587,"aitingList":3588,"16095":3589,"lists":3590,"erialize":3591,"Ġinc":3592,"ĠcreateAsset":3593,"ĠcurrentBalance":3594,"companyCRN":3595,"ĠupdatedAssetInfo":3596,"deserialize":3597,"getCurrentUserId":3598,"ĠSimpleChaincode":3599,"Curr":3600,"RM":3601,"]+":3602,"cce":3603,"lan":3604,"rint":3605,"ual":3606,"ĠName":3607,"ĠmspId":3608,"ĠgetMetadata":3609,"ĠvalueInt":3610,"ĠPatient":3611,"ĠexampleMetadata":3612,"ĠRequest":3613,"acility":3614,"Ġapplication":3615,"Ġsubmit":3616,"HoldValue":3617,"ecute":3618,"05":3619,"HA":3620,"Iz":3621,"mspid":3622,"ĠpromiseOfIterator":3623,"untime":3624,"Ġverifier":3625,"ĠMyContract":3626,"Weigth":3627,"wib":3628,"Ġ],":3629,"Ġentity":3630,"ĠComp":3631,"ĠComm":3632,"Ġfollow":3633,"Ġstudent":3634,"existing":3635,"entity":3636,"Ġ[],":3637,"contractInstance":3638,"Ġprop":3639,"Method":3640,"Ġrequester":3641,"Ġreceived":3642,"ublisher":3643,"expiredAt":3644,"wibble":3645,"ING":3646,"MON":3647,"point":3648,"random":3649,"sFor":3650,"edProposal":3651,"Ġstatic":3652,"Ġpermission":3653,"ĠclientTravel":3654,"Command":3655,"shipperId":3656,"Ġinitialized":3657,"PA":3658,"Smart":3659,"cal":3660,"su":3661,"replace":3662,"irection":3663,"QueryState":3664,"liver":3665,"propertyKey":3666,"ĠcompositeKey":3667,"!!!!":3668,"-*":3669,"Runtime":3670,"Title":3671,"stination":3672,"Ġact":3673,"Ġtag":3674,"Ġmark":3675,"fromChar":3676,"ĠstudentId":3677,"ĠSe":3678,"Ġonly":3679,"myCollection":3680,"propertyId":3681,"ĠtransientMap":3682,"ĠNodeUtils":3683,"EXISTING":3684,"ĠgetMetadataStub":3685,"fromCharCode":3686,"44":3687,"ES":3688,"Or":3689,"Ġyear":3690,"ĠfuncAndParams":3691,"txQueues":3692,"produ":3693,"ErrorMsg":3694,"MsgResponse":3695,"verage":3696,"compositeKey":3697,"ĠproductAsBytes":3698,"offeeAsBytes":3699,"Ġretailer":3700,"Ġmedicine":3701,"ENO":3702,"KoZ":3703,"YI":3704,"mssv":3705,"ws":3706,"itr":3707,"mend":3708,"uration":3709,"ĠĉĠĠĠ":3710,"ĠAlloc":3711,"Ġinst":3712,"ĠReference":3713,"Ġarr":3714,"UGH":3715,"ighest":3716,"transientMap":3717,"Izj":3718,"MONEY":3719,"ENOUGH":3720,"KoZIzj":3721,"24":3722,"GA":3723,"Medic":3724,"Sub":3725,"WAR":3726,"base":3727,"Ġwas":3728,"stock":3729,"Ġapproved":3730,"ĠoperationId":3731,"charg":3732,"hash":3733,"Ġadded":3734,"ACK":3735,"moneyBytes":3736,"FileStub":3737,"Ġfish":3738,"ĠserviceProto":3739,"Ġpayout":3740,"TLS":3741,"descri":3742,"dummy":3743,"mspId":3744,"device":3745,"Ġfail":3746,"orders":3747,"ancel":3748,"Logged":3749,"Ġtxn":3750,"ĠpurchaseOrder":3751,"ĠĠĠĠĠĠĠĠĠĠĠĠĠĠĠĠĠĠĠĠĠĠĠĠĠĠĠĠĠĠĠĠĠĠĠ":3752,"ĠaadharId":3753,"medicine":3754,"CORE":3755,"itration":3756,"36":3757,"Chain":3758,"ason":3759,"num":3760,"Ġ]);":3761,"leng":3762,"ingle":3763,"Input":3764,"txn":3765,"Ġworld":3766,"(\"========":3767,"icom":3768,"Logist":3769,"vide":3770,"AccountID":3771,"Users":3772,"witch":3773,"describe":3774,"Logistic":3775,"26":3776,"76":3777,"Bookmark":3778,"VE":3779,"fig":3780,"ich":3781,"yId":3782,"Ġresp":3783,"ĠĠĠĠĠĠĠĠĠčĊ":3784,"Deposit":3785,"Ġcomposer":3786,"electionId":3787,"getMetadataStub":3788,"Ġ\\''":3789,"Weight":3790,"az":3791,"Ġcom":3792,"ĠcurrElection":3793,"Ġ'\\'":3794,"getPrototypeOf":3795,"ĠAvailable":3796,"air":3797,"Ġ\"$":3798,"Functionality":3799,"arameter":3800,"Orders":3801,"drugObject":3802,"Ġvotable":3803,"hasOwnProperty":3804,"Container":3805,"Ġauthorized":3806,"Policy":3807,"bserver":3808,"helper":3809,"jA":3810,"job":3811,"wC":3812,"ĠTo":3813,"ĠNo":3814,"sel":3815,"look":3816,"Ġregen":3817,"eratorRuntime":3818,"upgradCoins":3819,"updatedAt":3820,"ĠclientId":3821,"ERTI":3822,"Ġorganization":3823,"FICATE":3824,"AsByte":3825,"lookup":3826,"ĠregeneratorRuntime":3827,"ERTIFICATE":3828,"Te":3829,"yalty":3830,"alRecord":3831,"recon":3832,"lood":3833,"thing":3834,"()=>{":3835,"dataMarshall":3836,"UserObject":3837,"InfoFromContract":3838,"Ġcontext":3839,"Ġloads":3840,"pproval":3841,"Empty":3842,"Gre":3843,"MT":3844,"Zero":3845,"bc":3846,"bank":3847,"customer":3848,"fund":3849,"ow":3850,"txid":3851,"Trade":3852,"ĠgetDonationsForNGO":3853,"AssetContract":3854,"ĠisFin":3855,"dential":3856,"Ġuni":3857,"ĠrecordCounter":3858,"Search":3859,"productId":3860,"1234":3861,"Ġprocessline":3862,"License":3863,"availableAmountForDonor":3864,"ĠAllocating":3865,"ĠisFinite":3866,"14":3867,"500":3868,"775":3869,"='":3870,"AZ":3871,"If":3872,"ien":3873,"rules":3874,"erID":3875,"ĠClass":3876,"logistic":3877,"activity":3878,"Ġreport":3879,"Ġsid":3880,"ĠassetAsBytes":3881,"userName":3882,"userList":3883,"Ġdebt":3884,"ĠRevision":3885,"ĠDirection":3886,"transporterCRN":3887,"ĠloadId":3888,"ĠShim":3889,"ĠsourceIP":3890,"ĠsourcePort":3891,"ĠdestIP":3892,"ĠdestPort":3893,"ĠRuleOwner":3894,"Ġcreating":3895,"ĠClassType":3896,"En":3897,"gin":3898,"ĠVoter":3899,"getUser":3900,"trim":3901,"Profile":3902,"assertAttributeValue":3903,"MsgQueueHandler":3904,"Attrs":3905,"Utility":3906,"productID":3907,"Ġlab":3908,"ĠretailerCRN":3909,"Ġvalues":3910,"Course":3911,"IB":3912,"NU":3913,"PL":3914,"PRE":3915,"by":3916,"doc":3917,"hb":3918,"rate":3919,"arision":3920,"inh":3921,"send":3922,"anitize":3923,"getLogger":3924,"ĠparseResponse":3925,"ForComp":3926,"cond":3927,"ĠĠĠĠĠĠĠĠĠĠĠĠĠĠ":3928,"newLogger":3929,"Ġprovider":3930,"lag":3931,"queue":3932,"Ġcurrently":3933,"Allocations":3934,"2019":3935,"Ġsucce":3936,"GetStateMetadata":3937,"STATE":3938,"ĠRuleAction":3939,"super":3940,"Ġdebtor":3941,"anitizeArgs":3942,"ForComparision":3943,")}`);":3944,"=\"":3945,">',":3946,"AT":3947,"Aadhar":3948,"BACK":3949,"MP":3950,"Vaccine":3951,"encrypt":3952,"sv":3953,"student":3954,"alleng":3955,"ĠElection":3956,"getCreator":3957,"Ġswitch":3958,"ous":3959,"002":3960,"BufferArgs":3961,"contractName":3962,"Ġutils":3963,"ĠuserID":3964,"readFile":3965,"ĠqueryAllDonations":3966,"Attributes":3967,"chaiAsPromised":3968,"Upper":3969,"ĠchaiAsPromised":3970,"MAL":3971,"ĠpropertyObject":3972,"Ġenergy":3973,"offers":3974,"ĠqueryAllSpendAllocations":3975,"ĠquerySpendAllocationForSpend":3976,"ĠJoi":3977,"encode":3978,"-*-*":3979,":[":3980,"DB":3981,"Distributor":3982,"Manufacturer":3983,"misc":3984,"tcp":3985,"Ġlicense":3986,"inated":3987,"alert":3988,"ĠĉĠ":3989,"person":3990,"Ġflow":3991,"ĠqueryDonations":3992,"Ġ(!!":3993,"loads":3994,"voices":3995,"ten":3996,"ĠĠĠĠĠĠĠĠĠĠĠčĊ":3997,"ResultFrom":3998,"Ġproposal":3999,"Dec":4000,"RNAL":4001,"TERNAL":4002,"anager":4003,"commodity":4004,"EXTERNAL":4005,"ĠMyAssetContract":4006,"Ġpaginated":4007,"Market":4008,"DOOR":4009,"HOME":4010,"receiver":4011,"Ġ'->',":4012,"WARE":4013,"ruleset":4014,"BACKDOOR":4015,"MALWARE":4016,"ResultFromBytes":4017,"Allowed":4018,"schemas":4019,"ĠState":4020,"eta":4021,"attr":4022,"Ġreq":4023,"ĠqueryRatingsForNGO":4024,"ĠqueryDonationsForNGO":4025,"gender":4026,"ccKey":4027,"ĠgetAll":4028,"Functions":4029,"userID":4030,"ĠuserAsset":4031,"invokeFunctionality":4032,"Ġnow":4033,"ĠshipmentKey":4034,"ĠshipmentObject":4035,"ĠquerySpendForNGO":4036,"Split":4037,"phone":4038,"ĠquerySpendAllocationForDonation":4039,"ĠpeerOrg":4040,"SmartContract":4041,"ĠqueryDonationsForDonor":4042,"match":4043,"mca":4044,"qaz":4045,"rc":4046,"ĠSt":4047,"ĠThe":4048,"arget":4049,"anies":4050,"()};":4051,"setChaincodeStub":4052,"----------------":4053,"ĠWorm":4054,"7597":4055,"phan":4056,"diem":4057,"'}));":4058,"98775":4059,"ĠQAZ":4060,"hsq":4061,"ĠLogin":4062,"Doctor":4063,"wsx":4064,"mcafee":4065,"qazwsx":4066,"49":4067,"Dave":4068,"LL":4069,"Location":4070,"Plan":4071,"Ġ''":4072,"Ġocc":4073,"toUpper":4074,"Ġblock":4075,"ouse":4076,"parseInt":4077,"\":{":4078,"spender":4079,"Receiver":4080,"ĠpropertyId":4081,"sellerData":4082,"ClientId":4083,"submit":4084,"content":4085,"ANS":4086,"Passenger":4087,"ĠSeller":4088,"toUpperCase":4089,"!'));":4090,"={":4091,"md":4092,"mmend":4093,"Ġ9":4094,"ĠMap":4095,"quipment":4096,"Ġrece":4097,"edBytes":4098,"Remove":4099,"ĠamountInt":4100,"ĠcreatedAt":4101,"InfoObj":4102,"someFn":4103,"Events":4104,"ĠhandleMessage":4105,"fiId":4106,"requesterId":4107,"PerPassenger":4108,"FIX":4109,"CurrentBalanceBytes":4110,"dition":4111,"cieverBalance":4112,"Ve":4113,"]};":4114,"dating":4115,"ffil":4116,"yc":4117,"ĠUpdate":4118,"attrs":4119,"sha":4120,"aming":4121,"Ġ[]);":4122,"ild":4123,"drugList":4124,"ĠMath":4125,"Ġrequested":4126,"fgDate":4127,"AwI":4128,"IfEmpty":4129,"\"].":4130,"77":4131,"DigitalAsset":4132,"Man":4133,"ield":4134,"lation":4135,"rs":4136,"Ġship":4137,"report":4138,"system":4139,"ĠsimPublicKey":4140,"ĠqueryAllDonor":4141,"propertyObject":4142,"ĠpropertyKey":4143,"cast":4144,"profileId":4145,"Ġlot":4146,"digest":4147,"onthly":4148,"sumption":4149,"Ġ===========\");":4150,"ighestOffer":4151,"ĠqueryAllDonors":4152,">=":4153,"CE":4154,"EMR":4155,"Mint":4156,"ised":4157,"lay":4158,"title":4159,"eting":4160,"Ġclear":4161,"Ġconfirm":4162,"Ġexpecting":4163,"queryBy":4164,"Ġdes":4165,"Ġsmart":4166,"Ġtopic":4167,"ĠgetLogger":4168,"003":4169,"Ġhelper":4170,"prop":4171,"']];":4172,"ĠqueryAllNGO":4173,"organID":4174,"ĠtxID":4175,"fakepath":4176,"ĠcommodityId":4177,"ĠqueryAllNGOs":4178,",'":4179,"App":4180,"MI":4181,"simPublicKey":4182,"yp":4183,"Ġ$":4184,"ĠlastName":4185,"Ġep":4186,"Ġfull":4187,"ResultsParse":4188,"ĠgetTxID":4189,"ĠgetCreator":4190,"TransferRequest":4191,"Fore":4192,"Ġproofit":4193,"endKey":4194,"iration":4195,"('#_":4196,"initLogging":4197,"ĠproductId":4198,"appointment":4199,"ĠfirstName":4200,"-'+":4201,"Ġuuids":4202,"decimals":4203,"Ġwrite":4204,"ultisigTransferRequest":4205,"HAIN":4206,"AME":4207,"END":4208,"Mobile":4209,"PerC":4210,"Tw":4211,"core":4212,"clear":4213,"scri":4214,"Ġk":4215,"Ġbill":4216,"AssetOwner":4217,"ValueId":4218,"ĠkeyMod":4219,"duction":4220,"SER":4221,"ĠMessage":4222,"Seconds":4223,"Ġcomponents":4224,"Ġwrong":4225,"PROJEC":4226,"ffiliation":4227,"PerCent":4228,"PROJECT":4229,"(...":4230,"-${":4231,"64":4232,"Brie":4233,"Put":4234,"WaitingList":4235,"cor":4236,"Ġcash":4237,"Ġchairs":4238,"internalGetStateByRange":4239,"Ġmanufact":4240,"reated":4241,"ĠinternalGetStateByRange":4242,"AndSend":4243,"ĠĉĉĉĉĠĠĠ":4244,"CurrentAndSend":4245,"Miss":4246,"Voting":4247,"NextMsg":4248,"ERY":4249,"ĠelectionData":4250,"ifiedBy":4251,"serializers":4252,"Ġmatches":4253,"ĠTests":4254,"Ġpagesize":4255,"Ġcreditor":4256,"onthlyFore":4257,"Brief":4258,"CurrentAndSendNextMsg":4259,"onthlyForecast":4260,"58":4261,"ST":4262,"case":4263,"æķ":4264,"Ġeslabon":4265,"Ġprefix":4266,"rower":4267,"ado":4268,"Req":4269,"lause":4270,"Def":4271,"ĠpatientID":4272,"ĠsellerData":4273,"Ġsymbol":4274,"instanceOf":4275,"produc":4276,"Ġsucceed":4277,"æķ°":4278,"AD":4279,"KEY":4280,"Paid":4281,"]});":4282,"firstName":4283,"oRegistered":4284,"pla":4285,"rb":4286,"ral":4287,"Ġus":4288,"input":4289,"Ġrule":4290,"remove":4291,"Ġcolors":4292,"assetTransfer":4293,"proofit":4294,"Initiator":4295,"ĠbuyerId":4296,"inition":4297,"initial":4298,"CurrentState":4299,"ĠsetLevel":4300,"ĠpoID":4301,"objectType":4302,"engers":4303,"SenderBalance":4304,"rieve":4305,"Organization":4306,"hocphan":4307,"processContractTransactions":4308,"http":4309,"oratory":4310,"*');":4311,"Doc":4312,"Ss":4313,"rn":4314,"Ġamt":4315,"Ġtrade":4316,"Recon":4317,"1002":4318,"ĠtransactionId":4319,"ĠRegnet":4320,"purchase":4321,"ipient":4322,"ĠDN":4323,"defaultTo":4324,"(\"=============":4325,"PREFIX":4326,"ypes":4327,"Definition":4328,"CHAIN":4329,"Module":4330,"dPayload":4331,"ĠTransaction":4332,"inJSON":4333,"ateg":4334,"ferral":4335,"ther":4336,"logs":4337,"ĠassetState":4338,"ContractName":4339,"CompositeKeyFor":4340,"energy":4341,"InfoinJSON":4342,"ĠManufacturer":4343,"productAsBytes":4344,"currentOwner":4345,"issing":4346,"defaultContractName":4347,"ĠexpDate":4348,"Ġspec":4349,"SigningId":4350,"Note":4351,"itizen":4352,"prev":4353,"readFileSync":4354,"Act":4355,"Customer":4356,"Names":4357,"Poc":4358,"PER":4359,"ak":4360,"global":4361,"sanitizeArgs":4362,"ting":4363,"ĠString":4364,"orse":4365,"Ġauction":4366,"getAsset":4367,"getResultFromBytes":4368,"Ġpharm":4369,"resident":4370,"edAsset":4371,"exit":4372,"orrection":4373,"Ġ========');":4374,"ĠidBytes":4375,"listOfAssets":4376,"licence":4377,"andidates":4378,"common":4379,"ĠAdded":4380,"Ġagent":4381,"LicensePlate":4382,"allenge":4383,"Vehicle":4384,"\"+":4385,"QU":4386,"version":4387,"Str":4388,"topic":4389,"Ġpoll":4390,"utes":4391,"codedPayload":4392,"Ġinvestment":4393,"assetList":4394,"createLogger":4395,"dataID":4396,"DecodedPayload":4397,"ĠPlease":4398,"Ġpatients":4399,"handleMsgResponse":4400,"NewErrorMsg":4401,"ĠQueryAssets":4402,"ĠqMsg":4403,"registrationId":4404,"files":4405,"ĠHelpers":4406,"CompositeKeyForSearch":4407,"300":4408,"Full":4409,"]),":4410,"fc":4411,"gn":4412,"more":4413,"pa":4414,"yect":4415,"za":4416,"ĠclientIdentity":4417,"ats":4418,"Ġac":4419,"ĠnewValue":4420,"ĠCON":4421,"ĠCERTIFICATE":4422,"Ġreference":4423,"Ġsvinfo":4424,"ireBuffer":4425,"Inter":4426,"returned":4427,"ĠcreateUser":4428,"Ġfood":4429,"ObjectType":4430,"book":4431,"Provided":4432,")),":4433,"Ġ`${":4434,"ĠShipment":4435,"Ġupdating":4436,"Pending":4437,"PutState":4438,"Be":4439,"Old":4440,"Vien":4441,"ces":4442,"normal":4443,"vin":4444,"ĠRE":4445,"ored":4446,"ities":4447,"ĠpublicKey":4448,"ĠCh":4449,"Ġdocument":4450,"Ġign":4451,"Ġwinston":4452,"AndEmit":4453,"pping":4454,"eeded":4455,"ĠsellerId":4456,"ĠorganID":4457,"pens":4458,"accination":4459,"Ġlogistics":4460,"votableId":4461,"AndEmitResult":4462,".';":4463,"3000":4464,"Cp":4465,"Wh":4466,"YW":4467,"document":4468,"tsSec":4469,"chi":4470,"change":4471,"mport":4472,"oupon":4473,"Reflect":4474,"Ġiterate":4475,"iles":4476,"Iter":4477,"ĉĉĉĉ":4478,"ĠcallerId":4479,"iven":4480,"Ġcommunity":4481,"ĠProcess":4482,"ĠtsSecValue":4483,"Ġreward":4484,"sellerCRN":4485,"Missing":4486,"tsSecValue":4487,"CN":4488,"IU":4489,"Opts":4490,"cart":4491,"cash":4492,"rl":4493,"syncIterator":4494,"odeled":4495,"Ġremove":4496,"ĠqueryWithQueryString":4497,"Ids":4498,"assetToTransfer":4499,"created":4500,"iry":4501,"9999":4502,"counter":4503,"govOrg":4504,"ĠupdatedAsset":4505,"ĠcheckNumber":4506,"updatedAsset":4507,"ROLE":4508,"UsingA":4509,"Ġdecrypt":4510,"Material":4511,"ĠPharmanet":4512,"voicesBytes":4513,"Ġreceive":4514,"UsingAsyncIterator":4515,"31":4516,"EN":4517,"OString":4518,"Some":4519,"bm":4520,"class":4521,"description":4522,"eed":4523,"module":4524,"operator":4525,"Ġquotation":4526,"Ġrate":4527,"redential":4528,"delivery":4529,"toIS":4530,"ĠcoloredAsset":4531,"ordin":4532,"Ġinvalid":4533,"Ġ11":4534,"lic":4535,"readMyAsset":4536,"Default":4537,"Exp":4538,"TER":4539,"Logs":4540,"finish":4541,"ĠDummy":4542,"ĠQueryUtils":4543,"ĠcourseId":4544,"formation":4545,"rollment":4546,"condCall":4547,"toISOString":4548,"ĠcoloredAssetResultsIterator":4549,")+":4550,"<%=":4551,"Citizen":4552,"Hospital":4553,"Wr":4554,"`,":4555,"Ġx":4556,"Ġuid":4557,"Ġcipher":4558,"Ġtod":4559,"ĠmfgDate":4560,"deposit":4561,"Ġoperator":4562,"ĠCRM":4563,"Ġfn":4564,"ĠqueryContent":4565,"Destination":4566,"ĠreturnedBuyer":4567,"},'":4568,"DrugDetails":4569,"field":4570,"ĠmatchPerCent":4571,"ParseResponse":4572,"btObj":4573,"decodeStub":4574,"ĠcupCoffee":4575,"!';":4576,"El":4577,"Temp":4578,"nPaper":4579,"ĠK":4580,"essel":4581,"Ġ'-----":4582,"Ġmissing":4583,"Ġopen":4584,"Ġpre":4585,"Ġpallet":4586,"Ġpolicy":4587,"Ġehr":4588,"Ġsingle":4589,"Ġbook":4590,"Ġ},{":4591,"ĠdonationAmount":4592,"elta":4593,"Argument":4594,"Ġtransport":4595,"10000":4596,"ĠRegister":4597,"Selector":4598,"ĠhistoryIter":4599,"Ġmatching":4600,"Ġfollowed":4601,"ATTR":4602,"ategory":4603,"Eve":4604,"Mx":4605,"Manager":4606,"Pacient":4607,"SH":4608,"TMC":4609,"aW":4610,"ners":4611,"ted":4612,"ud":4613,"vices":4614,"Ġcoin":4615,"ativity":4616,"Ġ}));":4617,"(',":4618,"Ġthan":4619,"ĠreturnObj":4620,"Ġprescription":4621,"ĠCredit":4622,"Ġinstance":4623,"Ġexport":4624,"StubA":4625,"omor":4626,"rule":4627,"agement":4628,"responseMetadata":4629,"organization":4630,"DrugCurrentState":4631,"LED":4632,"participant":4633,"updatedAssetInfo":4634,"minter":4635,"secret":4636,"Ġparty":4637,"::{":4638,"FnStubA":4639,"Management":4640,"\"))":4641,"@@":4642,"Operation":4643,"Types":4644,"WireBuffer":4645,"awr":4646,"ajv":4647,"dation":4648,"farmer":4649,"ked":4650,"points":4651,"zE":4652,"Ġpe":4653,"arvest":4654,"Ġ'');":4655,"Ġten":4656,"ĠĉĠĠ":4657,"Ġplace":4658,"ĠChaincodeError":4659,"ĠchangeCar":4660,"elds":4661,"Ġalpha":4662,"Chi":4663,"ĠAssetExists":4664,"ario":4665,"ĠelectionStart":4666,"ĠelectionEnd":4667,"currentBalance":4668,"Config":4669,"NodeUtils":4670,"CDelta":4671,"CHAINCODE":4672,"awrap":4673,"04":4674,"Cc":4675,"Close":4676,"FirstName":4677,"Job":4678,"LO":4679,"RA":4680,"Url":4681,"YC":4682,"][":4683,"earn":4684,"gmail":4685,"ĠIterator":4686,"Ġcode":4687,"itu":4688,"Ġmed":4689,"reed":4690,"arbitration":4691,"ĠBlock":4692,"Ġfunc":4693,"OwnerId":4694,"0001":4695,"ownerName":4696,"OnMarket":4697,"ĠorderNumber":4698,"Ġready":4699,"ĠcompanyKey":4700,"RequestKey":4701,"Requested":4702,"Ġgrpc":4703,"requester":4704,"Person":4705,"pprove":4706,"Ġappointment":4707,"FIDtag":4708,"1609548":4709,"orsement":4710,"Raw":4711,"`)":4712,"eb":4713,"ne":4714,"payment":4715,"prescription":4716,"}/":4717,"ĠStart":4718,"ater":4719,"ĠBallot":4720,"iderId":4721,"Ġexpects":4722,"ĠdataMarshall":4723,"asic":4724,"splice":4725,"Ġwithout":4726,"balanceKey":4727,"balancePrefix":4728,"Ġcontact":4729,"ACTION":4730,"ĠorganToTransfer":4731,"ĠexpectedResponse":4732,"picked":4733,"Using":4734,"ĠaadharNumber":4735,"ĠcustomerAadhar":4736,"layer":4737,"ĠRegnetHelper":4738,"Ccfc":4739,"21":4740,"66":4741,"EG":4742,"Purchase":4743,"USER":4744,"coins":4745,"poll":4746,"Ġli":4747,"==\"":4748,"lex":4749,"======":4750,"Ġmspid":4751,"Ġmssv":4752,"ĠmspID":4753,"Ġparameter":4754,"Ġenc":4755,"trade":4756,"ĠgetArgs":4757,"returnAsBytes":4758,"ĠtheModule":4759,"ĠcreateShipment":4760,"orderStatus":4761,"Without":4762,"Provider":4763,"dataOwner":4764,"Device":4765,"Ġrecords":4766,"BalanceKey":4767,"chairs":4768,"Ġallocated":4769,"Ġ1002":4770,"Updation":4771,"ĠcompanyID":4772,"ĠrequesterId":4773,"ĠclientCarOwner":4774,"Ġlogs":4775,"ERC":4776,"handleMessage":4777,"buyerData":4778,"ĠassetJSONasBytes":4779,"electionData":4780,"Ġyield":4781,"Ġsubj":4782,"Ġdecimals":4783,"bidPrice":4784,"zzzzzzzz":4785,"UpdatedBalance":4786,"livered":4787,"ĠcurrElections":4788,"corr":4789,"itude":4790,"29":4791,"Lab":4792,"author":4793,"ding":4794,"gYI":4795,"ise":4796,"supplier":4797,"target":4798,"ä¸":4799,"Ġmore":4800,"ĠEngine":4801,"Ġtruck":4802,"Ġsupply":4803,"(\"../":4804,"ĠmockStream":4805,"Ġdevice":4806,"transactionId":4807,"achine":4808,"ISTOR":4809,"ĠProfile":4810,"approval":4811,"processContractInfo":4812,"ourses":4813,"wCgYI":4814,"ISTORY":4815,"07":4816,"47":4817,"Ap":4818,"Diem":4819,"So":4820,"ĠI":4821,"onIterator":4822,"instantiate":4823,"Resp":4824,"getTime":4825,"getCompany":4826,"trader":4827,"()',":4828,"Ġstr":4829,"Ġ\"\",":4830,"deleteAllResults":4831,"FunctionName":4832,"Ġinitiator":4833,"ĠdonationInfo":4834,"']))":4835,"spendPerDonation":4836,"BalanceVal":4837,"\"}'":4838,"myvalue":4839,"splitFunctionName":4840,"patients":4841,"ĠspendAllocationRecord":4842,"spendAllocationRecord":4843,"Lease":4844,"Ġjason":4845,"ĠĠĠĠĠĠĠĠĠĠĠĠĠčĊ":4846,"priceBalance":4847,"options":4848,"Payout":4849,"ĠCONSTANTS":4850,"WithoutAttrs":4851,"Age":4852,"Approved":4853,"IC":4854,"VENT":4855,"lations":4856,"main":4857,"Ġshipper":4858,"Ġtong":4859,"toLoc":4860,"rix":4861,"entry":4862,"=====');":4863,"ĠstartTime":4864,"================================":4865,"ĠPO":4866,"ĠunknownTransaction":4867,"ĠreadAsset":4868,"TRANS":4869,"SoChi":4870,"Bs":4871,"Equal":4872,"Right":4873,"TX":4874,"cN":4875,"cipient":4876,"ehr":4877,"mobileNumbers":4878,"pag":4879,"uation":4880,"udit":4881,"Ġ){":4882,"ĠUtility":4883,"invalid":4884,"('_":4885,"seats":4886,"Ġoption":4887,"loan":4888,"ĠBasic":4889,"Ġreview":4890,"Ġtrader":4891,"Ġsp":4892,"parsed":4893,"userid":4894,"ication":4895,"Loan":4896,"ĠccArgs":4897,"Errorf":4898,"InvokeChaincode":4899,"votableItem":4900,"handleQueryState":4901,"donorQuery":4902,"partner":4903,"passengers":4904,"Offerta":4905,"]:*');":4906,"modifiedBy":4907,"toLocale":4908,"MQ":4909,"SU":4910,"coin":4911,"face":4912,"iang":4913,"ov":4914,"pubECDSA":4915,"ĠYou":4916,"Ġnt":4917,"getH":4918,"ulty":4919,"Ġresource":4920,"chat":4921,"Ġdi":4922,"reshold":4923,"(){":4924,"()}`);":4925,"Ġ=============');":4926,"ĠIns":4927,"RecordsCount":4928,"ĠSCDelta":4929,"createAndEmitResult":4930,"ava":4931,"Ġvoting":4932,"atures":4933,"aculty":4934,"ĠbuyerKey":4935,"TIENT":4936,"ALSE":4937,"ĠqueryAllSpends":4938,"TotalSupply":4939,"payable":4940,"Ġsecret":4941,"YDVR":4942,"ĠDummyData":4943,"depositBalance":4944,"toLocaleString":4945,"':'":4946,"38":4947,"Acc":4948,"Ajv":4949,"Ctr":4950,"Land":4951,"NAME":4952,"ft":4953,"find":4954,"host":4955,"hello":4956,"man":4957,"pace":4958,"tin":4959,"}).":4960,"Ġorders":4961,"atistic":4962,"Ġtreated":4963,"ĠEMR":4964,"ĠnewMember":4965,"Ġreturning":4966,"Ġpatent":4967,"ĠBuyer":4968,"ByTravel":4969,"emper":4970,"ĠuserType":4971,"ĠchaincodeName":4972,"mockNewErrorMsg":4973,"dataViewer":4974,"ĠerrorMessage":4975,"InitSpy":4976,"TransactionSpy":4977,"GetCurr":4978,"ngoKey":4979,"CompanyBuffer":4980,"ĠbuyerData":4981,"output":4982,"Controller":4983,"ĠregisterCompany":4984,"ĠexistingDrug":4985,"ĠdonorQuery":4986,"ecuted":4987,"Ġcreation":4988,"InfoFromContractStub":4989,"FullYear":4990,"Ġtoday":4991,"tinchi":4992,"GetCurrMsg":4993,"FALSE":4994,"Parameters":4995,"Public":4996,"iSmartContract":4997,"public":4998,"publisher":4999,"uring":5000,"Ġcancel":5001,"Ġmo":5002,"Ġretrieve":5003,"Ġduration":5004,"entryp":5005,"ĠstringArr":5006,"chaincodeName":5007,"shipmentKey":5008,"LETED":5009,"Ġfields":5010,"ĠGET":5011,"uncAndPar":5012,"Passengers":5013,"ĠComposer":5014,"Ġactive":5015,"Ġoccured":5016,"scriber":5017,"producerId":5018,"Interface":5019,"entrypoint":5020,"\").":5021,"Bh":5022,"QQ":5023,"WN":5024,"block":5025,"house":5026,"ike":5027,"ron":5028,"uate":5029,"ĠĠĠĠĉ":5030,"aler":5031,"Ġne":5032,"ubKey":5033,"getFullYear":5034,"Ġout":5035,"permission":5036,"Ġdm":5037,"Ġdoc":5038,"execute":5039,"ĠgetHistory":5040,"ĠgetTransient":5041,"ĠInfo":5042,"ĠInvoice":5043,"createKey":5044,"responseTx":5045,"Ġattr":5046,"dataset":5047,"Delivery":5048,"NGTH":5049,"Created":5050,"Partners":5051,"FiIndexKey":5052,"Ġgiven":5053,"ĠĠĠĠĠĠĠĠĠĠĠĠĠĠĠĠĠĠĠĠĠĠĠĠĠ":5054,"ĠĠĠĠĠĠĠĠĠĠĠĠĠĠĠĠĠĠĠĠĠĠĠĠĠĠĠĠĠ":5055,"LENGTH":5056,"ClientIndexKey":5057,"processnet":5058,"mapCfg":5059,"ERRORS":5060,"holdObj":5061,"SignedProposal":5062,"ĠaesCtr":5063,"https":5064,"waitingList":5065,"Ġsecure":5066,"ĠTimeStampTime":5067,"ĠTimeStampDate":5068,"Ġincome":5069,"ĠapplicationData":5070,"iryDate":5071,"participants":5072,"ĠjasonContent":5073,"Clear":5074,"IND":5075,"LOG":5076,"]]":5077,"fe":5078,"åı":5079,"arr":5080,"len":5081,"States":5082,"rew":5083,"getSeconds":5084,"Ġpayment":5085,"ĠAS":5086,"deleteMyAsset":5087,"CarClient":5088,"createMyAsset":5089,"startDate":5090,"erCount":5091,"enerCount":5092,"ĠuserObject":5093,"Ġdeleted":5094,"Exist":5095,"Ġunit":5096,"Contact":5097,"ĠviewDrugCurrentState":5098,"CONSTANTS":5099,"BgNVH":5100,"getMonth":5101,"approve":5102,"Ġinvoked":5103,"ĠoptsCp":5104,"ĠoptsCpy":5105,"93":5106,"CK":5107,"GIS":5108,"TU":5109,"kill":5110,"publicKey":5111,"Ġ;":5112,"ĠTr":5113,"ĠmobileNumbers":5114,"ĠdigitalAsset":5115,"Ġbody":5116,"ired":5117,"Ġ<%=":5118,"ĠĉĉĉĠĠĠ":5119,"ocki":5120,"orderList":5121,":'+":5122,"uyVan":5123,"ptor":5124,"balanceOf":5125,"resultAsBytes":5126,"ĠviewHistory":5127,"Ġsubject":5128,"Ġqty":5129,"lands":5130,"area":5131,"concat":5132,"AllowedUser":5133,"pagesize":5134,"emperature":5135,"!`);":5136,"\"},":5137,".\"":5138,"Fact":5139,"HR":5140,"Ind":5141,"SI":5142,"iep":5143,"lf":5144,"vert":5145,"Ġauth":5146,"Ġmain":5147,"Ġser":5148,"ĠassetC":5149,"ick":5150,"ĠdeleteAsset":5151,"UserKey":5152,"statusCode":5153,"GetQueryResultForQueryString":5154,"ĠbatchVaccine":5155,"ERT":5156,"Ġcompleted":5157,"Supplier":5158,"bufferTo":5159,"holder":5160,"303":5161,"304":5162,"VALID":5163,"Mobilenumber":5164,"arvestBatch":5165,"302":5166,"Ass":5167,"Buy":5168,"QMsg":5169,"Rule":5170,"engine":5171,"jb":5172,"ovOrg":5173,"}-${":5174,"=='":5175,"ĠcoffeeAsBytes":5176,"inutes":5177,"Ġallow":5178,"(''));":5179,"ĠmultisigTransferRequest":5180,"Ġfetch":5181,"Ġreferral":5182,"Ġsim":5183,"uni":5184,"Classes":5185,"newC":5186,"urrency":5187,"DataCollection":5188,"ĠmockContext":5189,"someKey":5190,"ĠPer":5191,"EventService":5192,"companyName":5193,"Requests":5194,"Transport":5195,"currentWeigth":5196,"batchCoffee":5197,"ĠĉĉĉĉĉčĊ":5198,"Coordin":5199,"Ġfield":5200,"ĠwalletBS":5201,"totalSupplyKey":5202,"totalSupplyBytes":5203,"ĠaadharNo":5204,"retailerCRN":5205,"ĠsellOrder":5206,"ĠtotalSupplyBytes":5207,"getMspID":5208,"PointsTransactionsKey":5209,"ĠTokenERC":5210,":[]});":5211,"AssetOwnership":5212,"Ġspecified":5213,"getResultFromBytesStub":5214,"ĠchangeCarowner":5215,"67":5216,"Binding":5217,"Document":5218,"crypto":5219,"ght":5220,"names":5221,"tc":5222,"erpoint":5223,"('',":5224,"Ġrating":5225,"registrar":5226,"getDate":5227,"txHelper":5228,"TransferFrom":5229,"Values":5230,"ersity":5231,"Ġhms":5232,"apper":5233,"Ġprod":5234,"Ġden":5235,"Ġdep":5236,"iversity":5237,"([{":5238,"ĠPayment":5239,"addr":5240,"command":5241,"Ġymd":5242,"Ġloan":5243,"CORD":5244,"Ġunique":5245,"Enrollment":5246,"purchaseOrder":5247,"pensation":5248,"Wrapper":5249,"Ġlimit":5250,"27":5251,"ATION":5252,"Affiliation":5253,"Bill":5254,"Bank":5255,"BUG":5256,"Flag":5257,"OU":5258,"Sim":5259,"Script":5260,"bi":5261,"body":5262,"kta":5263,"notar":5264,"pallet":5265,"ym":5266,"åĪ":5267,"Ġright":5268,"getBufferArgs":5269,"loop":5270,"foo":5271,"JSONasBytes":5272,"Ġreferred":5273,"ĠownerCarClient":5274,"Rece":5275,"ByUser":5276,"Component":5277,"contractAsJson":5278,"Ġprog":5279,"DEBUG":5280,"asket":5281,"AssetsByRange":5282,"ĠpatientFirstName":5283,"aidOrg":5284,"graduate":5285,"decrypt":5286,"sumer":5287,"LIENT":5288,"ĠreqJson":5289,"avaScript":5290,"301":5291,"Hello":5292,"Ig":5293,"PAR":5294,"funcAndParams":5295,"ĠEvent":5296,"Ġrest":5297,"Ġrelation":5298,"ĠgetAssetsFromBatch":5299,"entication":5300,"abnormal":5301,"upg":5302,"proposal":5303,"ĠcreateAssetsFromBatch":5304,"setState":5305,"ĠinitMoney":5306,"formatString":5307,"Production":5308,"ĠbuyOrder":5309,"initMoney":5310,"throwError":5311,"RequestList":5312,"ĉĉčĊ":5313,"PrivateAsset":5314,"Ġtokens":5315,"fish":5316,"Ġelections":5317,"provers":5318,"Ġline":5319,"Ġenter":5320,"ĠcreatedTime":5321,"design":5322,"ghiep":5323,"Projects":5324,"herlands":5325,"Ġleave":5326,"ĠformatString":5327,"Matrix":5328,"queryByObjectType":5329,"ĠCheck":5330,"EGIN":5331,"Element":5332,"ML":5333,"TT":5334,"tor":5335,"('@":5336,"ings":5337,"loye":5338,"food":5339,"tra":5340,"truck":5341,"resp":5342,"edH":5343,"txId":5344,"ĠassetJson":5345,"keyTo":5346,"Ġwill":5347,"Ġ250":5348,"agent":5349,"Than":5350,"calledTw":5351,"spenderId":5352,"Ġself":5353,"Shim":5354,"TheIssuer":5355,"shipmentObject":5356,"ĠcompanyObject":5357,"companyList":5358,"Ġgrade":5359,"Ġlogged":5360,"Ġcaller":5361,"ĠDo":5362,"processline":5363,"substring":5364,"debtor":5365,"retailerId":5366,"Viewers":5367,"firmed":5368,"getCurrentUserType":5369,"creditor":5370,"PendingA":5371,"calledTwice":5372,"Ac":5373,"CLIENT":5374,"Ew":5375,"EAwI":5376,"Giang":5377,"JavaScript":5378,"LA":5379,"PK":5380,"Pen":5381,"QYDV":5382,"\\.":5383,"auction":5384,"cT":5385,"dis":5386,"earch":5387,"han":5388,"lCase":5389,"ran":5390,"wH":5391,"ĠDonor":5392,"attributes":5393,"ntime":5394,"getAll":5395,"getBalanceOf":5396,"amelCase":5397,"ution":5398,"Ġfarmer":5399,"Ġdon":5400,"Ġdistributor":5401,"ĠquerySelector":5402,"fromJSON":5403,"gex":5404,"utility":5405,"tyes":5406,"ĠĉĉĉĠ":5407,"runtime":5408,"ORG":5409,"ExF":5410,"ĠorderID":5411,"..\");":5412,"ĠreadState":5413,"filename":5414,"ĠshipmentID":5415,"Ġcomposite":5416,"ĠGetAssetsByRange":5417,"expectedResponse":5418,"Ġyet":5419,"Ġshow":5420,"AsBtyes":5421,"Shipper":5422,"BgNVBAo":5423,"PATIENT":5424,"ĠpurchaseOrderObject":5425,"cNMT":5426,"ĠassetCamelCase":5427,"QYDVQQ":5428,"234":5429,"CT":5430,"Did":5431,"Pas":5432,"coffeeAsBytes":5433,"da":5434,"echo":5435,"hocki":5436,"promiseOfIterator":5437,"rame":5438,"weight":5439,"yb":5440,"Ġla":5441,"Ġqueue":5442,");}":5443,"ĠĠĠĠĠĠĠĉ":5444,"Ġcb":5445,"Ġ']":5446,"Ġearn":5447,"isGre":5448,"ĠAccess":5449,"rip":5450,"gency":5451,"ĠJSONSerializer":5452,"Quotation":5453,"ays":5454,"AssetName":5455,"pending":5456,"ByDeposit":5457,"Ġword":5458,"createEngine":5459,"CompositeKeyID":5460,"ĠĠĠĠĠĠĠĠĠĠĠĠĠĠčĊ":5461,"newVoter":5462,"readyMsg":5463,"ĠresultIterator":5464,"SET":5465,"ĠreturnedAssetName":5466,"CurrentTime":5467,"DrugCompositeKeyForSearch":5468,"ĠreadFileStub":5469,"ĠMock":5470,"voting":5471,"propertyID":5472,"propertyList":5473,"getCurrentMsg":5474,"Shipping":5475,"anufactured":5476,"Unable":5477,"rant":5478,"ĠRetailer":5479,"installedBusinessNetwork":5480,"filter":5481,"Ġparticipant":5482,"financeCoData":5483,"NumPassengers":5484,"flectStub":5485,"payout":5486,"ĠparsedItem":5487,"ĠfakeError":5488,"ĠfakeSuccess":5489,"ideo":5490,"Ġ700":5491,"Ġrawmaterial":5492,"registeredMsg":5493,"CurrStub":5494,"sendMsg":5495,"Application":5496,"plaza":5497,"handleMsgResponseSpy":5498,"ĠqueryContentBy":5499,"(',');":5500,"aterThan":5501,"Ġsplit":5502,"isGreaterThan":5503,"isGreaterThanZero":5504,"40":5505,"BEGIN":5506,"Credit":5507,"Ly":5508,"Match":5509,"Net":5510,"Roles":5511,"ZX":5512,"lat":5513,"oy":5514,"policy":5515,"sData":5516,"tmap":5517,"}]":5518,"Ġlast":5519,"ĠOrgan":5520,"Ġlicence":5521,"oration":5522,"orage":5523,"orrower":5524,"Ġam":5525,"Ġ'./":5526,"ĠEx":5527,"ĠreturnAsBytes":5528,"queryResults":5529,"Ġfloat":5530,"ĠhighestOffer":5531,"Card":5532,"ical":5533,"ĠissuerId":5534,"Ġintegert":5535,"'])":5536,"ĠfromWallet":5537,"Ġ__":5538,"Ġnothing":5539,"SerialNumber":5540,"Leave":5541,"Ġcounter":5542,"Payments":5543,"hospitalId":5544,"Ġ800":5545,"cageId":5546,"Ġusing":5547,"Ġpharmacy":5548,"lationsArray":5549,"GiangVien":5550,"!\");":5551,"Gl":5552,"cup":5553,"gc":5554,"impl":5555,"og":5556,"Ġ********":5557,"Ġaid":5558,"ition":5559,"letion":5560,"Ġcondition":5561,"review":5562,"pec":5563,"StringArgs":5564,"tos":5565,"Ġpublish":5566,"Ġpledge":5567,"ĠCertificate":5568,"resource":5569,"Ġsuppli":5570,"Ġsrc":5571,"IDs":5572,"keyMod":5573,"Ġ\"\"){":5574,"ĠSCAlpha":5575,"()){":5576,"ĠdataParsed":5577,":'',":5578,"Proofit":5579,"ĠmetadataToSend":5580,"vious":5581,"ĠdrugHistory":5582,"PropertyObject":5583,"Tests":5584,"ĠclientLogged":5585,"ĠbuyerBalance":5586,"1111":5587,"currentState":5588,"currentLoc":5589,"substr":5590,"ĠloadFound":5591,"System":5592,"ĠpoKey":5593,"required":5594,"Ġminter":5595,"Returning":5596,"caseName":5597,"ĠBlockly":5598,"Recei":5599,"Ġrestoration":5600,"ĠrelationResultsIterator":5601,":${":5602,"=[":5603,"Ammend":5604,"Chairs":5605,"JV":5606,"OP":5607,"co":5608,"jB":5609,"mage":5610,"rary":5611,"uint":5612,"|\\.":5613,"onSe":5614,"valuation":5615,"reg":5616,"Ġplate":5617,"haar":5618,"ĠassetPas":5619,"Review":5620,"createSandbox":5621,"ĠuserBuffer":5622,"dataService":5623,"DER":5624,"Ġsuccessful":5625,"Root":5626,"ĠclientData":5627,"(__":5628,"requested":5629,"ShipmentObject":5630,"ciet":5631,"AccountBalance":5632,"ĠprofileOld":5633,"ĠcandidateToTransfer":5634,"serializer":5635,"Ġyour":5636,"ĠHas":5637,"getMinutes":5638,"Ġ600":5639,"Pharma":5640,"calCase":5641,"ZeroIfEmpty":5642,"IBU":5643,"defaultToZeroIfEmpty":5644,"QUERY":5645,"Rights":5646,"getHours":5647,"ĠloggedClient":5648,"Netherlands":5649,"|\\.\\":5650,"onSecondCall":5651,"ĠassetPascalCase":5652,"Approval":5653,"GET":5654,"OTA":5655,"Sor":5656,"dir":5657,"modeled":5658,"nContent":5659,"par":5660,"Ġgender":5661,"ese":5662,"Ġactor":5663,"Ġequal":5664,"Instantiated":5665,"logAsBytes":5666,"Ġdiem":5667,"riv":5668,"Registrar":5669,"Tracking":5670,"Ġexecute":5671,"createHash":5672,"Ġprovided":5673,"Ġattribute":5674,"jsnContent":5675,"\"}));":5676,"ĠproductKey":5677,"ĠgovOrg":5678,"Ġ{\"$":5679,"TokenName":5680,"Ġloading":5681,"PEER":5682,"Commons":5683,"Endorsement":5684,"ĠputState":5685,"decoded":5686,"ĠAdding":5687,"aadharNo":5688,"ĠCommonIterator":5689,"ĠtxnID":5690,"vidend":5691,"123456":5692,"reedom":5693,"wCgYIKoZIzj":5694,"TRANSACTION":5695,"votableItems":5696,"Ġauthentication":5697,"newColl":5698,"PendingApproval":5699,"letionDate":5700,"Sorry":5701,"150":5702,"Com":5703,"GING":5704,"Ju":5705,"Nhb":5706,"Pre":5707,"\\\":":5708,"draw":5709,"first":5710,"kw":5711,"lai":5712,"mary":5713,"svinfo":5714,"Ġqual":5715,"ĠDE":5716,"ĠStateQueryIterator":5717,"atal":5718,"letter":5719,"values":5720,"reque":5721,"ĠreturnValue":5722,"Ġpos":5723,"Ġeal":5724,"Ġreg":5725,"Ġinitiate":5726,"updateMyAsset":5727,"ĠjsonData":5728,"ĠdrugBuffer":5729,"ĠdrugDetails":5730,"ĠclientID":5731,"ĠsellerKey":5732,"ĠbalanceKey":5733,"Spain":5734,"certWithoutAttrs":5735,"ĠHISTORY":5736,"Ġused":5737,"ĠprivateValue":5738,"Ġauthorised":5739,"upplychain":5740,"charge":5741,"Ġcompensation":5742,"commodityId":5743,"ĠProcessLine":5744,"ĠPharmanetHelper":5745,"ĠPaymentRecon":5746,"earcher":5747,"requency":5748,"35":5749,"37":5750,"Book":5751,"IT":5752,"OT":5753,"aded":5754,"bill":5755,"equipment":5756,"fine":5757,"faculty":5758,"ict":5759,"ja":5760,"rDecodedPayload":5761,"ĠcbtObj":5762,"Ġ{'":5763,"lem":5764,"ancial":5765,"Ġpres":5766,"Ġpublisher":5767,"isture":5768,"queryMarbles":5769,"edMSPID":5770,"RecieverBalance":5771,"ĠtoCurrentBalance":5772,"ĠgetUser":5773,"ForUpdation":5774,"userBuffer":5775,"userObject":5776,"ĠholdAuthValue":5777,"#####":5778,"ĠtransferEvent":5779,"reds":5780,"Ġdescriptor":5781,"ĠmockEvent":5782,"ĠdeleteCars":5783,"marks":5784,"TxContextId":5785,"ĠcurrentAllowance":5786,"Meterpoint":5787,"ĠorderKey":5788,"ĠordererId":5789,"Initial":5790,"ĠdrugObj":5791,"ĠcurrentOwners":5792,"donationData":5793,"ĠdecodeStub":5794,"transferEvent":5795,"balanceBytes":5796,"ĠRegistrar":5797,"country":5798,"checkLength":5799,"handleInitSpy":5800,"handleTransactionSpy":5801,"currentAllowance":5802,"ĠbalanceBytes":5803,"updatedBalance":5804,"ĠprofileId":5805,"Ġsystem":5806,"ĠbuyerCRNFound":5807,"allowanceKey":5808,"cpList":5809,"buyerCRNResponseRange":5810,"ĠprojectAsBytes":5811,"items":5812,"ĠmsgSender":5813,"ĠgenerateTransporter":5814,"Loads":5815,"ChaincodeMessageHandler":5816,"establishedMsg":5817,"Emitter":5818,"1609550":5819,"Ġincorrect":5820,"ĠcurrentBalanceBytes":5821,"ĠsubmitedMSPID":5822,"charges":5823,"LogisticUnit":5824,"queueMsg":5825,"RemoveCurrentAndSendNextMsg":5826,"initialise":5827,"currentOwners":5828,"ĠcipherText":5829,"DrugDetailsForUpdation":5830,"currentBalanceBytes":5831,"Ġmoisture":5832,"ĠPerson":5833,"ĠmockEventEmitter":5834,"200":5835,"96":5836,"CB":5837,"Coin":5838,"Ident":5839,"LP":5840,"UID":5841,"XBs":5842,"ZS":5843,"hhb":5844,"io":5845,"pacient":5846,"alized":5847,"Ġ(_":5848,"source":5849,"Ġretry":5850,"getDrug":5851,"Ġest":5852,"tracking":5853,"ĠAll":5854,"ĠqueryPoc":5855,"errors":5856,"Ġip":5857,"carModel":5858,"Ġ[{":5859,"ĠSuccess":5860,"ToRoot":5861,"Ġproyect":5862,"DataService":5863,"serv":5864,"spi":5865,"DrugObject":5866,"00000000":5867,"ĠrequestObject":5868,"Ġgrad":5869,"ĠexpectedProduct":5870,"coming":5871,"Ġinsufficient":5872,"Consumption":5873,"ĠĠĉĉčĊ":5874,"ĠprojectID":5875,"+'-'+":5876,"medical":5877,"nsion":5878,"gested":5879,"Ġinvoking":5880,"Ġmodified":5881,"ChainX":5882,"inputs":5883,"redentials":5884,"licit":5885,"Ġpem":5886,"ĠStartCommand":5887,"lexity":5888,"uringDate":5889,"INDEX":5890,"loyee":5891,"ZXhhb":5892,"XBsZS":5893,"ZXhhbXBsZS":5894,"102":5895,"Cannot":5896,"ITY":5897,"Let":5898,"Link":5899,"Place":5900,"UN":5901,"Used":5902,"Work":5903,"blood":5904,"grade":5905,"ished":5906,"ram":5907,"tong":5908,"uk":5909,"uard":5910,"Ĥæķ°":5911,"ales":5912,"Ġ'[":5913,"ssn":5914,"reat":5915,"',()=>{":5916,"Ġpromise":5917,"jsonData":5918,"Ġdis":5919,"Ġrecipient":5920,"cent":5921,"Ġinformation":5922,"ĠgetChannelID":5923,"carLicensePlate":5924,"keyValueId":5925,"Ġ\"-":5926,"({\"":5927,"Ġthem":5928,"ĠcreatePO":5929,"setRe":5930,"redict":5931,"ĠdataAsBytes":5932,"boi":5933,"ĠuserObj":5934,"emptyList":5935,"aging":5936,"ĠPH":5937,"ĠupdateShipment":5938,"shipmentList":5939,"compKey":5940,"observer":5941,"ifierId":5942,"ĠpatientAsBytes":5943,"ĠpatientId":5944,"patientAsBytes":5945,"ĠRFIDtag":5946,"__('_":5947,"statement":5948,"Commodity":5949,"walletOwnerId":5950,"getCallerId":5951,"ĠmedicalRecord":5952,"ballotId":5953,"::/":5954,"income":5955,"choboi":5956,"courseId":5957,"original":5958,"ĠcageAsBytes":5959,"API":5960,"VALUE":5961,"mporter":5962,"åıĤæķ°":5963,"06":5964,"Hoc":5965,"Mode":5966,"Out":5967,"Phan":5968,"RL":5969,"US":5970,"]}":5971,"cw":5972,"fab":5973,"gra":5974,"iet":5975,"lin":5976,"pb":5977,"ĠV":5978,"ĠType":5979,"ĠUp":5980,"ĠWallet":5981,"erve":5982,"==');":5983,"Ġ'')":5984,"Ġ']:":5985,"Stock":5986,"argument":5987,"anger":5988,"Ġplease":5989,"aders":5990,"ĠqueryAsBytes":5991,"ationId":5992,"Ġblood":5993,"Trust":5994,"ĠgetInfoFromContractStub":5995,"ĠChaincodeInterface":5996,"newPlate":5997,"ĠkeyValueId":5998,"nextPlate":5999,"ĠmockChaincodeImpl":6000,"ĠuserInput":6001,"dataAsBytes":6002,"ĠcurrentTime":6003,"ĠgetAllResultsUsingAsyncIterator":6004,"RED":6005,"Ġperform":6006,"TransactionId":6007,"Partner":6008,"ĠvotingId":6009,"Drugs":6010,"ignation":6011,"checkList":6012,"ourC":6013,"CompanyKey":6014,"Ġbypass":6015,"Ġcontainer":6016,"ĠlistOf":6017,"party":6018,"TravelPerPassenger":6019,"NewUser":6020,"ĠHospital":6021,"missions":6022,"ĠsenderBalance":6023,"Holder":6024,"ĠShip":6025,"arehouse":6026,"ĠfakeCcfc":6027,"!!!\");":6028,"ĠmaxWeight":6029,"template":6030,"NUM":6031,"submitTx":6032,"LOGGING":6033,"=[];":6034,"ĠplateAsBytes":6035,"laim":6036,"HocPhan":6037,"nextPlateId":6038,"08":6039,"43":6040,">>":6041,"Block":6042,"Currency":6043,"Hid":6044,"IE":6045,"MENT":6046,"Po":6047,"ik":6048,"yargs":6049,"structor":6050,"('');":6051,"Ġ'\"":6052,"Ġ').":6053,"Ġ(\"":6054,"Ġ(()":6055,"ĠnewUser":6056,"ĠCourse":6057,"ĠCustomer":6058,"Ġfac":6059,"Ġfiles":6060,"erride":6061,"ĠtruyVan":6062,"gent":6063,"Ġsv":6064,"card":6065,"Ġ\"\"":6066,"andard":6067,"assetKey":6068,"ĠendTime":6069,"agency":6070,"Ġdataset":6071,"Txn":6072,"setOwnerMSP":6073,"Ġadmin":6074,"Ġadhoc":6075,"buyerId":6076,"companyId":6077,"voters":6078,"clientData":6079,"ĠpropertyID":6080,"sellerId":6081,"ĠDistributor":6082,"ĠĠĠĠĠĠĠĠĠĠĠĠĠĠĠĠĠĠĠĠĠĠĠĠčĊ":6083,"LEVE":6084,"transit":6085,"ĠbalanceOf":6086,"INF":6087,"Verification":6088,"posed":6089,"ĠĠĉĉĉ":6090,"ĠpropertiesBuffer":6091,"\\-\\-\\-":6092,"\\-\\-\\-\\-\\-":6093,"reqJson":6094,"ĠsavePrivateData":6095,"sellers":6096,"!!!\"}));":6097,"aadharNumber":6098,"Ġmarks":6099,"ĠpayoutObj":6100,"docTypes":6101,"ĠclearObj":6102,"Ġdesc":6103,"SHIP":6104,"Ġdepth":6105,"EnrollmentID":6106,"atalog":6107,"Letter":6108,"Hidden":6109,"Ġfaced":6110,"LEVEL":6111,"\"],":6112,"'};":6113,")(":6114,"Buf":6115,"Est":6116,"Fu":6117,"Gen":6118,"May":6119,"Word":6120,"ZG":6121,"after":6122,"rray":6123,"tt":6124,"warn":6125,"yM":6126,"}.":6127,"}');":6128,"ĠgetStateByPartialCompositeKey":6129,"ĠStudent":6130,"iterate":6131,"itution":6132,"Ġte":6133,"Ġletter":6134,"ross":6135,"Resource":6136,"getX":6137,"loor":6138,"uture":6139,"adhaar":6140,"ĠArray":6141,"edding":6142,"exist":6143,"ĠgetBufferArgs":6144,"RangeQuery":6145,"Ġ24":6146,"(\"\\":6147,"Ġstatement":6148,"IndexOf":6149,"ĠmockSigningId":6150,"mockSigningId":6151,"RECORD":6152,"GetHistoryForKey":6153,"ĠFound":6154,"ĠReflect":6155,"checkUser":6156,"Sell":6157,"calledWithNew":6158,"acher":6159,"Ġevents":6160,"ĠpropertyBuffer":6161,"iplo":6162,"buyerObject":6163,"\"])":6164,"down":6165,"ĠRaw":6166,"post":6167,"passport":6168,"lastIndexOf":6169,"Ġfinal":6170,"Ġexpire":6171,"expiration":6172,"Ġapprover":6173,"Ġleft":6174,"ĠDataMarshall":6175,"logistics":6176,"ĠpaginatedRangeQuery":6177,"ycle":6178,"ĠASSET":6179,"bufferToFloat":6180,"ĠshowHidden":6181,"Ġsupplied":6182,"!=":6183,"65":6184,"74":6185,"Duration":6186,"HE":6187,"ICO":6188,"KYC":6189,"Mut":6190,"MDA":6191,"Vessel":6192,"WF":6193,"gred":6194,"lize":6195,"paid":6196,"sL":6197,"ts":6198,"xNT":6199,"Ã³":6200,"ĠPrivate":6201,"ĠRole":6202,"ĠStatus":6203,"ergency":6204,"onto":6205,"Ġcourses":6206,"investment":6207,"leKey":6208,"Ġack":6209,"ctr":6210,"Ġneeded":6211,"Ġman":6212,"rol":6213,"roup":6214,"Ġoverage":6215,"Ġequipment":6216,"Ingred":6217,"ĠAmount":6218,"Ġbeta":6219,"ought":6220,"Ġimplement":6221,"Ġnotary":6222,"parseResponse":6223,"Ġhe":6224,"Ġhealthcare":6225,"assetJson":6226,"emit":6227,"newPaper":6228,"Ġprov":6229,"bootstrap":6230,"vien":6231,"ĠcurrentState":6232,"Meta":6233,"Ġorderer":6234,"ĠdrugJSON":6235,"ResultsIteratorForComparision":6236,"ĠpersonPublic":6237,"OrderList":6238,"PeerUrl":6239,"organAsBytes":6240,"ĠtransactionAsBytes":6241,"DrugDetail":6242,"Fish":6243,"anah":6244,"buyers":6245,"aclize":6246,"ĠtxContextId":6247,"CompanyObject":6248,"ĠinvokeChaincode":6249,"imes":6250,"patientList":6251,"requestList":6252,"ĠngoRegistrationNumber":6253,"SendMsg":6254,"ĠDO":6255,"buyerKey":6256,"ĠdateTime":6257,"=>\"":6258,"stateMut":6259,"Ġwallets":6260,"ĠappInfo":6261,"insurance":6262,"BuyerCompanyID":6263,"ĠexistingUser":6264,"UnitOnMarket":6265,"testCollection":6266,"ĠpassedBookmark":6267,"ĠcreditNote":6268,"serviceProto":6269,"retailerMSP":6270,"ĠcupId":6271,"distributorMSP":6272,"pledgeId":6273,"Ġfishes":6274,"medicineNumber":6275,"DepositPerPassenger":6276,"ĠlotNumber":6277,"removeCurrentAndSendNextMsg":6278,"ĠinvestmentAmount":6279,"ĠinvestmentTitle":6280,"MxD":6281,"organizationName":6282,"approvals":6283,"reward":6284,"BgNVHQ":6285,"VALIDATION":6286,"loopFunction":6287,"Penalized":6288,"arguments":6289,"ourCup":6290,"MDAxNT":6291,"Ingredient":6292,"stateMutability":6293,"MDAxNTAw":6294,"88":6295,"AM":6296,"CERT":6297,"La":6298,"Prescription":6299,"SM":6300,"bserv":6301,"ges":6302,"uId":6303,"uild":6304,"vail":6305,"ĠQuantity":6306,"array":6307,"Ġcast":6308,"ative":6309,"ateMetadata":6310,"Ġmap":6311,"permit":6312,"toBytes":6313,"Ġreturns":6314,"Ġplayer":6315,"utx":6316,"isS":6317,"ĠCRN":6318,"Ġrecharge":6319,"ĠgetOrder":6320,"IDcheck":6321,"ĠSupplychain":6322,"AndValid":6323,"upport":6324,"before":6325,"ĠresponseObj":6326,"ventory":6327,"Deleted":6328,"Existing":6329,"ĠPAR":6330,"throws":6331,"....":6332,"ignore":6333,"ĠaddDrug":6334,"ĠrequestKey":6335,"ĠpropertyDetails":6336,"Ġpassport":6337,"ĠGetState":6338,"controller":6339,"candidateAsBytes":6340,"ĠLand":6341,"ĠtransporterKey":6342,"timeout":6343,"ĠretailDrug":6344,"projectAsBytes":6345,"Ġloop":6346,"manufacturerMSP":6347,"cageAsBytes":6348,"ĠPatientRecord":6349,"ĠalphaStub":6350,"setStateTo":6351,"TTP":6352,"dirname":6353,"graded":6354,"AndValidateMetadata":6355,"Big":6356,"Dire":6357,"Group":6358,"IAL":6359,"Math":6360,"Machine":6361,"Manufactured":6362,"Needed":6363,"Overage":6364,"Observer":6365,"PP":6366,"RSA":6367,"Rich":6368,"Spec":6369,"aTX":6370,"func":6371,"gt":6372,"gAwI":6373,"he":6374,"ls":6375,"lNo":6376,"mall":6377,"manufact":6378,"wW":6379,"zY":6380,"Ġarbitration":6381,"stat":6382,"Ġchain":6383,"invoicesBytes":6384,"Ġ}]);":6385,"Ġagainst":6386,"its":6387,"Stav":6388,"Standard":6389,"ĠmonthlyForecast":6390,"rength":6391,"dem":6392,"urity":6393,"ĠEntity":6394,"getCollection":6395,"getDefault":6396,"loyalty":6397,"Ġpla":6398,"ĠBalance":6399,"jsonQueryString":6400,"ĠCO":6401,"ĠAct":6402,"Ġrevoke":6403,"Ġsame":6404,"ĠinvoicesBytes":6405,"Records":6406,"Ġform":6407,"Ġweigth":6408,"Ġ32":6409,"nextClientId":6410,"Ġwho":6411,"ĠcontractName":6412,"bout":6413,"ĠdonationData":6414,"ĠdonationObj":6415,"ĠspenderId":6416,"ĠerrorResult":6417,"ĠfromAddress":6418,"ĠPart":6419,"Ordered":6420,"CurrentUser":6421,"whoRegistered":6422,"shipmentID":6423,"ĠMark":6424,"Organs":6425,"propertyBuffer":6426,"AddCompositeKey":6427,"theKey":6428,"ĠupdatedAt":6429,"urement":6430,"ĠeventData":6431,"Ġcompanies":6432,"ĠbeforeTransaction":6433,"SerialNo":6434,"ĠfundStruct":6435,"totalHoldValue":6436,"...\";":6437,"historyIterator":6438,"contact":6439,"BAg":6440,"Marhs":6441,"ballotData":6442,"Ġroaming":6443,"Modification":6444,"CDR":6445,"ĠbidID":6446,"ĠObserver":6447,"ĠcoinsValue":6448,"Ġfollowing":6449,"wibbleimpl":6450,"helpers":6451,"yaltyManagement":6452,"Ġlaboratory":6453,"rateArray":6454,"-*-*-*-*":6455,"tended":6456,"clearCollection":6457,"proofitList":6458,"ATTRIBU":6459,"ĠIterators":6460,"aturesNeeded":6461,"ĠEvents":6462,"EAwIw":6463,"payoutObj":6464,"lexityFunctions":6465,"reatment":6466,"INFO":6467,"vailability":6468,"gAwIBAg":6469,"Stavanger":6470,"getDefaultCfg":6471,"loyaltynew":6472,"Marhsall":6473,"ATTRIBUTE":6474,":{":6475,"BG":6476,"Burn":6477,"Cast":6478,"EF":6479,"Lot":6480,"Por":6481,"Publish":6482,"Score":6483,"Use":6484,"binding":6485,"publish":6486,"pHocPhan":6487,"sion":6488,"Ġ));":6489,"Ġnomor":6490,"Ġmonth":6491,"seeds":6492,"Ġthreshold":6493,"getProperty":6494,"Ġopt":6495,"ĠĉĠĠĠĠĠĠĠĠ":6496,"Named":6497,"Ġfreq":6498,"Ġrecon":6499,"ĠĉĉĠĠĠĠĠĠĠĠĠĠĠ":6500,"fromcontract":6501,"Ġbad":6502,"amt":6503,"ĠtoWallet":6504,"Ġ14":6505,"loading":6506,"Companies":6507,"(\"#####":6508,"LopHocPhan":6509,"Ġfunctions":6510,"ĠchangeProduct":6511,"mockStateQueryIterator":6512,"ages":6513,"Ġerrors":6514,"iterators":6515,"Ġdrugs":6516,"chaincodefromcontract":6517,"\"});":6518,"ĠModel":6519,"Ġannot":6520,"Ġgrant":6521,"ĠbuyerObject":6522,"Ġassign":6523,"ackorder":6524,"metadataPath":6525,"Verify":6526,"poID":6527,"ĠviewProperty":6528,"Ġpartial":6529,"Ġtemplate":6530,"certificateId":6531,"ĠlogisticUnit":6532,"ĠPharma":6533,"ĠfinanceCoId":6534,"Ġfails":6535,"MPLE":6536,"ĠlotNo":6537,"ĠfoodContract":6538,"carton":6539,"cartons":6540,"ĠelectionStartDate":6541,"ĠelectionEndDate":6542,"ĠInspect":6543,"ĠactiveIngredient":6544,"ĠUpgraded":6545,"Ġannotations":6546,"=\");":6547,"Approve":6548,"CP":6549,"Cage":6550,"CSP":6551,"Dem":6552,"Nh":6553,"Option":6554,"Params":6555,"Support":6556,"Tag":6557,"Ud":6558,"VO":6559,"coupon":6560,"freq":6561,"ian":6562,"iod":6563,"rat":6564,"xed":6565,"}::{":6566,"Ġ****":6567,"Ġclause":6568,"Ġconvert":6569,"Ġnext":6570,"iff":6571,"getName":6572,"StateQueryResult":6573,"Ġpacient":6574,"Ġemit":6575,"ummary":6576,"jsonTo":6577,"Ġfacility":6578,"errMsg":6579,"Ġregistration":6580,"Ġreissue":6581,"()');":6582,"river":6583,"ĠassetExists":6584,"ĠcarLicensePlate":6585,"Ġstrength":6586,"abru":6587,"Ġ\"_":6588,"Quality":6589,"Ġhierarchy":6590,"Ġvaccine":6591,"approvers":6592,"contractClasses":6593,"Ġprovision":6594,"DataMarhsall":6595,"Ġutility":6596,"REGIS":6597,"ĠupdateUser":6598,"library":6599,"Field":6600,"gree":6601,"dena":6602,"ĠtotalAmount":6603,"ĠproductNo":6604,"RequestObject":6605,"Ġcontroller":6606,"010":6607,"Undefined":6608,"handleParameters":6609,"handleStateQueryResult":6610,"ĠshipmentDataBuffer":6611,"providerId":6612,"ClientAccountID":6613,"ClientAccountBalance":6614,"ĠregisterAsset":6615,"INJEC":6616,"ĠafterTransaction":6617,"ĠtransientData":6618,"cale":6619,"ĠapplNo":6620,"shedKey":6621,"Ġfinish":6622,"lobalCitizen":6623,"ĠvehicleNo":6624,"ĠexpiryDate":6625,"Ġorgs":6626,"Pharmanet":6627,"!!!!!!!!":6628,"Decimals":6629,"appointments":6630,"ĠreferenceDrug":6631,"ĠreferenceStandard":6632,"ĠgetArgsStub":6633,"handleQueryStateClose":6634,"ranch":6635,"Ġwords":6636,"Receipt":6637,"Ġequals":6638,"EndorsementPolicy":6639,"ĠDELETED":6640,"SupportClient":6641,"abrupt":6642,".$":6643,"CF":6644,"Candidates":6645,"Feed":6646,"Iw":6647,"VED":6648,"correction":6649,"elem":6650,"got":6651,"gpa":6652,"patch":6653,"toll":6654,"utos":6655,"Ġord":6656,"ĠDetails":6657,"erMspId":6658,"erOr":6659,"eth":6660,"Ġajv":6661,"Ġnode":6662,"destination":6663,"ped":6664,"Ġ+('":6665,"isRe":6666,"ĠCN":6667,"Ġdicom":6668,"ĠqueryUser":6669,"Ġbase":6670,"Ġborrower":6671,"Ġcart":6672,"IdBytes":6673,"ctions":6674,"unit":6675,"named":6676,"omain":6677,"Loaded":6678,"ĠuserName":6679,"harnet":6680,"organToTransfer":6681,"arian":6682,"acion":6683,"productKey":6684,"ertificates":6685,"Ġinsurance":6686,"Ġverification":6687,"MockStub":6688,"fakeError":6689,"ĠSymbol":6690,"Insurance":6691,"cmds":6692,"outputs":6693,"namespace":6694,"ĠOrganisation":6695,"ietario":6696,"isSmall":6697,"erOrEqual":6698,"isSmallerOrEqual":6699,".',":6700,"Bike":6701,"Dicom":6702,"EVENT":6703,"FU":6704,"False":6705,"Food":6706,"Km":6707,"LD":6708,"Lim":6709,"PubECDSA":6710,"Uz":6711,"`));":6712,"currElection":6713,"digitalAsset":6714,"funcAndPar":6715,"gw":6716,"health":6717,"highestOffer":6718,"imp":6719,"pac":6720,"pVotable":6721,"pourCup":6722,"sal":6723,"swer":6724,"tSplit":6725,"ux":6726,"}'":6727,"}_":6728,"½æķ°":6729,"åĩ":6730,"çļ":6731,"Ġ\\":6732,"ĠLoad":6733,"ĠOfferta":6734,"onFunctions":6735,"Ġclose":6736,"Ġcorrection":6737,"alive":6738,"leting":6739,"('********":6740,"Storage":6741,"Ġnet":6742,"Ġnormal":6743,"Ġnativity":6744,"reating":6745,"reflectStub":6746,"Ġthere":6747,"depen":6748,"getData":6749,"getInfoFromContract":6750,"getCurrStub":6751,"ĠnewVoter":6752,"Ġobc":6753,"Ġpar":6754,"Ġpackage":6755,"ĠCon":6756,"logNumber":6757,"actory":6758,"active":6759,"actual":6760,"ĠApprove":6761,"fromWallet":6762,"keep":6763,"ĠJSONDrugCompositeKeyForSearch":6764,"ĠJSONDrugDetailsForUpdation":6765,"ocrat":6766,"arton":6767,"ĠtoAddress":6768,"ĠgetCurrentUser":6769,"Ġ[${":6770,"paperResult":6771,"004":6772,"loadAndValidateMetadata":6773,"ĠSet":6774,"returnError":6775,"Forn":6776,"allPartners":6777,"()))":6778,"createUser":6779,"ither":6780,"upCheck":6781,"proposed":6782,"ĠcreateStub":6783,"(\",":6784,"Ġstarter":6785,"ĠtransferId":6786,"Ġproof":6787,"ĠmockStateQueryIterator":6788,"ĠmockMsgQueueHandler":6789,"ĠmockParseResponse":6790,"ĠdeleteAssetsFromBatch":6791,"ĠuserDetails":6792,"ĠuserTransactions":6793,"Prod":6794,"Props":6795,"mockGetCurrMsg":6796,"mockQMsg":6797,"ĠreturnedSeller":6798,"ĠmockStubAPI":6799,"ĠKeys":6800,"Attended":6801,"libVotable":6802,"greeting":6803,"ĠtxContent":6804,"CompanyId":6805,"Ġanswer":6806,"ĠclientAccountID":6807,"patientEmail":6808,"handleGetStateMetadata":6809,"handlePutState":6810,"ĠcompletionDate":6811,"ShipmentData":6812,"ĠsetEvent":6813,"ĠsetClientIdentity":6814,"ĠsetChaincodeStub":6815,"inkType":6816,"generateBallot":6817,"123":6818,"Ġfill":6819,"ongitude":6820,"PriceTravelPerPassenger":6821,"Ġyes":6822,"ĠbuyerCRNResultsIterator":6823,"BAf":6824,"allowancePrefix":6825,"buyerCRNFound":6826,"doctorId":6827,"ĠProofit":6828,"Ġfinancial":6829,"FILE":6830,"ĠprivateLoad":6831,"ballotCast":6832,"phoc":6833,"omeOperator":6834,"ĠgenerateBuyerCompanyID":6835,"msgQueueHandler":6836,"bertarian":6837,"Ġoffers":6838,"financeCoId":6839,"Ġapproval":6840,"ĠallowanceKey":6841,"155":6842,"Local":6843,"TotalNumPassengers":6844,"Contractors":6845,"Ġsha":6846,"Ġĉĉĉĉĉĉĉ":6847,"ĠparsedCurrentTime":6848,"ĠsendMsg":6849,"-----';":6850,"plateAsBytes":6851,"ĠcreateAssetObject":6852,"sForMeterpoint":6853,"PATH":6854,"ĠinstalledBusinessNetwork":6855,"ĠvotableId":6856,"logisticUnit":6857,"Ġdesignation":6858,"ADY":6859,"rnVotable":6860,"defaultToUndefined":6861,"PREFIXES":6862,"Expiration":6863,"ĠreturnedBuyerCompanyName":6864,"@@@@":6865,"ĠtreatedBy":6866,"publican":6867,"enerCountStub":6868,"Ġserver":6869,"icket":6870,"Coordinates":6871,"ĠsplitKey":6872,"Ġamong":6873,"ĠaidOrg":6874,"redsSpy":6875,"fabprotos":6876,"ĠRawMaterial":6877,"ĠPARAM":6878,"BigPharma":6879,"ĠchangeProductOwner":6880,"Democrat":6881,"jsonToBuffer":6882,"currElections":6883,"åĩ½æķ°":6884,"dependent":6885,"keepalive":6886,"ĠtxContentId":6887,"defaultToUndefinedIfEmpty":6888,"94":6889,"EHR":6890,"Nghiep":6891,"Tot":6892,"bn":6893,"floor":6894,"healthcare":6895,"nem":6896,"oC":6897,"other":6898,"sE":6899,"ĠTrans":6900,"Ġ\\\"":6901,"ĠUsing":6902,"onic":6903,"orp":6904,"=======":6905,"('/":6906,"Ġma":6907,"delivered":6908,"anks":6909,"getOrder":6910,"Ġoperation":6911,"olice":6912,"Ġprecord":6913,"Ġedit":6914,"actor":6915,"Ġschemas":6916,"ĠgetRe":6917,"ĠgetBalance":6918,"ĠgetTxTimestamp":6919,"ĠgetSignedProposal":6920,"ĠgetBinding":6921,"ĠInst":6922,"Ġ\"\\":6923,"createCollection":6924,"Topic":6925,"Ġvessel":6926,"numberOfDonations":6927,"Ġwhich":6928,"ĠmockAjv":6929,"Ġdepartment":6930,"Ġspending":6931,"ĠspendId":6932,"ORDER":6933,"gistry":6934,"spName":6935,"Ġresulting":6936,"'])))":6937,"spendDate":6938,"spendDescription":6939,"ĠbuyRequest":6940,"donationMap":6941,"donationsForNGO":6942,"ExistsStub":6943,"pharmacy":6944,"Ġproducto":6945,"ĠtxId":6946,"ĠspendAllocationDate":6947,"ĠspendAllocationAmount":6948,"ĠspendAllocationDescription":6949,"spendAllocations":6950,"sellerKey":6951,"existsCollection":6952,"ĠGetAsset":6953,"Ġended":6954,"certnet":6955,"ĠviewUser":6956,"ĠexistingProperty":6957,"ĠvehicleListing":6958,"ĠNGOSpend":6959,"ĠNodeContainer":6960,"Ġdonors":6961,"fakeSuccess":6962,"approver":6963,"Ġmodifier":6964,"signedProposal":6965,"ĠComplexityFunctions":6966,"ESKey":6967,"Subject":6968,"personAsBytes":6969,"Ġblockchain":6970,"appointmentId":6971,"Ġignored":6972,"ĠChecking":6973,"Ġdonated":6974,"ĠcompensationValue":6975,"tongSoChi":6976,"ĠproviderId":6977,"ignoreMe":6978,"TTPService":6979,"Direct":6980,"Ġprovisioning":6981,"Ġamongst":6982,"TotNghiep":6983,"nemonic":6984,"nemonicWord":6985,":\",":6986,"Could":6987,"Ez":6988,"ESS":6989,"Grad":6990,"GTA":6991,"Healthcare":6992,"Hak":6993,"LMA":6994,"PubKey":6995,"QW":6996,"UBgNVBA":6997,"VV":6998,"XBgNVBAo":6999,"]];":7000,"]){":7001,"_,":7002,"aver":7003,"fed":7004,"full":7005,"gTC":7006,"hcNMT":7007,"ium":7008,"kGA":7009,"kNhb":7010,"lzY":7011,"uong":7012,"we":7013,"ww":7014,"xn":7015,"xx":7016,"xGTA":7017,"Ġlength":7018,"ĠRating":7019,"ern":7020,"Ġcol":7021,"ors":7022,"Ġap":7023,"Ġabout":7024,"Ġ'../../":7025,"Ġnom":7026,"Ġmer":7027,"define":7028,"urric":7029,"ĠEX":7030,"ulum":7031,"ulation":7032,"local":7033,"ĠBusinessNetwork":7034,"jsonSerializer":7035,"Ġresident":7036,"char":7037,"logBuffer":7038,"aderId":7039,"ĠqueryTMC":7040,"edText":7041,"ries":7042,"Ġsav":7043,"ĠassetSp":7044,"Ġind":7045,"ociation":7046,"Ġimporter":7047,"Ġexecuted":7048,"ĠgetFunctionAndParameters":7049,"ĠgetKeys":7050,"ĠgetStringArgs":7051,"Ġ13":7052,"('================":7053,"paperNumber":7054,"ilk":7055,"illed":7056,"iders":7057,"Ġ\"]":7058,"0002":7059,"Ġhsc":7060,"Ġhost":7061,"ARBgNVBA":7062,"ruit":7063,"consumer":7064,"\":[":7065,"ortTx":7066,"Ġproduction":7067,"Ġdefined":7068,"ĠspendQuery":7069,"spendQuery":7070,"ĠPurchase":7071,"aceSe":7072,"RegistrationRequest":7073,"ĠloggerPrefix":7074,"newOwnerId":7075,"spendAllocationId":7076,"ĠaccountNumber":7077,"indexOwner":7078,"ĠGetAllResults":7079,"does":7080,"}`)":7081,"Ġyou":7082,"NewOwner":7083,"ĠusePoints":7084,"ĠcertificateId":7085,"DetailIndex":7086,"landNumber":7087,"landPaper":7088,"ĠlandPaper":7089,"ratingQuery":7090,"UEBh":7091,"MCVV":7092,"Marks":7093,"ĠURL":7094,"CCESS":7095,"concil":7096,"jAUBgNVBA":7097,"clearObj":7098,"ĠmanufacturingDate":7099,"MxEz":7100,"aWExF":7101,"scriberSim":7102,"ĠratingQuery":7103,"cTDV":7104,"wHhcNMT":7105,"Glmb":7106,"ĠsrcMspId":7107,"parator":7108,"JuaWExF":7109,"ĠinvokingMSP":7110,"FuY":7111,"implicit":7112,"çļĦ":7113,"ĠInstalledBusinessNetwork":7114,"XBgNVBAoTE":7115,"gTCkNhb":7116,"xGTAXBgNVBAoTE":7117,"urriculum":7118,"ĠBusinessNetworkDefinition":7119,"ĠassetSpaceSe":7120,"ARBgNVBAgTCkNhb":7121,"ortTxid":7122,"UEBhMCVV":7123,"jAUBgNVBAcTDV":7124,"MxEzARBgNVBAgTCkNhb":7125,"JuaWExFjAUBgNVBAcTDV":7126,"ĠassetSpaceSeparator":7127,"UEBhMCVVMxEzARBgNVBAgTCkNhb":7128,"UEBhMCVVMxEzARBgNVBAgTCkNhbGlmb":7129,")]);":7130,"70":7131,"95":7132,"BM":7133,"Bo":7134,"FS":7135,"Facility":7136,"SN":7137,"YY":7138,"bad":7139,"clause":7140,"day":7141,"element":7142,"gA":7143,"iÃ³":7144,"pk":7145,"qG":7146,"warehouse":7147,"¦ģ":7148,"è¦ģ":7149,"ĠTransporter":7150,"internal":7151,"leave":7152,"Ġmint":7153,"ssccKey":7154,"ĠEVENT":7155,"uest":7156,"ĠnewUserObject":7157,"Ġpwd":7158,"istrict":7159,"oded":7160,"queryAsBytes":7161,"queryPoc":7162,"ĠAction":7163,"ĠAadhar":7164,"Ġfabric":7165,"ĠqueryOrder":7166,"ngv":7167,"Ġtrack":7168,"fromBuffer":7169,"unicip":7170,"ĠSub":7171,"ARMA":7172,"AndDec":7173,"tengv":7174,"userNumber":7175,"updateAsset":7176,"ĠdeleteMyAsset":7177,"Prop":7178,"ĠdonationQuery":7179,"Adhoc":7180,"-----'":7181,"listType":7182,"Ġsuccesfully":7183,"donationQuery":7184,"Now":7185,"Party":7186,"Ġ10000":7187,"TERED":7188,"resultKey":7189,"ĠRegistration":7190,"mynamespace":7191,"fileHash":7192,"companyKey":7193,"ache":7194,"ĠclientOrg":7195,"ĠbuyerName":7196,"clientOrg":7197,"ĠĠĠĠĠĠĠĠĠĠĠĠĠĠĠĠĠĠĠĠ":7198,"ĠĠĠĠĠĠĠĠĠĠĠĠĠĠĠĠĠĠĠĠĠĠĠĠĠĠĠĠĠĠĠĠĠĠĠĠĠĠĠ":7199,"donorKey":7200,"LET":7201,"Permission":7202,"TAB":7203,"processLine":7204,"accountNumber":7205,"ĠtravelAsset":7206,"writeFile":7207,"collectionName":7208,"Ġ2020":7209,"Ġsociet":7210,"propertiesBuffer":7211,"ĠdonorKey":7212,"Ġgenerated":7213,"SSS":7214,"ĠBook":7215,"MBER":7216,"ĠphoneNumber":7217,"ĠgetAssetObject":7218,"APPRO":7219,"ĠssccKey":7220,"ĠchairsId":7221,"Ġignore":7222,"ENAB":7223,"PARENT":7224,"Ġquality":7225,"equipmentNumber":7226,"gestedDestination":7227,"ervePrice":7228,"setStateToShipment":7229,"RichQuery":7230,"Directory":7231,"iÃ³n":7232,"AndDecrypt":7233,"processLineList":7234,"$(_":7235,"'].":7236,")*":7237,"):":7238,"Crypto":7239,"CTION":7240,"FA":7241,"FAC":7242,"PH":7243,"RSE":7244,"Random":7245,"\\',":7246,"break":7247,"dm":7248,"gv":7249,"ilo":7250,"km":7251,"lta":7252,"multisigTransferRequest":7253,"ny":7254,"param":7255,"sContract":7256,"ĠY":7257,"onom":7258,"stop":7259,"ĠcLoads":7260,"inText":7261,"Ġammend":7262,"getHistoryFor":7263,"ĠnewBalanceOf":7264,"ĠnewShipmentObject":7265,"Ġobserv":7266,"Ġpac":7267,"uti":7268,"utonom":7269,"ĠBuy":7270,"challenge":7271,"ĠAb":7272,"ĠĉĉĠ":7273,"fromBytes":7274,"AsBuffer":7275,"edIds":7276,"Ġsinh":7277,"ationdate":7278,"ĠassetToTransfer":7279,"ĠcarResults":7280,"ĠownerName":7281,"Ġexs":7282,"ĠgetQueryResult":7283,"carResults":7284,"')]),":7285,"ables":7286,"idBytes":7287,"PaperContract":7288,"loadFound":7289,"loadElement":7290,"ĠSO":7291,"Ġdob":7292,"ToExpiration":7293,"Ġclasses":7294,"newUser":7295,"ordererId":7296,"Ġusertype":7297,"asurement":7298,"Properties":7299,"Profiles":7300,"Spender":7301,"ĠjsonError":7302,"ĠidAsset":7303,"duck":7304,"ĠcurrentViewers":7305,"ivationdate":7306,"OfOperation":7307,"RER":7308,"Ġsee":7309,"Ġseconds":7310,"ĠpersonPrivate":7311,"ĠupdateAsset":7312,"ĠupdateAt":7313,"drugs":7314,"drugID":7315,"compare":7316,"Ġproducts":7317,"VotableItem":7318,"ĠclientAsBytes":7319,"ĠclientFiIndexKey":7320,"productList":7321,"fiClientIndexKey":7322,"clientAsBytes":7323,"clientFiIndexKey":7324,"ClientData":7325,"ĠTR":7326,"appInfo":7327,"ustomerId":7328,"ledgerUser":7329,"Hashes":7330,"ĠfiId":7331,"ĠfiClientIndexKey":7332,"ĠaccessId":7333,"ĠUserList":7334,"candidateAsbytes":7335,"shipperData":7336,"Consent":7337,"ĠWaitingList":7338,"ĠschemaList":7339,"doctorEmail":7340,"objects":7341,"Ġmedication":7342,"ĠexpiredAt":7343,"ballotCreated":7344,"ĠroyaltyManagement":7345,"ĠtempClass":7346,"ĠDrugHelper":7347,"ingAgent":7348,"Ġagency":7349,"ĠencryptedBytes":7350,"ĠencryptedH":7351,"ĠcryptoArg":7352,"privateLoad":7353,"ĠOWN":7354,"Ġ%>(":7355,"accessRights":7356,"ĠgetAssetHistory":7357,"Ġssi":7358,"ĠoriginalChaincodeFromContract":7359,"ĠoriginalFS":7360,"existingDrug":7361,"Ġinstitution":7362,"ĠpayoutAuthValue":7363,"ĠloadsContract":7364,"encryptedBytes":7365,"ousSystem":7366,"attrName":7367,"ĠconfirmDateTime":7368,"cessed":7369,"WhoRegistered":7370,"documentID":7371,"ĠdecryptedText":7372,"nection":7373,"Ġencoded":7374,"ĠtongSoChi":7375,"Ġneeds":7376,"ĠsecureRandom":7377,"TURER":7378,"ĠDoctor":7379,"ĠAccessToken":7380,"ĠMockChaincodeFromContract":7381,"ĠPersonInfo":7382,"ĠPHC":7383,"ModeOfOperation":7384,"ikes":7385,"ĠgetOrderHistory":7386,"utoscale":7387,"Limit":7388,"(\",\");":7389,"omeOperatorName":7390,"ESKeyLength":7391,"conciliation":7392,"ENABLED":7393,"FACTURER":7394,"Ġobservations":7395,"utonomousSystem":7396,"ĠencryptedHex":7397,")+'":7398,"+\"":7399,"68":7400,"Cd":7401,"Category":7402,"DI":7403,"Files":7404,"Has":7405,"Hore":7406,"OB":7407,"PLI":7408,"Sol":7409,"Sinh":7410,"UERY":7411,"Zm":7412,"aes":7413,"certific":7414,"dicom":7415,"gress":7416,"sandbox":7417,"uID":7418,"ªåıĤæķ°":7419,"ĠIdentity":7420,"Ġ**":7421,"ĠUnit":7422,"Ġ'/":7423,"redeem":7424,"Ġthese":7425,"Ġpush":7426,"Ġthrows":7427,"Ġemp":7428,"Ġdays":7429,"ĠqueryResult":7430,"xpected":7431,"OwnerID":7432,"Ġblogs":7433,"Ġowners":7434,"Ġstation":7435,"abc":7436,"abled":7437,"ForTime":7438,"ĠInitial":7439,"createAt":7440,"Ġvideo":7441,"startCommand":7442,"(\"[":7443,"apny":7444,"icero":7445,"ĠresponseTx":7446,"orderID":7447,"ĠdeleteCar":7448,"ĠuserInfo":7449,"ĠemptyContract":7450,"stantiation":7451,"REA":7452,"Ġpercent":7453,"ĠKeyEndorsementPolicy":7454,"drugBuffer":7455,"DrugBuffer":7456,"ĠreadMyAsset":7457,"recordExists":7458,"checkKey":7459,"ĠpatientInfo":7460,"final":7461,"products":7462,"eventService":7463,"\"](":7464,"Ġlink":7465,"Control":7466,"ĠGetQueryResultForQueryString":7467,"ĠprofileAsBytes":7468,"ĠcommonFunctions":7469,"ĠprivateAsset":7470,"AwID":7471,"decision":7472,"Ġupload":7473,"senderBalance":7474,"ĠQUERY":7475,"7890":7476,"cmFuY":7477,"ĠCommunity":7478,"Ġmarked":7479,"Medicine":7480,"Tech":7481,"ĠpaginatedRichQuery":7482,"MIIC":7483,"Activ":7484,"Ġaccept":7485,"Ġtenant":7486,"PurchaseOrder":7487,"authorised":7488,"ä¸ªåıĤæķ°":7489,"blockchain":7490,"purchaseOrderObject":7491,"notary":7492,"Comment":7493,"iploma":7494,"gAwIBAgIU":7495,"Poruti":7496,"ackordered":7497,"ĠGetAssetHistory":7498,"Horea":7499,"certification":7500,"Porutiu":7501,"216":7502,"CV":7503,"DocType":7504,"GEw":7505,"GlobalCitizen":7506,"HarvestBatch":7507,"ION":7508,"Mu":7509,"MonthlyForecast":7510,"Municip":7511,"Pledge":7512,"Ser":7513,"UEC":7514,"aKey":7515,"affiliation":7516,"coffee":7517,"crn":7518,"cbtObj":7519,"dt":7520,"facility":7521,"nom":7522,"nativity":7523,"qi":7524,"scollection":7525,"swC":7526,"ĠList":7527,"ĠView":7528,"eration":7529,"etwe":7530,"static":7531,"Ġcoupon":7532,"Ġagain":7533,"Ġ':'+":7534,"Ġtemperature":7535,"Ġtreatment":7536,"ateTxContextId":7537,"Ġmodeled":7538,"ref":7539,"getChannelID":7540,"ĠnewSenderBalance":7541,"ĠnewCompanyObject":7542,"ĠĉĠčĊ":7543,"toFi":7544,"syscollection":7545,"Ġthrowing":7546,"Ġdetail":7547,"Ġtrip":7548,"edObj":7549,"riend":7550,"Ġbag":7551,"Ġstream":7552,"ĠgetIdentity":7553,"Ġ==========');":7554,"usic":7555,"Ġ\"${":7556,"006":7557,"izeX":7558,"Ġ()=>{":7559,"ersData":7560,"Ġexiste":7561,"({'":7562,"Ġwarn":7563,"Form":7564,"ForUpdate":7565,"ForShipment":7566,"Composite":7567,"CarInfo":7568,"ructions":7569,"Ġvaccination":7570,"CompositeKeysFor":7571,"usePoints":7572,"enum":7573,"Ġvari":7574,"Ġprob":7575,"ĠdataID":7576,"updateUser":7577,"ĠmockGetCurrMsg":7578,"serialize":7579,"endpoint":7580,"ChaincodeSupportClient":7581,"mockParseResponse":7582,"mockRemoveCurrentAndSendNextMsg":7583,"mockSendMsg":7584,"dataBuffer":7585,"Ġuniversity":7586,"chant":7587,"ĠdrugID":7588,"ĠreturnedTransporter":7589,"ĠreturnedRetailer":7590,"ĠreturnedCompanyName":7591,"ĠreturnedCompanyCRN":7592,"DeleteState":7593,"ReceiverId":7594,"ĠupdateAssetOwnership":7595,"ĠFile":7596,"\")[":7597,"Ġvotes":7598,"DrugId":7599,"ĠMatch":7600,"Orgs":7601,"ĠmyAssetExists":7602,"ĠhandleMsgResponse":7603,"clientTravel":7604,"handleGetQueryResult":7605,"handleInvokeChaincode":7606,"SenderId":7607,"Meeting":7608,"Ġcomplete":7609,"\"]){":7610,"ĠallOrders":7611,"ĠallOrgans":7612,"ĠallCandidates":7613,"ĠregisterStub":7614,"application":7615,"ĠtravelId":7616,"pathToRoot":7617,"ISH":7618,"mtId":7619,"PriceDepositPerPassenger":7620,"Common":7621,"ĠLocation":7622,"Ġpost":7623,"Ġ{}});":7624,"DATA":7625,"ternateTxContextId":7626,"ĠNodeContext":7627,"ergedObj":7628,"'}).":7629,"cieverMSPId":7630,"ForOwnerResponseRange":7631,"Ġ+'-'":7632,"ĠjobID":7633,"signment":7634,"drinkType":7635,"patentStatus":7636,"ĠpaidByTravel":7637,"maxWeigth":7638,"myCollectionName":7639,"self":7640,"ĠprocesslineKey":7641,"DigitalAssetEvent":7642,"ĠconfirmTimestamp":7643,"propName":7644,"MIT":7645,"SsiSmartContract":7646,"Begin":7647,"ĠreturnedBuyerCompanyCRN":7648,"DrugDetailsObject":7649,"earnPoints":7650,"ĠreadyMsg":7651,"Ġappointments":7652,"zzzzzzzzzzzzzzzz":7653,"handleQueryStateNext":7654,"MQswC":7655,"coinConfig":7656,"executeFunction":7657,"ĠassetJsonBuffer":7658,"QYDVQQGEw":7659,"cupId":7660,"JVUz":7661,"valuationMeeting":7662,"\\\":\\\"":7663,"Ġgrades":7664,"ĠmodifiedDrugDetailsObject":7665,"PartnerName":7666,"ĠlistOfCompositeKeysFor":7667,"ĠexpireAssetOwnership":7668,"Ġheaders":7669,"ResultsIteratorForComparisionResponseRange":7670,"utxos":7671,"isReferred":7672,"Ġmerchant":7673,"localhost":7674,"wHhcNMTcw":7675,"warehousenet":7676,"Municipality":7677,"UECBM":7678,"etween":7679,"toFixed":7680,"syscollections":7681,"ĠwarnOn":7682,"ForUpdateShipment":7683,"MQswCQYDVQQGEw":7684,"ĠlistOfCompositeKeysForDrugs":7685,"MQswCQYDVQQGEwJVUz":7686,"!\"":7687,".\";":7688,"405":7689,"BY":7690,"DN":7691,"MG":7692,"UL":7693,"aTx":7694,"beta":7695,"did":7696,"ga":7697,"gg":7698,"gvinfo":7699,"nam":7700,"pair":7701,"ved":7702,"vaccination":7703,"wed":7704,"xp":7705,"yID":7706,"}-":7707,"Ġ#":7708,"ĠTimestamp":7709,"Ġwaiting":7710,"ĠshipperId":7711,"erm":7712,"incoming":7713,"esis":7714,"Ġ'\\":7715,"arges":7716,"Ġthro":7717,"getSignedProposal":7718,"isInitiator":7719,"ĠfuncAndPar":7720,"Ġdt":7721,"Ġregex":7722,"Ġsal":7723,"exchange":7724,"pute":7725,"omet":7726,"ĠService":7727,"deletePrivateData":7728,"ByKey":7729,"ByColor":7730,"Ġvin":7731,"dateOf":7732,"ension":7733,"Ġchallenge":7734,"Ġ30":7735,"Ġprovide":7736,"updateDrug":7737,"ĠcontractData":7738,"REQ":7739,"initiator":7740,"OKEN":7741,"addUser":7742,"Ġgood":7743,"JsonObject":7744,"ĠĠĠĠĠĠĠĠĠĠĠĠĠĠĠĠĠĠĠĠĠĠĠĠĠĠĠĠčĊ":7745,"}`));":7746,"continue":7747,"ĠUserContract":7748,"Ġprocessor":7749,"ĠpoObject":7750,"PatientRecord":7751,"MockDataMarhsall":7752,"ĠHarvestBatch":7753,"profileAsBytes":7754,"Starting":7755,"Ġdestination":7756,"ĠfileId":7757,"Ġtests":7758,"Successfully":7759,"3333":7760,"051":7761,"MedicalRecord":7762,"Team":7763,"Green":7764,"ReqObj":7765,"Activity":7766,"ĠQueryAssetsWithPagination":7767,"ĉĉĉĉĉĉĉĉ":7768,"Laboratory":7769,"Ġoutput":7770,"Association":7771,"Ġdenine":7772,"ĠfloatSenderBalance":7773,"TRANSACTIONRECORD":7774,"Genesis":7775,"PenalizedBy":7776,"Ġconverted":7777,"REGISTER":7778,"ĠsocietyID":7779,"SinhVien":7780,"ĠstationID":7781,"39":7782,"45":7783,"7051":7784,":\");":7785,"Ax":7786,"Awaiting":7787,"Basket":7788,"City":7789,"CREA":7790,"Done":7791,"Fcn":7792,"GER":7793,"Iem":7794,"Med":7795,"OAsBytes":7796,"PI":7797,"Please":7798,"RFIDtag":7799,"San":7800,"START":7801,"Sales":7802,"_\"":7803,"dn":7804,"gs":7805,"hsc":7806,"ividend":7807,"mo":7808,"nomor":7809,"naver":7810,"wD":7811,"åĲ":7812,"çĶ":7813,"ĠQu":7814,"ĠFunction":7815,"Ġ).":7816,"Ġjs":7817,"Ġsome":7818,"ĠHistoryQueryIterator":7819,"erEmail":7820,"Ġcoffee":7821,"Ġcdr":7822,"lean":7823,"itting":7824,"('=====":7825,"Ġ'${":7826,"Ġtot":7827,"roaming":7828,"secondCall":7829,"anLy":7830,"eward":7831,"ĠnewPO":7832,"ĠĉĠĠčĊ":7833,"toWireBuffer":7834,"today":7835,"Ġecho":7836,"isAsset":7837,"ĠBikes":7838,"trading":7839,"queryKey":7840,"ĠCSP":7841,"Invok":7842,"ĠAjv":7843,"Ġdst":7844,"lengthOf":7845,"ril":7846,"hashedKey":7847,"Ġsale":7848,"errorWrapper":7849,"putation":7850,"Ġint":7851,"Ġ12":7852,"Ġ:\"":7853,"Ġ\":\"":7854,"CompKey":7855,"setLevel":7856,"setPrototypeOf":7857,"ownerMSPId":7858,"ĠContractCommon":7859,"ĠcontractImpl":7860,"Ġcclogger":7861,"There":7862,"hare":7863,"FromPubECDSA":7864,"Ġtranscript":7865,"loggerPrefix":7866,"ĠupdateProperty":7867,"OrderInfo":7868,"ĠreadResponse":7869,"ĠMedic":7870,"Password":7871,"ifications":7872,"ĠcompanyId":7873,"RegistrationObject":7874,"withdraw":7875,"ERSHIP":7876,"sellerList":7877,"callDetails":7878,"ĠerrMsg":7879,"ProductID":7880,"LECTION":7881,"accountAddress":7882,"ĠdateStr":7883,"ĠwalletAsBytes":7884,"writeFileStub":7885,"Secret":7886,"candidateToTransfer":7887,"SystemContract":7888,"Ġrejects":7889,"RegRequestKey":7890,"doctorList":7891,"ĠProp":7892,"Units":7893,"AccessToken":7894,"ĠcollectionName":7895,"projectId":7896,"fakeCcfc":7897,"DetailJSON":7898,"Modifier":7899,"ĠactionId":7900,"SignersData":7901,"VotableIem":7902,"transporterResponseRange":7903,"Ġsignature":7904,"('../../../',":7905,"providerData":7906,"privateValue":7907,"levelSpy":7908,"maLopHocPhan":7909,"Pharmacy":7910,"Listings":7911,"QueryStateNext":7912,"Ġtags":7913,"ĠfishAsBytes":7914,"video":7915,"airTrade":7916,"Ġtopics":7917,"authorized":7918,"April":7919,"ehrId":7920,"ĠincomeData":7921,"Ġprogram":7922,"fishAsBytes":7923,"Ġenterance":7924,"Accepted":7925,"ĠGetAssetsByRangeWithPagination":7926,"ĠearnPoints":7927,"11111":7928,"CBeta":7929,"Ġestado":7930,"Ġnetnode":7931,"Ġcollect":7932,"ĠTRANS":7933,"ĠOWNERSHIP":7934,"apnyBuffer":7935,"MITTED":7936,"ĠQuanLy":7937,"isAssetExisting":7938,"ĠcontractImpls":7939,"ĠQuanLyDiem":7940,"'})":7941,"(\\":7942,"32":7943,"Auction":7944,"Akta":7945,"CR":7946,"Ck":7947,"Cant":7948,"Certificates":7949,"Carton":7950,"Dis":7951,"EAwID":7952,"Fo":7953,"Filled":7954,"HierarchyKey":7955,"IF":7956,"IW":7957,"Lsp":7958,"LLECTION":7959,"Milk":7960,"Nw":7961,"Pair":7962,"Parameter":7963,"Qm":7964,"Rw":7965,"Summary":7966,"WjB":7967,"XN":7968,"Xa":7969,"]+'":7970,"bag":7971,"df":7972,"gative":7973,"jValue":7974,"mG":7975,"mium":7976,"nect":7977,"pV":7978,"rX":7979,"})));":7980,"~'":7981,"ĠTrade":7982,"ĠLoan":7983,"onet":7984,"itive":7985,"Ġ':'":7986,"Ġtask":7987,"Ġmachine":7988,"roles":7989,"ifec":7990,"ane":7991,"Ġobserver":7992,"pem":7993,"lophoc":7994,"ĠĉĠĠĠĠ":7995,"isPaid":7996,"KeyArray":7997,"queryAll":7998,"answer":7999,"adget":8000,"adline":8001,"Ġreading":8002,"ĠrenewPlate":8003,"ments":8004,"pector":8005,"AsObject":8006,"txID":8007,"ĠcarId":8008,"Ġstored":8009,"Ġinter":8010,"Truck":8011,"ĠtoWireBuffer":8012,"ĠgetSchema":8013,"Ġ\"\")":8014,"QueryResponse":8015,"ĠChaincodeCrypto":8016,"Ġhealth":8017,"ByID":8018,"ToPublish":8019,"emission":8020,"consent":8021,"ĠcreateAt":8022,"setLogger":8023,"ResultEvent":8024,"(`[":8025,"responseProto":8026,"Ġchang":8027,"trip":8028,"ĠdeleteOrder":8029,"ĠcontractImplementations":8030,"ĠuserInfoObj":8031,"marksAsBytes":8032,"transactionID":8033,"endDate":8034,"Thi":8035,"agnet":8036,"997":8037,"']),":8038,"COLLECTION":8039,"ĠissueStatus":8040,"ĠPo":8041,"ĠPharnet":8042,"PartialKeyArray":8043,"timestampString":8044,"PropertyKey":8045,"Roaming":8046,"finished":8047,"RegistrationNo":8048,"ĠhandleParameters":8049,"ĠsellerName":8050,"events":8051,"ĠnoCount":8052,"requestID":8053,"ĠbeforeFnStubA":8054,"currently":8055,"rais":8056,"ĠNOT":8057,"ĠafterFnStubA":8058,"cadena":8059,"ĠTransferAssetByColor":8060,"contain":8061,"ĠjValue":8062,"ENTITY":8063,"567":8064,"ĠpathStub":8065,"ĠWorld":8066,"medication":8067,"holderID":8068,"Students":8069,"channelName":8070,"TCCA":8071,"UEAx":8072,"Ġelements":8073,"CONTRACTORS":8074,"rawmaterial":8075,"issued":8076,"Ġsending":8077,"verifierID":8078,"ĠdeliveryID":8079,"Licence":8080,"ĠfinanceCoData":8081,"ancelled":8082,"jobID":8083,"ĠruleList":8084,"PERMITTED":8085,"Ġpharma":8086,"ĠQueryAssetsByOwner":8087,"Ġaccepted":8088,"createdBy":8089,"chairsId":8090,"ä¸į":8091,"ĠImport":8092,"Documents":8093,"notaryId":8094,"ĠbetaStub":8095,"elemMatch":8096,"patchDate":8097,"salt":8098,"ĠyesCount":8099,"qGSM":8100,"ifecycle":8101,"ĠgetSchemaMock":8102,"setLoggerCfg":8103,")\"":8104,".\")":8105,"87":8106,"Author":8107,"BCO":8108,"NE":8109,"OF":8110,"Trip":8111,"Yes":8112,"[^":8113,"_];":8114,"bda":8115,"der":8116,"hn":8117,"kb":8118,"ker":8119,"nit":8120,"overage":8121,"print":8122,"player":8123,"sort":8124,"uZXhhbXBsZS":8125,"yZ":8126,"}::":8127,"°ĥ":8128,"è°ĥ":8129,"ĠON":8130,"Ġknown":8131,"ĠMSPID":8132,"ĠIS":8133,"arcode":8134,"att":8135,"aterial":8136,"atitude":8137,"Ġtarget":8138,"Ġroles":8139,"Ġconnection":8140,"ree":8141,"regex":8142,"getRe":8143,"ĠnewId":8144,"ĠreturnSchema":8145,"ĠpmtId":8146,"ĠCF":8147,"ĠCall":8148,"them":8149,"ĠAccount":8150,"Ġregist":8151,"Owners":8152,"Ġsc":8153,"ambda":8154,"Ġimage":8155,"unded":8156,"ById":8157,"actionId":8158,"ĠstartDate":8159,"apac":8160,"ownerData":8161,"ResponseFrom":8162,"contractKey":8163,"DataAttributes":8164,":''":8165,"lave":8166,"Ġextension":8167,"dataList":8168,"Username":8169,"ĠdrugList":8170,"Change":8171,"ĠissueDate":8172,"ĠPh":8173,"ĠPrint":8174,"***":8175,"drugObj":8176,"organInfoinJSON":8177,"ĠRemove":8178,"calledWithExactly":8179,"votes":8180,"propertyDetails":8181,"ACCE":8182,"ĠupdatedTime":8183,"ĠsellerAsBytes":8184,"eventData":8185,"fiet":8186,"Transports":8187,"ĠpropertyObj":8188,"Ġcalling":8189,"ugh":8190,"Ġ`;":8191,"ĠcheckAmount":8192,"ĠcheckStatus":8193,"donorInfo":8194,"ĠallPartners":8195,"INJson":8196,"ciled":8197,"ĠNew":8198,"Ġenvi":8199,"generated":8200,"functionExists":8201,"ĠwalletTo":8202,"ĠwalletOwnerId":8203,"ĠcandidateInfoinJSON":8204,"PEM":8205,"ĠcertNumber":8206,"Community":8207,"walletAsBytes":8208,"Ġviewers":8209,"ĠpathExistsStub":8210,"Confirm":8211,"Constructor":8212,"ĠWork":8213,"royalty":8214,"Entry":8215,"Ġpayee":8216,"192":8217,"invoiceList":8218,"Ġcredential":8219,"offerId":8220,"creditNote":8221,"drugKeyDataBuffer":8222,"Processor":8223,"packageID":8224,"ĠbankAccount":8225,"Ġstudents":8226,"livering":8227,"ĠmarksAsBytes":8228,"SubscriberSim":8229,"deviceID":8230,"fundStruct":8231,"ĠuniUser":8232,"systemcontract":8233,"ĠcommunityNumber":8234,"counterfiet":8235,"ĠreceiveShipment":8236,"ĠrateArray":8237,"Expired":8238,"ĠplaceId":8239,"SIG":8240,"Premium":8241,"adhaarNo":8242,"ĠParticipant":8243,"CDRObject":8244,"15525":8245,"charAt":8246,"Ġexsist":8247,"ĠMatched":8248,"AwaitingResponseFrom":8249,"çĶ¨":8250,"BCOINJson":8251,"nitore":8252,"è°ĥçĶ¨":8253,"apacity":8254,"ĠPrinting":8255,"royaltyManagement":8256,"80":8257,"Credentials":8258,"Distribut":8259,"Fyb":8260,"Ir":8261,"KS":8262,"Lin":8263,"MIN":8264,"None":8265,"QH":8266,"Qi":8267,"Somet":8268,"\\\",":8269,"audit":8270,"banks":8271,"cD":8272,"dG":8273,"dob":8274,"dGV":8275,"dTech":8276,"iQ":8277,"ija":8278,"link":8279,"rain":8280,"sim":8281,"verride":8282,"world":8283,"yaW":8284,"}:${":8285,"åħ":8286,"Ġ=======');":8287,"Ġ-->":8288,"ĠPrice":8289,"onym":8290,"arFile":8291,"Ġcm":8292,"inner":8293,"ority":8294,"Ġacc":8295,"Ġnib":8296,"Ġmade":8297,"getClass":8298,"Ġoverride":8299,"perf":8300,"Ġprint":8301,"KeyValue":8302,"ĠBank":8303,"jsontransaction":8304,"track":8305,"ĠChain":8306,"Information":8307,"Inventory":8308,"Ġfir":8309,"Ġdd":8310,"Ġdif":8311,"Ġexce":8312,"ĠgetID":8313,"enter":8314,"Ġ\"\");":8315,"Ġbeca":8316,"ĠSU":8317,"deleteCollection":8318,"allRating":8319,"Ġdoesnt":8320,"ĠendDate":8321,"userEmail":8322,"proof":8323,"ĠcreateOrder":8324,"Ġ21":8325,"ĠisValid":8326,"enant":8327,"Ġchild":8328,"Ġprops":8329,"updateState":8330,"endTime":8331,"ĠcurrentLoc":8332,"Metric":8333,"([]),":8334,"ĠorderHistory":8335,"Channel":8336,"verallRating":8337,"myID":8338,"ĠOwnerID":8339,"UpdateCompositeKey":8340,"theQuery":8341,"ĠsellerBalance":8342,"ĠeventService":8343,"clientLogged":8344,"sellerAsBytes":8345,"ĠassertAttributeValue":8346,"Ġorganiz":8347,"Ġorganisation":8348,"ĠshipmentList":8349,"ĠĠĠĠĠĠĠĠĠĠĠĠĠĠĠĠĠĠ":8350,"Ġserialization":8351,"LEw":8352,"buffered":8353,"MyPrivateAsset":8354,"BatchFeed":8355,"ĠitemInfo":8356,"ĠcreatedBy":8357,"inside":8358,"CheckNumber":8359,"CheckDate":8360,"DATE":8361,"ĠexistingShipment":8362,"medicalRecord":8363,"Ġdecision":8364,"Ġcountry":8365,"POC":8366,"Ġlead":8367,"PROD":8368,"Funding":8369,"Ġemergency":8370,"ĠGener":8371,"privateAsset":8372,"nowledge":8373,"ĠUUID":8374,"ShipCertificates":8375,"ĠbankTransactionId":8376,"Ġactual":8377,"jobId":8378,"MTB":8379,"MPLETED":8380,"RemoveCompositeKey":8381,"energyValue":8382,"residents":8383,"IUM":8384,"Ġprevious":8385,"LEDGER":8386,"LOCK":8387,"ĠInsurance":8388,"Contacts":8389,"biBG":8390,"LAND":8391,"utilityCompanies":8392,"QYDVQQLEw":8393,"150405":8394,"Initialized":8395,"ĠRegistrarContract":8396,"Identities":8397,"uku":8398,"LMAkGA":8399,"ĠaboutUs":8400,"ĠqueryTMCResultsParse":8401,"ruitBasket":8402,"JuaWExFjAUBgNVBAcTDVNh":8403,"wDQYDVQQLEw":8404,"Something":8405,"jsontransactionserializer":8406,"Ġbecause":8407,"biBGcmFuY":8408,"!\"});":8409,")/":8410,"))));":8411,"60":8412,"AU":8413,"Ab":8414,"CERTIFICATE":8415,"Farm":8416,"Farmer":8417,"GL":8418,"Good":8419,"Handle":8420,"HIS":8421,"HTTPService":8422,"MUL":8423,"NX":8424,"Ori":8425,"OTC":8426,"Pled":8427,"Pic":8428,"Qr":8429,"Treated":8430,"Times":8431,"UTC":8432,"XJ":8433,"blogNumber":8434,"category":8435,"fY":8436,"fy":8437,"flag":8438,"frame":8439,"just":8440,"ping":8441,"pack":8442,"pmt":8443,"pings":8444,"qrDecodedPayload":8445,"tH":8446,"ua":8447,"vey":8448,"ya":8449,"§ĭ":8450,"å§ĭ":8451,"ĠUn":8452,"eries":8453,"aring":8454,"arist":8455,"Ġclaim":8456,"alternateTxContextId":8457,"('.')":8458,"Ġ':":8459,"ĠtSplit":8460,"Ġtls":8461,"Ġrandom":8462,"Ġrich":8463,"Statistic":8464,"ĠnSplit":8465,"Ġmps":8466,"ĠmergedObj":8467,"ift":8468,"recieverBalance":8469,"urvey":8470,"Resol":8471,"getMsg":8472,"getPublicKey":8473,"getBinding":8474,"getPartialKeyArray":8475,"ĠnewState":8476,"ĠnewJson":8477,"ĠnewCDRObject":8478,"ulator":8479,"shift":8480,"Ġok":8481,"Ġotc":8482,"toCurrentBalanceBytes":8483,"toBalanceKey":8484,"toUpdatedBalance":8485,"valueInt":8486,"isValid":8487,"isWhoRegistered":8488,"ĠBe":8489,"ĠBike":8490,"ĠBuku":8491,"shipping":8492,"queryWallet":8493,"ĠCandidate":8494,"InShipment":8495,"Invest":8496,"logLevel":8497,"ĠALL":8498,"Ġfitting":8499,"ĠrecieverBalance":8500,"otc":8501,"fromCurrentBalance":8502,"fromCurrentBalanceBytes":8503,"fromBalanceKey":8504,"fromUpdatedBalance":8505,"hao":8506,"ĠjsonResult":8507,"OwnerMspId":8508,"Ġbinding":8509,"Ġcard":8510,"ĠcarInfo":8511,"Ġimplementations":8512,"unknown":8513,"ĠtoCurrentBalanceBytes":8514,"ponce":8515,"carInfo":8516,"ĠnameBytes":8517,"')[":8518,"paperContent":8519,"nameKey":8520,"Ġbegin":8521,"AssetValue":8522,"ĠparsePeerUrl":8523,"ĠSH":8524,"ĠSerial":8525,"ĠChaincodeMockStub":8526,"Ġwent":8527,"Ġweb":8528,"()),":8529,"Care":8530,"ToHash":8531,"ContractStub":8532,"userInfo":8533,"userMSPID":8534,"consumption":8535,"startTime":8536,"ĠisContractStub":8537,"usePointsTransactionsKey":8538,"numbers":8539,"ĠtransferResp":8540,"maturity":8541,"./);":8542,"nextFi":8543,"WithAttrs":8544,"ĠuserMSPID":8545,"asci":8546,"ĠmetadataPath":8547,"ĠchangeMobilenumber":8548,"transactionAsBytes":8549,"ĠjsonDrugDetail":8550,"readMarble":8551,"mockPeerAddress":8552,"mockOpts":8553,"sprint":8554,"FromCommand":8555,"READY":8556,"(`${_":8557,"DENT":8558,"ĠdrugResults":8559,"ĠdrugDataBuffer":8560,"ĠdrugCompositeKeyID":8561,"initMarble":8562,"ĠfromCurrentBalance":8563,"ĠfromCurrentBalanceBytes":8564,"Ġdecoded":8565,"NoTimes":8566,"ĠqueryByObjectType":8567,"transferMarblesBasedOnColor":8568,"transferResp":8569,"andleMessage":8570,"Attemp":8571,"FiResult":8572,"ĠbufferArgs":8573,"ĠbufferOri":8574,"buyOrder":8575,"ĠcompanyList":8576,"ĠcompanyResultsIterator":8577,"companyObject":8578,"CompanyObj":8579,"Ġgrower":8580,"ĠclientMSPID":8581,"MATER":8582,"patientInfo":8583,"iesId":8584,"productOrders":8585,"ĠupdatedDonation":8586,"ĠupdatedBalance":8587,"ĠupdatedCarInfo":8588,"Ġoraclize":8589,"clientMSPID":8590,"clientAccountID":8591,"without":8592,"ĠlogLevel":8593,"Uni":8594,"DetailsBuffer":8595,"requestKey":8596,"ĠcallDuration":8597,"ĠlistFromCommand":8598,"handleGetStateByRange":8599,"TISIG":8600,"ShipmentCompositeKey":8601,"LES":8602,"CAL":8603,"transcript":8604,"ĠallProfiles":8605,"ClientResult":8606,"ĠTO":8607,"appr":8608,"uuids":8609,"expectedDefault":8610,"ĠfundAuthValue":8611,"ĠdateExpired":8612,"ĠNon":8613,"ĠRun":8614,"updatedAllowance":8615,"ĠfiAsBytes":8616,"pose":8617,"ĠOrderStates":8618,"ĠemailAddress":8619,"ĠcertArray":8620,"NewNumber":8621,"345":8622,"Commit":8623,"walletBS":8624,"allowanceBytes":8625,"ĠcommKey":8626,"ĠqrDecodedPayload":8627,"viewerId":8628,"AccessCompositeKey":8629,"testTransient":8630,"ProjectsAsBytes":8631,"ĠgenerateKey":8632,"label":8633,"ViewerId":8634,"ĠtimeToExpiration":8635,"listingAsBytes":8636,"ĠallowedIdentities":8637,"SellerCompanyID":8638,"ĠlistingAsBytes":8639,"ĠallowanceBytes":8640,"ible":8641,"ĠsigningId":8642,"ablishedMsg":8643,"ContractorsAsBytes":8644,"ĠlistOfAssetsArr":8645,"FundStruct":8646,"nses":8647,"ĠverifyResult":8648,"ĠQMsg":8649,"BusinessNetworkDefinition":8650,"ĠVote":8651,"schemaList":8652,"ĠparsedShipmentData":8653,"approvedPayments":8654,"CompanyCRNForComparision":8655,"symbolKey":8656,"ĠmaxTemp":8657,"Ġminutes":8658,"ĠminTemp":8659,"accessId":8660,"ĠpaidByDeposit":8661,"isco":8662,"FIData":8663,"Ġssn":8664,"rollno":8665,"BidID":8666,"Ġinstructions":8667,"Medication":8668,"ĠpurchaseOrderDataBuffer":8669,"ĠTopic":8670,"Teacher":8671,"transporterCRNResponseRange":8672,"ginal":8673,"AadharId":8674,"Ġoccur":8675,"lationBy":8676,"decimalsKey":8677,"ĠwriteFileStub":8678,"PROJECTS":8679,"Ġmanufacture":8680,"ĠsymbolBytes":8681,"returnedBuyer":8682,"ĠREGIS":8683,"sellerCRNResponseRange":8684,"ĠreceiveOrder":8685,"bmleKey":8686,"ĠtransportShipment":8687,"earnPointsTransactionsKey":8688,"prescriptionId":8689,"tradeOrderList":8690,"ronment":8691,"ronym":8692,"\"},{\"":8693,"Coordinate":8694,"ĠreferredTo":8695,"Ġprogress":8696,"edHandleMessage":8697,"ShipperId":8698,"ĠfloatRecieverBalance":8699,"requestedSerializer":8700,"ĠactorId":8701,"TrackingInfo":8702,"letterStatus":8703,"Ġpresent":8704,"queryMarblesByOwner":8705,"ĠcurrentAllowanceBytes":8706,"currentAllowanceBytes":8707,"ĠgenerateTransporterCompanyID":8708,"ĠgenerateTransporterForShipment":8709,"medicalRegistrationNo":8710,"NUMPROJECTS":8711,"utureContract":8712,"ĠwalletsArray":8713,"ĠMarks":8714,"ĠassignShipper":8715,"MPLETE":8716,"cartonId":8717,"ĠcreateStubStub":8718,"LocalID":8719,"ĠsavedHandleMessage":8720,"getHistoryForMarble":8721,"CREATED":8722,"Canton":8723,"onetary":8724,"HandleGetStateMetadata":8725,"MULTISIG":8726,"Pledges":8727,"arista":8728,"('.')[":8729,"Ġmpsid":8730,"urveyID":8731,"nextFiId":8732,"ascii":8733,"ĠchangeMobilenumberOwner":8734,"Attempted":8735,"ĠbufferOriginal":8736,"MATERIAL":8737,"ĠlistFromCommandLine":8738,"ĠREGISTERED":8739,"ĠgenerateTransporterForShipmentUpdation":8740,"!==":8741,"\"]);":8742,"Cs":8743,"EO":8744,"EV":8745,"KL":8746,"Magnet":8747,"Pla":8748,"Pallet":8749,"Patent":8750,"RB":8751,"Table":8752,"_.":8753,"detail":8754,"fset":8755,"gq":8756,"iG":8757,"opts":8758,"ohn":8759,"Ġund":8760,"ĠOrganization":8761,"Ġshipping":8762,"onia":8763,"Ġca":8764,"('[":8765,"('**":8766,"('=======":8767,"Ġtmp":8768,"Ġrange":8769,"Ġconfig":8770,"Ġconsumption":8771,"round":8772,"reation":8773,"release":8774,"ĠnewCandidate":8775,"ĠnewDrugObject":8776,"Ġother":8777,"Ġpk":8778,"isRequested":8779,"ĠApp":8780,"ĠAuthor":8781,"ĠAkta":8782,"Ġfuction":8783,"Ġreason":8784,"Ġtracking":8785,"getStateAsObject":8786,"Ġownership":8787,"Ġissu":8788,"Trader":8789,"carId":8790,"Ġits":8791,"')){":8792,"ĠmodelKey":8793,"AssetID":8794,"upload":8795,"Ġ25":8796,"begin":8797,"icID":8798,"IndexDoc":8799,"ĠunicID":8800,"ĠqueryAllPatient":8801,"ĠqueryAllOrders":8802,"ĠPacient":8803,"addOrgs":8804,"IssueDate":8805,"CarsList":8806,"ĠaddPrivateData":8807,"ifiers":8808,"Ġclients":8809,"ACTI":8810,"going":8811,"ĠarFile":8812,"buyerAsBytes":8813,"currentTime":8814,"generateKey":8815,"125":8816,"poKey":8817,"ĠOrdered":8818,"walletId":8819,"usersMSP":8820,"Condition":8821,"ĠdoctorInfo":8822,"Ġcorrectly":8823,"voking":8824,"ĠlandAsBytes":8825,"Ġshare":8826,"Ġ60":8827,"286":8828,"hospitalCode":8829,"Ġ+':'+":8830,"ĠcageId":8831,"ĠoldAccount":8832,"eslabonGenesis":8833,"accessToken":8834,"APPLI":8835,"ĠStock":8836,"LLER":8837,"reporting":8838,"ĠRES":8839,"ĠPharmanetContract":8840,"Ġoptions":8841,"alerCarsList":8842,"Ġnegative":8843,"Ġdenied":8844,"åĪ°":8845,"ORGS":8846,"Ġposition":8847,"ĠthemGiangVien":8848,"ĠthemSinhVien":8849,"Ġteach":8850,"tsC":8851,"ĠĉĠĠĠĠĠĠĠĠĉĉ":8852,"oCorp":8853,"oliceRecord":8854,"challengeId":8855,"Ġ**');":8856,"Ġvariables":8857,"ĠGenerating":8858,"MagnetoCorp":8859,"Ġ+':'+('":8860,"'+'":8861,"+=":8862,"-]+":8863,"101":8864,"46":8865,"?\\-\\-\\-\\-\\-":8866,"An":8867,"Aux":8868,"Branch":8869,"Dividend":8870,"EA":8871,"Fab":8872,"Frequency":8873,"Hon":8874,"Health":8875,"HISTORY":8876,"Jx":8877,"Mt":8878,"Nj":8879,"Poll":8880,"SO":8881,"Sand":8882,"Ta":8883,"Tanah":8884,"Term":8885,"VJ":8886,"Version":8887,"Vaccination":8888,"\\(\\":8889,"bs":8890,"beth":8891,"cory":8892,"city":8893,"dp":8894,"dor":8895,"faceValue":8896,"marbles":8897,"moi":8898,"ning":8899,"ness":8900,"ose":8901,"precord":8902,"sBytes":8903,"vaccine":8904,"xZ":8905,"yield":8906,"ĠDelete":8907,"ĠwaitingList":8908,"onSale":8909,"Ġcatalog":8910,"orden":8911,"Ġable":8912,"Ġaudit":8913,"('======":8914,"Ġnghiep":8915,"dept":8916,"anID":8917,"ĠnewWeight":8918,"share":8919,"Ġparam":8920,"jsonkey":8921,"querySelector":8922,"ados":8923,"ĠAc":8924,"Ġfeed":8925,"Ġdc":8926,"reservePrice":8927,"Ġqueryname":8928,"Ġtrail":8929,"otData":8930,"txTimestamp":8931,"Ġbc":8932,"Ġblue":8933,"ordproject":8934,"cen":8935,"Ġstore":8936,"extra":8937,"Registry":8938,"Ġexports":8939,"Ġpapers":8940,"ĠgetHistoryForKey":8941,"RangeResults":8942,"RecordList":8943,"Ġhoc":8944,"ssuing":8945,"ĠcreateVoter":8946,"Ġchat":8947,"Ġ35":8948,"orderKey":8949,"ĠdataOwner":8950,"ĠdataId":8951,"updateOrder":8952,"ĠcontractClasses":8953,"ĠuserData":8954,"market":8955,"ĠmetadataKey":8956,"ĠjsonObj":8957,"ender":8958,"dataParsed":8959,"FromCRN":8960,"OfAsset":8961,"Ġbuyers":8962,"ĠqueryAllUsers":8963,"Challenge":8964,"Charges":8965,"initLedger":8966,"ĠAssetTransferEvents":8967,"Country":8968,"getOwnerMSP":8969,"mychannel":8970,"ingOwnerMSP":8971,"ources":8972,"ĠpatientExists":8973,"Ġguard":8974,"patientID":8975,"ĠbuyerAsBytes":8976,"ACE":8977,"Ġnumero":8978,"callDetailIndex":8979,"providers":8980,"Ġcomponent":8981,"CAQ":8982,"Period":8983,"\"])))":8984,"Ġlongitude":8985,"Ġlatitude":8986,"batches":8987,"batchID":8988,"ĠdateManufactured":8989,"ĠNot":8990,"IST":8991,"partDate":8992,"registerStub":8993,"ifiedOperator":8994,"Ġenabled":8995,"}`})));":8996,"generatePayload":8997,"ĠcandidateAsbytes":8998,"MyAssetContract":8999,"candidateInfo":9000,"ĠcpKey":9001,"members":9002,"memberAsBytes":9003,"cpKey":9004,"ĠpoDetails":9005,"Confirmed":9006,"accordproject":9007,"ĠobjType":9008,"Ġfinally":9009,"voterAsBytes":9010,"ĠinvoiceNumber":9011,"Ġmedical":9012,"ĠmemberAsBytes":9013,"])};":9014,"Ġsellers":9015,"ModifiedBy":9016,"Ġ?[^":9017,"ĠDrugList":9018,"Ġtestfile":9019,"certificateAsBytes":9020,"ĠlandNumber":9021,"ĠsignerId":9022,"ĠsignerMspId":9023,"ĠassetIDs":9024,"senderMSPId":9025,"reqidentity":9026,"modifications":9027,"nonpayable":9028,"ĠPropertyList":9029,"ĠSmartContract":9030,"Ġinvoker":9031,"Down":9032,"packagejson":9033,"ĠdeliveryPlan":9034,"olesaler":9035,"cmnd":9036,"ĠCommodity":9037,"ĠpropValue":9038,"randomNumber":9039,"DoctorId":9040,"PlanList":9041,"queryByAdhoc":9042,"ĠtopicAsBytes":9043,"Ġkyc":9044,"assetTransferEvents":9045,"globalCitizen":9046,"ĠremovePrivateData":9047,"ruleList":9048,"Ġpeers":9049,"======');":9050,"ĠEngineCC":9051,"getCompanyFromCRN":9052,"ĠinitiatorID":9053,"ApprovedModifier":9054,"loanList":9055,"Ġdividend":9056,"findIndex":9057,"waitingLists":9058,"ĠpaymentObj":9059,"åĪĿ":9060,"TestsId":9061,"ĠprofileOldAsByte":9062,"reedomDividend":9063,"Identifier":9064,"Ġproyecto":9065,"\\-\\-\\-\\-\\-\\":9066,"beforeEach":9067,"Ġcartons":9068,"FULL":9069,"ĠnormalizeX":9070,"CCESSFULL":9071,"Bootstrap":9072,"currentlyAwaitingResponseFrom":9073,"Ġenvironment":9074,"ĠexsistError":9075,"Ġcmnd":9076,"ĠrandomNumber":9077,"ĠBukuTanah":9078,"iGuard":9079,"-]+?\\-\\-\\-\\-\\-":9080,"Honda":9081,"Ġ?[^-]+?\\-\\-\\-\\-\\-":9082,"modificationsPendingApproval":9083,")];":9084,")\");":9085,")>=":9086,"-\"":9087,"BAs":9088,"CI":9089,"CW":9090,"Cal":9091,"Cos":9092,"DR":9093,"DTe":9094,"Diff":9095,"DIUM":9096,"DfY":9097,"EBA":9098,"Elu":9099,"FF":9100,"Fg":9101,"FDA":9102,"Fkw":9103,"FISH":9104,"GYI":9105,"Ha":9106,"HKoZIzj":9107,"HMxD":9108,"HMt":9109,"IGA":9110,"Jd":9111,"Js":9112,"JiQ":9113,"JyaW":9114,"Kk":9115,"Ks":9116,"KBgNV":9117,"Lading":9118,"Mb":9119,"MBgNV":9120,"Mhr":9121,"MFkw":9122,"OId":9123,"OID":9124,"OBh":9125,"OBgNVHQ":9126,"Qn":9127,"Qw":9128,"Qcm":9129,"QgA":9130,"QcD":9131,"RY":9132,"RKk":9133,"Single":9134,"SBgNVBAo":9135,"SgAwIBAgIU":9136,"TB":9137,"Tb":9138,"Tfg":9139,"TWF":9140,"UV":9141,"UMB":9142,"Vy":9143,"VzE":9144,"Voy":9145,"Wug":9146,"Wlu":9147,"WED":9148,"XQW":9149,"XTCCA":9150,"XOId":9151,"XVzE":9152,"YMu":9153,"YHKoZIzj":9154,"Zi":9155,"Ztt":9156,"_${":9157,"aDiem":9158,"ced":9159,"cGV":9160,"cross":9161,"dat":9162,"dld":9163,"dMQswCQYDVQQGEwJVUz":9164,"dXVzE":9165,"eTE":9166,"eLy":9167,"gSgAwIBAgIU":9168,"hoi":9169,"hKs":9170,"hQw":9171,"jpa":9172,"jYW":9173,"jCK":9174,"jQm":9175,"kZ":9176,"kJV":9177,"mCs":9178,"nmG":9179,"own":9180,"pn":9181,"pz":9182,"prefix":9183,"predict":9184,"rand":9185,"skill":9186,"tZm":9187,"tJiQ":9188,"tWug":9189,"tjpa":9190,"uQn":9191,"vx":9192,"van":9193,"vay":9194,"vpV":9195,"wo":9196,"wwCgYI":9197,"wYDVR":9198,"wgv":9199,"wFo":9200,"wtsC":9201,"wGYI":9202,"ybm":9203,"yEl":9204,"ydG":9205,"zv":9206,"ĠIN":9207,"ĠUsers":9208,"arly":9209,"stion":9210,"Ġcity":9211,"Strip":9212,"ubG":9213,"argo":9214,"Ġms":9215,"roc":9216,"Researcher":9217,"getInfoFromContractStub":9218,"ĠnewPropertyObject":9219,"ĠnewRequestObject":9220,"ĠnewLsp":9221,"ulVO":9222,"lot":9223,"lour":9224,"=============":9225,"ĠĉĠĠĠĠĠĠĠĠĠĠĠ":9226,"ĠĉĠĠĠčĊ":9227,"Ġpric":9228,"ĠthrowError":9229,"querySpec":9230,"Inw":9231,"channelID":9232,"Ġdue":9233,"ĠqueryHistory":9234,"ĠqueryPatient":9235,"odG":9236,"Ownership":9237,"Ġbm":9238,"ĠassetNumber":9239,"Ree":9240,"Report":9241,"Trail":9242,"ĠgetProduct":9243,"ĠnameMetadata":9244,"')]);":9245,"ĠmodelAsBytes":9246,"ĠSing":9247,"anceCos":9248,"ToReturn":9249,"conga":9250,"proyect":9251,"Ġisn":9252,"\":{\"":9253,"newMember":9254,"ailure":9255,"enmark":9256,"ĠstringQuery":9257,"ĠchangeFish":9258,"Ġdeposit":9259,"AdBgNVHQ":9260,"ĠjsonQuery":9261,"ORE":9262,"UserBuffer":9263,"jected":9264,"issuerID":9265,"sgsg":9266,"ĠorderStatus":9267,"REE":9268,"Should":9269,"2021":9270,"Ġsuch":9271,"ĠPres":9272,"Nothing":9273,"Ġworkers":9274,"validations":9275,"thisClass":9276,"DrugOwner":9277,"fileName":9278,"ĠFabUni":9279,"ĠaddUser":9280,"oop":9281,"Seal":9282,"ificVehicle":9283,"ĠpatientInfoObj":9284,"Ġann":9285,"Ġbatches":9286,"PrivateAssetId":9287,"productNumber":9288,"clientID":9289,"ĠlogAsBytes":9290,"requests":9291,"requesterID":9292,"callerId":9293,"ĠorganInfoinJSON":9294,"buyerList":9295,"ĠaccountAddress":9296,"ĠcheckKey":9297,"Measurement":9298,"TAQH":9299,"TApz":9300,"modelAsBytes":9301,"cide":9302,"doTb":9303,"commons":9304,"updatedBy":9305,"CoXa":9306,"collectionNetherlands":9307,"Verified":9308,"Ġ5000":9309,"poList":9310,"ĠGlobal":9311,"ĠcertWithoutAttrs":9312,"Ġcpf":9313,"BgjA":9314,"BgwFo":9315,"BAIw":9316,"BAMTB":9317,"EXMB":9318,"DAYDVR":9319,"DAKBgNV":9320,"DAQcD":9321,"DASBgNVBAo":9322,"itemAsBytes":9323,"AwRA":9324,"AwDAYDVR":9325,"Ġpartner":9326,"ĠfileName":9327,"ĠfileHash":9328,"Signature":9329,"****************":9330,"UGA":9331,"Ġcost":9332,"TCBgjA":9333,"MCB":9334,"ProcessDate":9335,"GVkZ":9336,"ĠballotDataJson":9337,"!!!\"":9338,"BSDfY":9339,"Insert":9340,"production":9341,"YIKoZIzj":9342,"numero":9343,"jAMBgNV":9344,"things":9345,"12345":9346,"getLoggerCfg":9347,"DBNX":9348,"TwYW":9349,"ADAdBgNVHQ":9350,"DocQ":9351,"Active":9352,"QUhKs":9353,"topicNumber":9354,"WhcNMT":9355,"YWJyaW":9356,"IUd":9357,"bmExF":9358,"ĠcoinConfig":9359,"ĠmedAsBytes":9360,"RawMaterial":9361,"prescriptions":9362,"ĠencText":9363,"chairsExists":9364,"================================================================":9365,"BswGYI":9366,"feature":9367,"rewire":9368,"IgYDVR":9369,"IgCoXa":9370,"MLZXhhbXBsZS":9371,"EwYHKoZIzj":9372,"wHwYDVR":9373,"ybGVkZ":9374,"oyZtt":9375,"jBBgwFo":9376,"1234567890":9377,"kwIgYDVR":9378,"OTm":9379,"observerList":9380,"pbHMt":9381,"missionsRecord":9382,"NUMCONTRACTORS":9383,"IEmCs":9384,"ĠtruyVanTotNghiep":9385,"ZGdld":9386,"ZGYWJyaW":9387,"VesselVoy":9388,"WFkb":9389,"sLnmG":9390,"sLTwYW":9391,"investmentAmount":9392,"investmentTitle":9393,"MxDjAMBgNV":9394,"MDAxNTAwWjB":9395,"MDAxNTAwWhcNMT":9396,"header":9397,"wWyM":9398,"ballotDataJson":9399,"EFq":9400,"publishers":9401,"Ġopted":9402,"UdD":9403,"LoadedVessel":9404,"Ġpara":9405,"ProdList":9406,"sExpected":9407,"wwyEl":9408,"xGTAXBgNVBAoTEElu":9409,"gestedDestinations":9410,"PHARMA":9411,"kmIr":9412,"Ġsinhvien":9413,"ĠSODIUM":9414,"CdU":9415,"HasSeller":9416,"MIICXTCCA":9417,"CVInw":9418,"wHhcNMTcwOTA":9419,"UECBMOTm":9420,"ggQ":9421,"isInitiatorAllowed":9422,"REQUE":9423,"Invoker":9424,"airTradePremium":9425,"CkBSDfY":9426,"EAwIDRw":9427,"IFdp":9428,"IWJd":9429,"NwwHwYDVR":9430,"Ġchanged":9431,"raisal":9432,"UEAxMLZXhhbXBsZS":9433,"ĠImportPaper":9434,"KSDTe":9435,"QiXJ":9436,"dGVybm":9437,"rainContract":9438,"wDQYDVQQLEwZGYWJyaW":9439,"AUIUd":9440,"fysLnmG":9441,"Invested":9442,"EOm":9443,"RBBswGYI":9444,"ĠqueryAllPatients":9445,"JxrX":9446,"xZNwwHwYDVR":9447,"CAQYIKoZIzj":9448,"BAsT":9449,"CWX":9450,"EBAMCB":9451,"FgQUhKs":9452,"HMxDDAKBgNV":9453,"Mbwgv":9454,"Mhrvx":9455,"MFkwEwYHKoZIzj":9456,"OBhTCBgjA":9457,"QgAEFq":9458,"RYz":9459,"RKkai":9460,"TfgJxrX":9461,"TWFjQm":9462,"UVDBNX":9463,"UMBIGA":9464,"VyMQ":9465,"WluMFkwEwYHKoZIzj":9466,"XOIdwtsC":9467,"YMuH":9468,"ZiRKkai":9469,"cGVybGVkZ":9470,"dMQswCQYDVQQGEwJVUzEXMB":9471,"dXVzEUMBIGA":9472,"eTELMAkGA":9473,"gSgAwIBAgIUeLy":9474,"hoiTa":9475,"hQwUVDBNX":9476,"jYWwwCgYI":9477,"jCKRYz":9478,"kJVN":9479,"tZmxZNwwHwYDVR":9480,"tJiQwCgYIKoZIzj":9481,"tWugHa":9482,"tjpaodG":9483,"uQnq":9484,"vpVr":9485,"ydGggQ":9486,"Stripped":9487,"querySpecificVehicle":9488,"ĠchangeFishHolder":9489,"sgsgtZmxZNwwHwYDVR":9490,"TApzcT":9491,"doTbEOm":9492,"collectionNetherlandsStavanger":9493,"BAIwADAdBgNVHQ":9494,"BAMTBWFkb":9495,"DAQcDQgAEFq":9496,"DASBgNVBAoTC":9497,"AwRAIgCoXa":9498,"bmExFDASBgNVBAoTC":9499,"jBBgwFoAUIUd":9500,"pbHMtTWFjQm":9501,"IEmCsI":9502,"ZGdldHMxDDAKBgNV":9503,"VesselVoyage":9504,"sLTwYWvpVr":9505,"MDAxNTAwWjBdMQswCQYDVQQGEwJVUzEXMB":9506,"MDAxNTAwWhcNMTgw":9507,"wwyElU":9508,"xGTAXBgNVBAoTEEludGVybm":9509,"kmIrhQwUVDBNX":9510,"MIICXTCCAgSgAwIBAgIUeLy":9511,"airTradePremiumInvested":9512,"CkBSDfYulVO":9513,"EAwIDRwAwRAIgCoXa":9514,"IFdpZGdldHMxDDAKBgNV":9515,"KSDTeTfgJxrX":9516,"QiXJM":9517,"wDQYDVQQLEwZGYWJyaWMxDjAMBgNV":9518,"RBBswGYIXQW":9519,"OBhTCBgjAOBgNVHQ":9520,"BAMTBWFkbWluMFkwEwYHKoZIzj":9521,"MDAxNTAwWjBdMQswCQYDVQQGEwJVUzEXMBUGA":9522,"xGTAXBgNVBAoTEEludGVybmV":9523,"kmIrhQwUVDBNXCWX":9524,"EAwIDRwAwRAIgCoXaCdU":9525,"IFdpZGdldHMxDDAKBgNVBAsT":9526,"512":9527,"=${":9528,"Cancelled":9529,"Don":9530,"Des":9531,"Days":9532,"District":9533,"FER":9534,"Go":9535,"He":9536,"IR":9537,"Ip":9538,"MM":9539,"Mes":9540,"MnemonicWord":9541,"RFID":9542,"Set":9543,"SDA":9544,"SUE":9545,"Src":9546,"Ts":9547,"Tally":9548,"UY":9549,"UUID":9550,"Warn":9551,"Yargs":9552,"]*":9553,"ager":9554,"cbt":9555,"dc":9556,"eId":9557,"gold":9558,"hk":9559,"hert":9560,"iple":9561,"jOP":9562,"kdf":9563,"mile":9564,"monthlyForecast":9565,"ply":9566,"qID":9567,"rm":9568,"spe":9569,"sId":9570,"sWith":9571,"tb":9572,"ĠOffer":9573,"oronto":9574,"ativ":9575,"already":9576,"(':":9577,"Ġtoll":9578,"Ġconfirmed":9579,"ingContract":9580,"arging":9581,"Ġme":9582,"Ġmultisig":9583,"rement":9584,"recieverMSPId":9585,"urature":9586,"ĠEnc":9587,"ĠEdTech":9588,"getOwnProperty":9589,"getEvents":9590,"getProofit":9591,"ĠnewAllowance":9592,"ĠnewReceiver":9593,"ĠnewTransport":9594,"toAddress":9595,"toWallet":9596,"Ġping":9597,"ultiple":9598,"Ġel":9599,"Ġeither":9600,"ĠBid":9601,"istor":9602,"ĠCA":9603,"ĠCru":9604,"actWallet":9605,"ĠArb":9606,"Ġframe":9607,"Ġfrequency":9608,"Ġreiss":9609,"ĠqueryTotal":9610,"fromWireBuffer":9611,"fromDirectory":9612,"AsJSON":9613,"edKey":9614,"Ġskill":9615,"ĠblogAsBytes":9616,"ĠassetHash":9617,"ception":9618,"Ġstep":9619,"Ġimo":9620,"cciÃ³n":9621,"ĠgetAllAssets":9622,"keyQuery":9623,"papers":9624,"idAsset":9625,"ByPatient":9626,"Ġforce":9627,"ForSale":9628,"Composer":9629,"ĠendId":9630,"ToVerify":9631,"undle":9632,"tend":9633,"userlog":9634,"connect":9635,"(\"\",":9636,"ĠstartStub":9637,"apore":9638,"nolog":9639,"setMetadata":9640,"newId":9641,"fornitore":9642,"ageno":9643,"ĠkeyQuery":9644,":':":9645,"bool":9646,"transactionEvent":9647,"ĠjsonSerializer":9648,"endor":9649,"ChaincodeInterface":9650,"\");}":9651,"irth":9652,"ĠerrorMsg":9653,"([])));":9654,"medNumber":9655,"listenerCountStub":9656,"Ġsug":9657,"someProperty":9658,"GetPrivateData":9659,"ĠfromContract":9660,"ĠPlate":9661,"ĠsuperClass":9662,"transferId":9663,"licenses":9664,"aceability":9665,"ĠtransacciÃ³n":9666,"...');":9667,"..!');":9668,"ĠMaterial":9669,"ĠmyYargs":9670,"acme":9671,"accept":9672,"ĠcompanyBuffer":9673,"companyRegistrationObject":9674,"ĠpatientKey":9675,"NextError":9676,"Ġany":9677,"Items":9678,"\":\"+":9679,"requesters":9680,"ĠshipmentId":9681,"ĠshipmentBuffer":9682,"iphert":9683,"ĠDis":9684,"buyerName":9685,"Ġaccounts":9686,"Ġpassengers":9687,"Ġcomplex":9688,"ShipmentBuffer":9689,"\"]=\"":9690,"transport":9691,"ĠallResult":9692,"WalletBS":9693,"Validation":9694,"ĠTe":9695,"vehicleAsBytes":9696,"Ġfunding":9697,"ĠRP":9698,"FileName":9699,"103":9700,"Ġprofilepic":9701,"stractWallet":9702,"ĠaccessToken":9703,"ĠvoterAsBytes":9704,"Ġchannelid":9705,"Commission":9706,"CommonIterator":9707,"assigninfo":9708,"Bgc":9709,"Bggq":9710,"ABR":9711,"ferenc":9712,"ĠvehicleAsBytes":9713,"ĠusePointsTransactions":9714,"ĠprivateKey":9715,"Ġmedicina":9716,"profileOld":9717,"ProjectID":9718,"laborator":9719,"listingId":9720,"landAsBytes":9721,"ĠputPrivate":9722,"SSSS":9723,"NodeDataCollection":9724,"NodeEventService":9725,"ĠoriginWallet":9726,"hya":9727,"nodeContext":9728,"nodedata":9729,"Ġupgrade":9730,"ĠsignaturesNeeded":9731,"placeId":9732,"senderData":9733,"Ġshort":9734,"grpcs":9735,"collect":9736,"ProcessRequest":9737,"Processline":9738,"ĠbufferedName":9739,"ĠbufferedOwner":9740,"ĠbufferedSymbol":9741,"Ġjobassigninfo":9742,"Ġ===========')":9743,"emrList":9744,"signaturesNeeded":9745,"LoggingService":9746,"LoggingPrefix":9747,"validateStub":9748,"173":9749,"olesale":9750,"OperatorFor":9751,"QueryStateClose":9752,"Subset":9753,"txnid":9754,"funds":9755,"Ġlabel":9756,"NUAL":9757,"ĠenergyValue":9758,"ĠenergyUnits":9759,"tenance":9760,"receiverData":9761,"--------------------":9762,"ĠcashCurrency":9763,"producer":9764,"Ssn":9765,"PERF":9766,"ĠagentAsBytes":9767,"ĠpublicKeyHashes":9768,"ĠrewardTo":9769,"ĠRegistered":9770,"Ġcoincide":9771,"requesterEmail":9772,"SUL":9773,"manuID":9774,"executeQuery":9775,"registrarId":9776,"ĠprodID":9777,"keyToRemove":9778,"ĠĠĠĠĠĠĠĉĠ":9779,"ĠearnPointsTransactions":9780,"ĠlicenceNo":9781,"Ġ\"-\"":9782,"pbkdf":9783,"MayHold":9784,"ĠDOES":9785,"ĠcastVote":9786,"ĠnomorHak":9787,"ĠnodeContext":9788,"ĠverificationResult":9789,"allPartnersKey":9790,"Ġ\"]\");":9791,"internalType":9792,"ĠdeleteCarCD":9793,"Activa":9794,"Services":9795,"riends":9796,"initiatorID":9797,"ĠdstMspId":9798,"withdrawal":9799,"ĠChainCode":9800,"Ġexceeds":9801,"ĠSUCCESSFULL":9802,"pmtArr":9803,"Sandhya":9804,"TrailEntry":9805,"ĠSingapore":9806,"Mesg":9807,"WarnSpy":9808,"hkjOP":9809,"mileageno":9810,"ĠnewReceiverBalance":9811,"ĠArbitration":9812,"GetPrivateDataHash":9813,"iphertext":9814,"hkjOPQ":9815,")[":9816,",);":9817,"199":9818,"134":9819,"57":9820,"86":9821,"Al":9822,"Am":9823,"After":9824,"Availability":9825,"BC":9826,"Bw":9827,"Blog":9828,"BID":9829,"Blue":9830,"Cmd":9831,"Digital":9832,"EB":9833,"HDA":9834,"Hdr":9835,"Image":9836,"KA":9837,"Lm":9838,"More":9839,"PR":9840,"Reward":9841,"SCBeta":9842,"Unt":9843,"WA":9844,"aj":9845,"aBgNVBA":9846,"autoscale":9847,"cate":9848,"ev":9849,"fice":9850,"long":9851,"mov":9852,"pr":9853,"pres":9854,"parameters":9855,"tm":9856,"task":9857,"vis":9858,"wQ":9859,"web":9860,"xM":9861,"xHDA":9862,"}};":9863,"Ġgre":9864,"ĠLogistic":9865,"ĠjsnContent":9866,"erc":9867,"Ġ={":9868,"attribute":9869,"alCode":9870,"Stage":9871,"ubkey":9872,"ssiSmartContract":9873,"seud":9874,"redeemed":9875,"getIdentity":9876,"getLog":9877,"getCheck":9878,"queries":9879,"===========');":9880,"toms":9881,"StateType":9882,"ĠpubECDSA":9883,"isString":9884,"traceability":9885,"Ġresearcher":9886,"ĠCont":9887,"InRange":9888,"ĠAlice":9889,"ĠAsBytes":9890,"Ġreal":9891,"mployee":9892,"mptoms":9893,"edIDs":9894,"()+":9895,"Ġsupp":9896,"Ġbuild":9897,"==='":9898,"ĠassetSale":9899,"retrieve":9900,"exec":9901,"Ġexit":9902,"unning":9903,"ĠgetData":9904,"ĠgetAttributeValue":9905,"carSerialNo":9906,"extern":9907,"extension":9908,"ilter":9909,"007":9910,"Ġmodels":9911,"ĠSupplier":9912,"ARM":9913,"ByAddress":9914,"Iterators":9915,"assetBuffer":9916,"Ġvien":9917,"userExists":9918,"userInput":9919,"ĠcreateEvent":9920,"(\"-":9921,"(\"================":9922,"ĠstartId":9923,"ica":9924,"iced":9925,"setUpdate":9926,"Ġ36":9927,"ĠmockCmd":9928,"meter":9929,"mockClientIdentity":9930,"99999":9931,"ĠtransId":9932,"'](":9933,"initTime":9934,"Getting":9935,"},${":9936,"ĠPallet":9937,"ĠpersonAsBytes":9938,"ĠupdateOrder":9939,"MSPS":9940,"ĠFee":9941,"ĠFacility":9942,"ĠvoterId":9943,"ĠRead":9944,"buyRequestList":9945,"companies":9946,"PropertyRegistration":9947,"PrivateDetails":9948,"ĠbuyerIterator":9949,"ĠbuyerCompanyBuffer":9950,"theVal":9951,"good":9952,"ĠsellerCompanyBuffer":9953,"ĠtokenBalance":9954,"ĠeventKey":9955,"ĠelectionAsBytes":9956,"Products":9957,"ProductNo":9958,"!!!!!\"":9959,"Ġlon":9960,"mitted":9961,"ĠTHE":9962,"ĠToronto":9963,"processor":9964,"processing":9965,"aNet":9966,"vehicleNo":9967,"Ġinsurer":9968,"electionName":9969,"electionAsBytes":9970,"electionYear":9971,"electionCountry":9972,"generateLoggingPrefix":9973,"ĠitemId":9974,"collectionSpain":9975,"cadem":9976,"izedCert":9977,"Ġapply":9978,"objTypes":9979,"ĠĠĠĠĠĠĠĠĠĠĠĠĉ":9980,"Ġrejected":9981,"ĠHealthcare":9982,"ĠtransporterResponseRange":9983,"imalId":9984,"inspector":9985,"Numero":9986,"nodecontainer":9987,"'}]);":9988,"ANNUAL":9989,"ĠProductNo":9990,"ĠJob":9991,"ĠvoteList":9992,"Ġ[\"_":9993,"validateInitiator":9994,"Insufficient":9995,"voteList":9996,"existingUser":9997,"!!!!!!!!!\"":9998,"ĠmedicineAsBytes":9999,"deviceExists":10000,"bankAccount":10001,"Ġunix":10002,"IBO":10003,"ĠStatement":10004,"Ġeslabones":10005,"akta":10006,"Ellen":10007,"(',').":10008,"override":10009,"LandOwner":10010,"features":10011,"ĠTrack":10012,"balanceOfSender":10013,"uniqID":10014,"DocumentInfo":10015,"ĠactorRoles":10016,"Ġinitiated":10017,"Ġincorrecto":10018,"ĠqueryPocResultsParse":10019,"statementList":10020,"ontoMeta":10021,"Ġmonths":10022,"INJECTION":10023,"INJECTAB":10024,"!!!!!!!!!!!!!!!!!\"":10025,"ĠEXPI":10026,"APPROVAL":10027,"ĠISSUE":10028,"justment":10029,"Resolve":10030,"FrequencyCount":10031,"rocery":10032,"hoiTao":10033,"]*)(":10034,"ĠMaterials":10035,"ABRIC":10036,"xHDAaBgNVBA":10037,"seudonym":10038,"traceabilitysc":10039,"external":10040,"collectionSpainStavanger":10041,"cademic":10042,"INJECTABLE":10043,"ĠISSUED":10044,"-\"+":10045,"52":10046,"726":10047,"84":10048,"Aj":10049,"AVE":10050,"Bal":10051,"Dunc":10052,"IVED":10053,"Kg":10054,"Li":10055,"MET":10056,"PDATE":10057,"TN":10058,"TO":10059,"Tast":10060,"WAL":10061,"]'":10062,"bay":10063,"back":10064,"build":10065,"barista":10066,"catalog":10067,"credsSpy":10068,"curriculum":10069,"dra":10070,"dupCheck":10071,"fKey":10072,"funded":10073,"grnVotable":10074,"high":10075,"homeOperatorName":10076,"mName":10077,"mVotable":10078,"mspID":10079,"operation":10080,"pageSize":10081,"vg":10082,"vor":10083,"vdata":10084,"vari":10085,"}'));":10086,"¾ä¸į":10087,"æī":10088,"Ġ),":10089,"ĠMsgQueueHandler":10090,"Ġpens":10091,"ĠlibVotable":10092,"Ġutxos":10093,"ĠLEDGER":10094,"etype":10095,"ĠĠĠĠĠĠĠĉĉčĊ":10096,"ĠcredsSpy":10097,"independent":10098,"Ġ{});":10099,"ley":10100,"ĠautonomousSystem":10101,"('\"":10102,"ctActivity":10103,"Ġ')":10104,"Ġ';":10105,"Ġroll":10106,"Ġconvdata":10107,"ingPlan":10108,"Ġ(`":10109,"sectActivity":10110,"renewPlate":10111,"repVotable":10112,"republican":10113,"delta":10114,"societ":10115,"getHistory":10116,"getKeys":10117,"getStringArgs":10118,"ĠnewT":10119,"ĠnewTotalNumPassengers":10120,"shortTxid":10121,"loy":10122,"ionFund":10123,"Ġpur":10124,"ĠpubKey":10125,"JSONDrugCompositeKeyForSearch":10126,"isExist":10127,"isPenalizedBy":10128,"isdn":10129,"ĠBatch":10130,"jsonError":10131,"jsonObj":10132,"jsonDrugDetail":10133,"truyVan":10134,"ĠresIterator":10135,"queryPaper":10136,"queryTMC":10137,"ĠCert":10138,"ĠClose":10139,"these":10140,"Independent":10141,"child":10142,"ĠAuction":10143,"Ġflag":10144,"ĠdupCheck":10145,"resIterator":10146,"Ġreciever":10147,"ĠreflectStub":10148,"ĠrelationsArray":10149,"ĠrepVotable":10150,"ĠtraderId":10151,"edQr":10152,"Ġbo":10153,"Ġbro":10154,"Ġbought":10155,"ĠctxStub":10156,"ĠcarSerialNumber":10157,"aive":10158,"Republican":10159,"Ġinto":10160,"Ġincoming":10161,"Ġmethods":10162,"True":10163,"ĠtoLocation":10164,"essages":10165,"ĠpaperResult":10166,"ĠgetCurrStub":10167,"carObject":10168,"Ġ[{\"":10169,"ilBegin":10170,"parsePeerUrl":10171,"ĠmodelManager":10172,"libertarian":10173,"AssetSale":10174,"oma":10175,"ĠScen":10176,"Ġhigh":10177,"Ġwinner":10178,"allLogisticUnit":10179,"ĠendCoordinates":10180,"ĠtheVal":10181,"ToVote":10182,"ContractId":10183,"teForn":10184,"usertype":10185,"oldAccount":10186,"started":10187,"startId":10188,"startsWith":10189,"(\"/":10190,"(\"::/":10191,"setCollection":10192,"setUnitOnMarket":10193,"ĠisExist":10194,"newErrorMsg":10195,"newUserObject":10196,"(`-->":10197,"orderExists":10198,"ĠfunctionExists":10199,"ĠmockNewErrorMsg":10200,"ĠmockOpts":10201,"ĠmockShim":10202,"ĠmockRemoveCurrentAndSendNextMsg":10203,"ĠuserRequest":10204,"services":10205,"Proj":10206,"Progress":10207,"ĠdemVotable":10208,"lavor":10209,"endorsement":10210,"ĠCreated":10211,"ĠidString":10212,"ĠidVal":10213,"ĠidParams":10214,"UserId":10215,"UserInitiator":10216,"Ġobjects":10217,"irmName":10218,"ĠcurrentWeigth":10219,"Ġtransports":10220,"ĠresultToPublish":10221,"RECE":10222,"ĠĉĉĉĉĠĠĠĠĠ":10223,"Ġwithdraw":10224,"inationCode":10225,"ĠdrugDetail":10226,"someSchema":10227,"CreateStub":10228,"ĠPend":10229,"ĠpersonJSONasBytes":10230,"estado":10231,"ĠFARM":10232,"verse":10233,"ĠunknownStub":10234,"drugCompositeKeyForSearch":10235,"drugCompositeKeyID":10236,"indVotable":10237,"resultBytes":10238,"DrugID":10239,"ĠMint":10240,"mycc":10241,"myContract":10242,"fileId":10243,"(),[":10244,"greenBrief":10245,"obc":10246,"ĠtotalNumPassengers":10247,"ĠtxDate":10248,"ĠtxQueues":10249,"ĠpatientEmail":10250,"ĠrequestNewUser":10251,"ĠgrnVotable":10252,"ĠbuyerAadharId":10253,"ĠhandleGetStateMetadata":10254,"ĠhandleInitSpy":10255,"ĠhandleTransactionSpy":10256,"ĠpurchaseProperty":10257,"Transcript":10258,"requestNumber":10259,"sellerObject":10260,"handleInit":10261,"handleTransaction":10262,"handleGetState":10263,"handleStateQueryIterator":10264,"handleGetHistoryForKey":10265,"handleDeleteState":10266,"calls":10267,"ĠelectionExists":10268,"CATION":10269,"TAI":10270,"ĠTHIS":10271,"ĠregisterMilk":10272,"raud":10273,"modelKey":10274,"modelNumber":10275,"pense":10276,"ĠtravelObject":10277,"notDeleted":10278,"electionExists":10279,"ĠvalidDrugId":10280,"Ġenv":10281,"ĠitemType":10282,"collectionOffer":10283,"ĠcandidateInfo":10284,"ĠGood":10285,"ĠcertPath":10286,"Ġballots":10287,"Conley":10288,"accdept":10289,"viewers":10290,"ĠreceiverId":10291,"ĠWe":10292,"ĠWeb":10293,"ĠschemaPath":10294,"ĠtransporterIterator":10295,"FoundForComparision":10296,"itemId":10297,"Ġuuidv":10298,"UnitMeasurement":10299,"ĠprivateStub":10300,"ĠdonorInfo":10301,"Ġmembers":10302,"ĠcertificateAsBytes":10303,"ĠgenerateRetailer":10304,"ĠgenerateBallot":10305,"ĠgenerateSellerCompanyID":10306,"holdAuthValue":10307,"ĠpayByTravel":10308,"Ġtimeout":10309,"ĠtimeStamp":10310,"listingState":10311,"ĠtempObj":10312,"VotableId":10313,"here":10314,"ĠdrugKeyDataBuffer":10315,"ĠofferId":10316,"ĠofferAsset":10317,"invoiceNumber":10318,"NodeContainer":10319,"certificateExists":10320,"ĠsignedProposal":10321,"ificationObject":10322,"Ġbids":10323,"ĠbidAsBytes":10324,"modPath":10325,"colons":10326,"ĠsaveStateQueryIterator":10327,"ĠsaveHistoryQueryIterator":10328,"ĠsaveCreateStub":10329,"ĠparsedPurchaseOrder":10330,"sellOrder":10331,"ĠballotDataPath":10332,"CompanyNameForComparision":10333,"votableAsBytes":10334,"votableExists":10335,"exampleMetadata":10336,"ĠsenderId":10337,"RegisteredMsg":10338,"DOB":10339,"ĠglobalCitizen":10340,"ĠjobId":10341,"ĠjobVal":10342,"ĠoldPriceTravelPerPassenger":10343,"ĠoldTotalNumPassengers":10344,"ĠCompanyCRN":10345,"CompanyIDForOwner":10346,"patentIDs":10347,"CCqGSM":10348,"ĠpaidAmount":10349,"ĠvalidateRegistrar":10350,"ĠvalidateUserInitiator":10351,"ĠapproveNewUser":10352,"ĠapprovePropertyRegistration":10353,"existingProperty":10354,"existingShipment":10355,"ĠpropNames":10356,"dummyKey":10357,"dummyId":10358,"medicineAsBytes":10359,"ĠvotableAsBytes":10360,"ĠvotableExists":10361,"NUMBER":10362,"getCreatorId":10363,"encoded":10364,"phoneNo":10365,"submitPaper":10366,"ĠbillTo":10367,"ĠbillFrom":10368,"corp":10369,"ĠelectionDataJson":10370,"ĠelectionDataPath":10371,"ĠcreditorObj":10372,"plant":10373,"SsccKey":10374,"ReconObject":10375,"currentOwnerType":10376,"topics":10377,"topicAsBytes":10378,"ĠpatientsAttended":10379,"returnedTransporter":10380,"PutStateMetadata":10381,"99999999":10382,"govOrgId":10383,"moduleName":10384,"ĠKYC":10385,"ĠtransportForUpdateShipment":10386,"Ġinstanceof":10387,"OperationAttributes":10388,"arioContext":10389,"Ġmedi":10390,"tradeId":10391,"electionDataJson":10392,"electionDataPath":10393,"patientsAttended":10394,"parsedCurrentTime":10395,"ovtH":10396,"ĠvotingResultEvent":10397,"ĠASN":10398,"ĠqtyUnitMeasurement":10399,"retailerCRNResultsIteratorForComparisionResponseRange":10400,"ĠlimitKm":10401,"ĠreferredBy":10402,"ByUserID":10403,"ProductionsForMeterpoint":10404,"ĠleaveBalance":10405,"ĠleaveApplication":10406,"foodContract":10407,"ĠqueryContentByOrg":10408,"Gln":10409,"ĠloadingID":10410,"Ġregion":10411,"ConsumptionsForMeterpoint":10412,"ChainXId":10413,"UNK":10414,"agingOrg":10415,"ĠcontainerID":10416,"templateData":10417,"EstablishedMsg":10418,"aclizeQueryResult":10419,"ĠcreditNotePeriod":10420,"rewardBalance":10421,"controllerID":10422,"ĠLandPaper":10423,"MachineId":10424,"demVotable":10425,"ballotDataPath":10426,"ĠroamingRate":10427,"ĠdrugsInShipment":10428,"ĠdicomId":10429,"unitOnMarket":10430,"ĠConstructor":10431,"ĠgetCurrentUserId":10432,"ĠreturnedSellerCompanyName":10433,"ĠreturnedSellerCompanyCRN":10434,"handlePutStateMetadata":10435,"buyerCRNFoundForOwnerResponseRange":10436,"ĠgenerateBuyerCompanyIDForOwner":10437,"ĠreturnedBuyerCompanyNameForOwner":10438,"ĠRawMaterialUsed":10439,"DemocratBrief":10440,"åĩ½æķ°åĲ":10441,"actorId":10442,"pharmacyId":10443,"fedDemocratBrief":10444,"Ġ'../../../":10445,"defineProperties":10446,"ĠindVotable":10447,"çļĦåĩ½æķ°":10448,"è¦ģè°ĥçĶ¨":10449,"ĠreturnedTransporterCompanyName":10450,"ĠreturnedRetailerCompanyNameForComparision":10451,"ĠhandleMsgResponseSpy":10452,"ĠcdrReconObject":10453,"attery":10454,"ĠCalling":10455,"ACCESS":10456,"Ġcredentials":10457,"enterance":10458,"PRODU":10459,"1504054":10460,"ĠgenerateKeyDrugOwner":10461,"åĪ°è¦ģè°ĥçĶ¨":10462,"Ġ3534":10463,"crosschaincode":10464,"arlyPay":10465,"ĠpricingPlan":10466,"ĠbmleKey":10467,"Districts":10468,"Going":10469,"plyPaper":10470,"getOwnPropertyNames":10471,"ĠPlateChain":10472,"ĠSUCCESSFULLY":10473,"UntilBegin":10474,"presElection":10475,"Ġsuppled":10476,"Duncan":10477,"Libertarian":10478,"Taste":10479,"bayes":10480,"¾ä¸įåĪ°è¦ģè°ĥçĶ¨":10481,"æī¾ä¸įåĪ°è¦ģè°ĥçĶ¨":10482,"ĠpensionFund":10483,"independentBrief":10484,"Ġrollno":10485,"ĠconvdataTime":10486,"republicanBrief":10487,"societyId":10488,"edQrPayload":10489,"aivebayes":10490,"libertarianBrief":10491,"ĠScenarioContext":10492,"RECEIVED":10493,"collectionOfferteForn":10494,"ĠgenerateRetailerCompanyIDForOwner":10495,"ĠvalidateRegistrarInitiator":10496,"ovtHos":10497,"åĩ½æķ°åĲį":10498,"UntilBeginTravel":10499,"æī¾ä¸įåĪ°è¦ģè°ĥçĶ¨çļĦåĩ½æķ°":10500,"+(":10501,"/${":10502,"122":10503,"214":10504,":',":10505,"Audit":10506,"ASN":10507,"BO":10508,"DIS":10509,"FOR":10510,"Fee":10511,"Future":10512,"GO":10513,"Grade":10514,"HER":10515,"House":10516,"IAB":10517,"Jan":10518,"JOB":10519,"Pac":10520,"Running":10521,"SChainX":10522,"UD":10523,"bud":10524,"buk":10525,"cul":10526,"cdr":10527,"candidates":10528,"courses":10529,"domain":10530,"float":10531,"guest":10532,"ie":10533,"mon":10534,"mfgDate":10535,"priv":10536,"ris":10537,"src":10538,"{\\\"":10539,"}));":10540,"¦æ":10541,"ĠResult":10542,"ĠReceived":10543,"ĠOnly":10544,"ĠTransport":10545,"ĠThi":10546,"statistic":10547,"Ġcal":10548,"Ġcant":10549,"Ġcandidates":10550,"====');":10551,"ntForTime":10552,"sep":10553,"rece":10554,"deleted":10555,"getProduct":10556,"getSchema":10557,"getPolicy":10558,"getIdentifier":10559,"utanah":10560,"ndor":10561,"Ġ++":10562,"ises":10563,"ĠCreator":10564,"ĠCOU":10565,"romises":10566,"Inst":10567,"ador":10568,"ĠqueryEvent":10569,"ĠqueryCars":10570,"Ġtrx":10571,"Ġtrxn":10572,"Ġ!!":10573,"ĠjsonResponce":10574,"Ġsum":10575,"ĠsanitizeArgs":10576,"ĠassetLease":10577,"ammend":10578,"putAsset":10579,"Replace":10580,"Truong":10581,"')));":10582,"005":10583,"voiced":10584,"anceled":10585,"rices":10586,"ĠvalueAsBytes":10587,"DateString":10588,"setPending":10589,"erCont":10590,"newInstance":10591,"ĠtransferFrom":10592,"enable":10593,"orgUser":10594,"ĠdeletePatient":10595,"ĠdealerCarsList":10596,"ĠchaincodeFunctions":10597,"mockery":10598,"Delivered":10599,"Deleting":10600,"RESS":10601,"Ġsearch":10602,"ĠPEND":10603,"worker":10604,"drugCompositeKey":10605,"ather":10606,"Ġadj":10607,"..!\"});":10608,"ĠtransactionID":10609,"ĠManufact":10610,"ĠmyPrivateAssetId":10611,"completed":10612,"Ġaddr":10613,"acija":10614,"otaryId":10615,"ĠpatientNumber":10616,"ĉĉĠĠĠĠĠĠĠĠčĊ":10617,"patientdetails":10618,"ĠbuyerValue":10619,"ĠsellerValue":10620,"ĠpropertyRegistrationRequest":10621,"Unregistered":10622,"ĠlistenerCount":10623,"Ġlistfeatures":10624,"ProductTests":10625,"Ġserializer":10626,"ĠTOKEN":10627,"ĠThao":10628,"accountID":10629,"wordFrequencyCount":10630,"Ġsetup":10631,"mint":10632,"inkya":10633,"emailId":10634,"ĠaccessRights":10635,"ĠitemAsBytes":10636,"ĠcandidateAsBytes":10637,"Ġcertifier":10638,"employee":10639,"Ġprocessing":10640,"memberId":10641,"cpf":10642,"ĠpathToRoot":10643,"Regnet":10644,"tokenBalance":10645,"tokenIssuer":10646,"ĠNodeEventService":10647,"ĠNodeDataService":10648,"196":10649,"voked":10650,"ecutive":10651,"expiryDate":10652,"Ġlevel":10653,"Funds":10654,"ĠQR":10655,"ProcessLine":10656,"courseList":10657,"ĠUPDATE":10658,"ĠdeliveryInfo":10659,"rollers":10660,"bcrypt":10661,"phoneNumber":10662,"PERSON":10663,"Before":10664,"ĠProcessor":10665,"ordinate":10666,"Wrong":10667,"Rawmaterial":10668,"createAndEmitResultStub":10669,"permissionedIds":10670,"Assign":10671,"RuleList":10672,"uniUser":10673,"agentAsBytes":10674,"disable":10675,"linic":10676,"Estonia":10677,"ĠrechargeAccount":10678,"couponId":10679,"ĠgetCurrentUserType":10680,"HealthcareLogs":10681,"crnKey":10682,"Ġthrough":10683,"ĠTRANSACTION":10684,"ifecycleContract":10685,"ĠPhuong":10686,"ValidationParameter":10687,"moved":10688,"Ġgreater":10689,"ĠEXPIRE":10690,"Ajinkya":10691,"DISTR":10692,"budget":10693,"bukutanah":10694,"floatSenderBalance":10695,"putAssetData":10696,"ĠPENDING":10697,"\"'));":10698,".`;":10699,"219":10700,"42":10701,"69":10702,"71":10703,"73":10704,"AG":10705,"AESKeyLength":10706,"Bought":10707,"CLA":10708,"CustomerId":10709,"Denmark":10710,"EP":10711,"Eal":10712,"Ih":10713,"Ii":10714,"IAT":10715,"John":10716,"NK":10717,"Oi":10718,"Oper":10719,"Pres":10720,"Share":10721,"UP":10722,"UT":10723,"USA":10724,"UFACTURER":10725,"Video":10726,"bf":10727,"blogAsBytes":10728,"cipher":10729,"cLoads":10730,"credentials":10731,"customerId":10732,"dst":10733,"dash":10734,"dHR":10735,"eer":10736,"ell":10737,"factory":10738,"jecut":10739,"lc":10740,"lid":10741,"lambda":10742,"osh":10743,"pin":10744,"pwd":10745,"run":10746,"tmp":10747,"uage":10748,"xData":10749,"zM":10750,"zd":10751,"zero":10752,"}\"}":10753,"}});":10754,"´¦æ":10755,"å¤":10756,"åĮ":10757,"è´¦æ":10758,"Ġå":10759,"ĠTE":10760,"ĠTransactions":10761,"ĠViewers":10762,"Ġpending":10763,"ĸè´¦æ":10764,"ľ¬":10765,"Ġcrate":10766,"Ġcurriculum":10767,"Ġclave":10768,"inas":10769,"atpro":10770,"Ġ}),":10771,"Ġacce":10772,"itity":10773,"Ġtm":10774,"Ġticket":10775,"ĠrID":10776,"Ġcons":10777,"ros":10778,"ife":10779,"ssi":10780,"search":10781,"reca":10782,"recipient":10783,"dence":10784,"degree":10785,"anxData":10786,"uracion":10787,"getShipment":10788,"getMspId":10789,"getRangeResults":10790,"ĠnewKey":10791,"ĠnewPass":10792,"ĠnewContainer":10793,"ĠnewClientId":10794,"ĠnewShipperId":10795,"ĠnewTrackingInfo":10796,"Ġos":10797,"losed":10798,"perform":10799,"tool":10800,"Ġpoints":10801,"Ġ+\"":10802,"Ġeip":10803,"ĠeKYC":10804,"Ġejecut":10805,"isIn":10806,"isTLS":10807,"jsonObject":10808,"trust":10809,"ĠCommer":10810,"ĠCORE":10811,"uff":10812,"ched":10813,"ĠAESKeyLength":10814,"Ġfis":10815,"ĠfutureContract":10816,"Ġfilter":10817,"Ġday":10818,"ĠqueryOwner":10819,"()\"":10820,"()]);":10821,"Ġsk":10822,"ĠsurveyID":10823,"ĠmetaKey":10824,"ceSize":10825,"executed":10826,"putData":10827,"Ġinvoices":10828,"ĠiotData":10829,"ĠgetC":10830,"ĠgetKey":10831,"ĠgetToken":10832,"ĠgetLoad":10833,"Ġ16":10834,"Ġ17":10835,"carID":10836,"keyA":10837,"keyB":10838,"entries":10839,"Ġ============');":10840,"ĠInstantiation":10841,"Ġcatched":10842,"loadId":10843,"loadAdded":10844,"RecordId":10845,"ĠSample":10846,"ĠSEC":10847,"ĠSTU":10848,"deleteCars":10849,"Ġhours":10850,"ByName":10851,"ĠcarsRequested":10852,"imension":10853,"vendor":10854,"assetOwner":10855,"prod":10856,"ĠvalueBytes":10857,"erCA":10858,"TARIAT":10859,"newState":10860,"newValue":10861,"newClientId":10862,"newPropertyObject":10863,"newViewerId":10864,"owners":10865,"ĠkeyPath":10866,"ByRangeWithPagination":10867,"contractInfo":10868,"Ġprocessed":10869,"updateCheck":10870,"ĠwhoRegistered":10871,"ases":10872,"ĠchangeOwner":10873,"Ġdeadline":10874,"elist":10875,"rdCall":10876,"ppRegistrationNumber":10877,"ArgsLength":10878,"ĠtypeOf":10879,"Executed":10880,"assertMspId":10881,"netContract":10882,"ĠorderProduct":10883,"REV":10884,"RETARIAT":10885,"ableTransfer":10886,"CallerCA":10887,"medAsBytes":10888,"chaincodePath":10889,"Ġissued":10890,"Ġ[]};":10891,"ĠupdateProject":10892,"estate":10893,"ĠFirst":10894,"ĠFarm":10895,"drugHistory":10896,"addAmount":10897,"OrderState":10898,"validity":10899,"..\";":10900,"UpgradCoins":10901,"DrugKey":10902,"DrugName":10903,"FiIterator":10904,"shipmentId":10905,"shipmentDataBuffer":10906,"ĠMod":10907,"ĠMobile":10908,"ĠMAN":10909,"checkArgsLength":10910,"ĠmyObj":10911,"ĠaddPatient":10912,"ĠaddLoad":10913,"Barcode":10914,"Ġguest":10915,"ĠclientFiIterator":10916,"MANU":10917,"ĠindexOwner":10918,"ĠbatchSize":10919,"patientFirstName":10920,"patientRecordList":10921,"getArgsStub":10922,"ACHER":10923,"productData":10924,"ĠupdatedProperty":10925,"Ġaround":10926,"fiClientResult":10927,"fidence":10928,"clientFiResult":10929,"ĠpropertyStatus":10930,"ĠpropertyDataBuffer":10931,"ĠlistenerCountStub":10932,"caller":10933,"ĠelectionId":10934,"buyerIterator":10935,"ĠaccountNo":10936,"ĠserialNumber":10937,"ĠexpectedDate":10938,"indexViewer":10939,"\"]==":10940,"Ġlang":10941,"ĠallJSON":10942,"ClientIterator":10943,"currentOrderState":10944,"ĠTask":10945,"batchSize":10946,"Ġtravels":10947,"pathExists":10948,"ĠdateOf":10949,"ĠNaivebayes":10950,"doOrder":10951,"doHold":10952,"ustomers":10953,"updatedCourse":10954,"Ġenrollment":10955,"ĠloadElement":10956,"ĠfiClientIterator":10957,"TRO":10958,"ĠcandidateJSONasBytes":10959,"Verifier":10960,"ĠOrderList":10961,"walletAddress":10962,"Ġviewer":10963,"ĠviewerId":10964,"Ġsubscriber":10965,"COURSE":10966,"debit":10967,"ĠserviceAsBytes":10968,"Ġserviceprovider":10969,"Ġservicearea":10970,"FoundIndex":10971,"itemType":10972,"ĠinvoiceAsBytes":10973,"testConfig":10974,"ĠmemberType":10975,"leaseList":10976,"medicina":10977,"laboratory":10978,"ĠpayMethod":10979,"ĠfileMetadata":10980,"travelId":10981,"POKey":10982,"SSN":10983,"ĠlistingId":10984,"bidType":10985,"ĠallowanceValue":10986,"ĠinitialClientData":10987,"ĠinitialFIData":10988,"amples":10989,"transporterMSP":10990,"Registering":10991,"]:*":10992,"ĠDonationManager":10993,"licenseId":10994,"ĠencryptAndDecrypt":10995,"Processing":10996,"privateKey":10997,"fsHash":10998,"textBytes":10999,"Ġnamespace":11000,"issuedate":11001,"ĠstockId":11002,"ĠOperation":11003,"originWallet":11004,"ĠsupplierID":11005,"ĠbufferedDonation":11006,"ĠbufferedTotalSupply":11007,"verifierData":11008,"Certifier":11009,"ĠAddress":11010,"ĠtextBytes":11011,"maj":11012,"instanceKey":11013,"receiverId":11014,"ĠvalidateData":11015,"pledgeAsBytes":11016,"Insurer":11017,"Bids":11018,"Bidding":11019,"ĠDec":11020,"ĠDebe":11021,"ĠRequestList":11022,"ĠstudentKey":11023,"ĠpropName":11024,"ĠrequesterInfo":11025,"randomBuffer":11026,"ĠpermissionArray":11027,"Ġactivationdate":11028,"stockId":11029,"ĠapprovedUserKey":11030,"ProfileId":11031,"productIDKey":11032,"PLACE":11033,"ĠproviderData":11034,"encryptAndDecrypt":11035,"studentKey":11036,"allenges":11037,"loadsContract":11038,"tenant":11039,"Ġreceipient":11040,"ĠshipMethod":11041,"ĠclearingAgent":11042,"Appointment":11043,"clearingAgent":11044,"scribe":11045,"ReqKey":11046,"PaidOut":11047,"plainText":11048,"ĠtradeTerm":11049,"getAssetHistory":11050,"ĠShipmentList":11051,"BePaidOut":11052,"ĠRECORD":11053,"ĠdecryptedBytes":11054,"ĠKV":11055,"Ġprev":11056,"Ġpreference":11057,"ĠehrBuffer":11058,"udacion":11059,"secretNameIndexKey":11060,"Ġtener":11061,"CHAINCODES":11062,"ĠshipperData":11063,"('_'))":11064,"Ġdigest":11065,"ControllerAsBytes":11066,"ControllerIndexKey":11067,"ClearableTransfer":11068,"balanceOfOwner":11069,"FactList":11070,"FactObject":11071,"decryptedBytes":11072,"ĠcallerRoles":11073,"Accept":11074,"ĠpledgeAsBytes":11075,"regulator":11076,"ĠqualifiedOperator":11077,"trackingInfo":11078,"ĠSuccessful":11079,"ĠSuccessfull":11080,"ĠdispatchDate":11081,"TxnAsBytes":11082,"ĠoverageRate":11083,"emitStub":11084,"ĠappInfoAsBytes":11085,"ĠSupplychainContract":11086,"ĠSupplychainContext":11087,"ManufacturedBy":11088,"statetype":11089,"ĠplainText":11090,"ĠActual":11091,"ModificationPendingApproval":11092,"ĠPharmaContract":11093,"ĠemitStub":11094,"ĠgetRelationBy":11095,"Couldn":11096,"federation":11097,"defineProperty":11098,"leaveApplication":11099,"ĠnewBalanceOfOwner":11100,"ĠnewBalanceOfSpender":11101,"ĠAbstractWallet":11102,"ĠroyaltyManagementAsset":11103,"PledgeState":11104,"nomP":11105,"ĠViewL":11106,"roamingPartnerName":11107,"getRelationsArray":11108,"ĠleadTime":11109,"å§ĭåĮ":11110,"ĠBefore":11111,"maturitydate":11112,"ĠupdatedDonationData":11113,"ĠNonceSize":11114,"walletBSFromPubECDSA":11115,"onetaryStatus":11116,"ACTIVE":11117,"\\(\\)\"":11118,"åĪĿå§ĭåĮ":11119,"datam":11120,"Ġmsisdn":11121,"raisalForm":11122,"cbtList":11123,"rmKey":11124,"ativos":11125,"ĠnewAllowanceValue":11126,"nology":11127,"SULT":11128,"WALLET":11129,"ĠnewTemperature":11130,"parsePeerUrlFcn":11131,"ĠPending":11132,"ĠCOURSE":11133,"ĠqueryCarsByRangeWithPagination":11134,"Operacija":11135,"cipherText":11136,"ĠTEACHER":11137,"ĸè´¦æľ¬":11138,"Ġaccepts":11139,"recaudacion":11140,"ĠnewContainerID":11141,"performance":11142,"Ġejecutar":11143,"ĠCommerical":11144,"ĠSECRETARIAT":11145,"ĠSTUDENT":11146,"ĠMobilenumber":11147,"ĠMANUFACTURER":11148,"MANUFACTURER":11149,"åĪĿå§ĭåĮĸè´¦æľ¬":11150,"54":11151,"Agre":11152,"AMPLE":11153,"Cte":11154,"Cache":11155,"Clean":11156,"DD":11157,"Encrypt":11158,"FreedomDividend":11159,"GION":11160,"Jn":11161,"LM":11162,"Lbo":11163,"MO":11164,"Make":11165,"MTE":11166,"MBgNVH":11167,"NS":11168,"NING":11169,"Pem":11170,"Pack":11171,"RC":11172,"RP":11173,"SC":11174,"VA":11175,"basket":11176,"could":11177,"cicero":11178,"gadget":11179,"hdr":11180,"issu":11181,"lspName":11182,"manager":11183,"montoMeta":11184,"ppen":11185,"sug":11186,"simple":11187,"tp":11188,"wEB":11189,"yy":11190,"}\"}}":11191,"§å":11192,"¯¯":11193,"âĢ":11194,"æĺ":11195,"è¯¯":11196,"éĶ":11197,"éľ":11198,"Ġes":11199,"ĠItem":11200,"ĠHash":11201,"Ġlease":11202,"ĠuId":11203,"Ġgreeting":11204,"Ģè¦ģ":11205,"Ļè¯¯":11206,"erv":11207,"erto":11208,"==>":11209,"etailed":11210,"only":11211,"Ġcred":11212,"Ġcategory":11213,"Ġciphertext":11214,"atrb":11215,"Ġ}});":11216,"====\");":11217,"Ġ''){":11218,"Ġtwo":11219,"Ġram":11220,"Ġcong":11221,"Ġmission":11222,"sens":11223,"reference":11224,"anos":11225,"ĠEnd":11226,"Resident":11227,"getRequest":11228,"getProject":11229,"getInvoker":11230,"ĠnewBalance":11231,"ĠnewPrice":11232,"Ġpair":11233,"Ġeng":11234,"Ġevaluation":11235,"isContract":11236,"ĠBase":11237,"queryEvent":11238,"ĠCDR":11239,"Ġreci":11240,"ĠĉĉĠĠ":11241,"()}`;":11242,"riage":11243,"Ġcaryear":11244,"cel":11245,"ĠownerBalance":11246,"Ġinstantiated":11247,"Ġextra":11248,"ĠtoBuffer":11249,"ĠgetM":11250,"ĠgetResultFromBytes":11251,"Ġ18":11252,"ĠInvalid":11253,"Ġ[[":11254,"Transfering":11255,"ĠSkill":11256,"successfully":11257,"Ġwedding":11258,"Ġvia":11259,"ContractWallet":11260,"userInfoObj":11261,"condition":11262,"convert":11263,"ĠcreateAndEmitResult":11264,"ĠĠĠĠĠĠĠĠĉ":11265,"(\"---":11266,"Ġisbn":11267,"newDrugObject":11268,"],\"":11269,"responseWrapper":11270,"ĠtransferOrgan":11271,"Ġinitialize":11272,"updateShipment":11273,"updatePatient":11274,"ĠdeleteKey":11275,"meta":11276,"Ġuserlog":11277,"ĠuserNumber":11278,"ĠuserEmail":11279,"ĠemptyList":11280,"ĠchangeData":11281,"ĠchangeLandOwner":11282,"transactionCommit":11283,"duce":11284,"Ġhappen":11285,"REGION":11286,"Priv":11287,"Ġsens":11288,"DEL":11289,"SELLER":11290,"initCandidate":11291,"ĠsuaDiem":11292,"GetCallerCA":11293,"OrderId":11294,"ryption":11295,"verbose":11296,"verifiers":11297,"drugJSON":11298,"drugResults":11299,"drugkey":11300,"adder":11301,"wholesale":11302,"allow":11303,"ĠMnemonicWord":11304,"2222":11305,"00001":11306,"000000":11307,"denitity":11308,"Ġadder":11309,"companyBuffer":11310,"financeCos":11311,"Ġcontain":11312,"Ġgvinfo":11313,"Ġgrocery":11314,"ĠnumContractors":11315,"ĠnumProjectsAsBytes":11316,"ĠnumContractorsAsBytes":11317,"RegistrationContract":11318,"patientNumber":11319,"ublished":11320,"ĠsellerObject":11321,"ĠtokenDicom":11322,"eventId":11323,"Ġ`{\"":11324,".'))":11325,"ShipmentObj":11326,"CAN":11327,"ĠallCommons":11328,"117":11329,"batchParsed":11330,"INIT":11331,"notEqual":11332,"ALOF":11333,"MySmartContract":11334,"commit":11335,"commKey":11336,"Ġvalidation":11337,"registerCompany":11338,"...\");":11339,"collectionID":11340,"ĠverifierId":11341,"Travels":11342,"Ġrejecting":11343,"shippers":11344,"DAMBgNVH":11345,"META":11346,"MEMBER":11347,"160":11348,"ĠprojectId":11349,"lectron":11350,"FICE":11351,"ĠvehicleTrust":11352,"ĠuseClean":11353,"ĠNodeDataCollection":11354,"Ġroot":11355,"StartCommand":11356,"ĠAdjustment":11357,"ĠdoctorInfoObj":11358,"positive":11359,"************":11360,"ĠtestBusinessNetwork":11361,"StudentObject":11362,"NodeHTTPService":11363,"nodeutils":11364,"ĠorgID":11365,"certificateKey":11366,"ĠbidDetails":11367,"ĠDataCollection":11368,"modify":11369,"Ġĉĉĉĉĉĉĉĉ":11370,"Yellow":11371,"approvedUsers":11372,"188":11373,"choice":11374,"ĠcoinsBalance":11375,"emrNumber":11376,"ĠoldPriceDepositPerPassenger":11377,"PharmaNet":11378,"accessDocumentInfo":11379,"Ġsscc":11380,"ĠbankId":11381,"ĠDelivery":11382,"RMBAf":11383,"ĠpermissionedIds":11384,"jAA":11385,"bankId":11386,"MPAN":11387,"ĠStateType":11388,"matches":11389,"spenderMSPId":11390,"reportId":11391,"ĠtopicNumber":11392,"Ġmanufactured":11393,"getAssetBuffer":11394,"residentId":11395,"cashValue":11396,"deliveryID":11397,"deliveryPlan":11398,"lications":11399,"SHT":11400,"Ġthanh":11401,"ĠprescriptionId":11402,"coinsBalance":11403,"ĠProfileStates":11404,"getCompanyKey":11405,"traderKey":11406,"Agency":11407,"ĠbodyNum":11408,"BuyRequest":11409,"Ġdeploy":11410,"palletGroup":11411,"Productions":11412,"keyToAdd":11413,"utilityCompany":11414,"utilityCompanyId":11415,"ĠparticipantId":11416,"ĠpublisherId":11417,"viousProjects":11418,"PreviousProjects":11419,"ĠregNum":11420,"ĠcbtObjKey":11421,"000000002":11422,"Consumptions":11423,">>>":11424,"ĠCOMPLETE":11425,"ĠActive":11426,"Ġ*******":11427,"ĠutilityCompanyId":11428,"Ġcarton":11429,"ĠOffertaID":11430,"activeProjectID":11431,"@@@@@@@@":11432,"ĠresidentId":11433,"('=================":11434,"consumerMSP":11435,"Ġproductions":11436,"FAI":11437,"dicomId":11438,"ĠmerchantKey":11439,"ĠmerchantID":11440,"ĠwarnOnReplace":11441,"ĠwarnOnUnregistered":11442,"ĠTradeOrder":11443,"contains":11444,"Lines":11445,"Ġdiffer":11446,"EAjAA":11447,"SingleCar":11448,"UdDwEB":11449,"wQEAwI":11450,"xHDAaBgNVBAMTE":11451,"majority":11452,"Agreed":11453,"éĶĻè¯¯":11454,"éľĢè¦ģ":11455,"atrbpn":11456,"ĠengNum":11457,"ĠCDRs":11458,"ĠgetResultFromBytesStub":11459,"ĠcreateAndEmitResultStub":11460,"REGIONALOF":11461,"DAMBgNVHRMBAf":11462,"lectronic":11463,"ĠuseCleanCache":11464,"REGIONALOFFICE":11465,"!`;":11466,"\"';":11467,"53":11468,"5000":11469,"89":11470,"911":11471,">\",":11472,"CH":11473,"CCD":11474,"Capacity":11475,"Descri":11476,"FH":11477,"GY":11478,"GovtHos":11479,"HY":11480,"IM":11481,"ITE":11482,"Issuing":11483,"Kilo":11484,"Last":11485,"MCD":11486,"NB":11487,"NYC":11488,"OCC":11489,"Owed":11490,"Pid":11491,"Point":11492,"PUT":11493,"QF":11494,"Source":11495,"Uint":11496,"UPA":11497,"VL":11498,"VT":11499,"VAR":11500,"Wedding":11501,"XR":11502,"ah":11503,"autonomousSystem":11504,"bability":11505,"battery":11506,"can":11507,"cated":11508,"cbc":11509,"cisco":11510,"dB":11511,"db":11512,"don":11513,"dnd":11514,"driver":11515,"diploma":11516,"duracion":11517,"ffic":11518,"friends":11519,"gd":11520,"iName":11521,"kyc":11522,"music":11523,"nia":11524,"nanos":11525,"ople":11526,"president":11527,"pOAsBytes":11528,"rit":11529,"rames":11530,"sb":11531,"sk":11532,"terId":11533,"va":11534,"£®":11535,"æĿ":11536,"éĿ":11537,"ĠRo":11538,"ĠVaccine":11539,"Ġ('#_":11540,"Ġ======');":11541,"step":11542,"Ġcould":11543,"Ġcommercial":11544,"Ġcoop":11545,"oring":11546,"ornia":11547,"lege":11548,"Ġ}`":11549,"Ġacid":11550,"ĠaadhaarNo":11551,"alData":11552,"itime":11553,"Ġ'<":11554,"Ġconsumer":11555,"Station":11556,"argUser":11557,"Ġmultiple":11558,"ifornia":11559,"revoke":11560,"referral":11561,"wable":11562,"ances":11563,"ĠEnt":11564,"ĠERC":11565,"ĠnewStatus":11566,"ĠnewEntity":11567,"sht":11568,"shot":11569,"ollege":11570,"found":11571,"toDateString":11572,"Ġconstruct":11573,"Ġpoint":11574,"Ġpredict":11575,"ĠpOAsBytes":11576,"Ġev":11577,"isProp":11578,"shivan":11579,"ĠCo":11580,"ĠCan":11581,"ĠCbt":11582,"ĠCandidates":11583,"ĠCross":11584,"thi":11585,"there":11586,"InJSON":11587,"InProcess":11588,"InSeconds":11589,"ĠAss":11590,"Ġfreedom":11591,"ĠfairTradePremiumInvested":11592,"Ġdriver":11593,"Ġrelease":11594,"Ġsort":11595,"ĠbValue":11596,"Ġbreed":11597,"Ġbasket":11598,"Ġbrand":11599,"errorMsg":11600,"ĠassetOwner":11601,"ĠassetData":11602,"amil":11603,"cevent":11604,"Release":11605,"Rejected":11606,"Ġinstantiation":11607,"Trace":11608,"ĠgetUn":11609,"ĠgetPrivateAsset":11610,"')],":11611,"uspense":11612,"idOrg":11613,"Ġ\")":11614,"Ġ\".":11615,"ĠSim":11616,"ĠSource":11617,"ĠhomeOperatorName":11618,"ForKm":11619,"allOrders":11620,"volent":11621,"ĠamountAdded":11622,"assetClass":11623,"assetData":11624,"assetObj":11625,"createCar":11626,"createOrder":11627,"ToUint":11628,"userData":11629,"confirm":11630,"consignment":11631,"ĠcreatePrivate":11632,"ĠcreatePrivateAsset":11633,"usePointsTransactions":11634,"newShipmentObject":11635,"Ġ43":11636,"(`{\"":11637,"ĠtransferAsset":11638,"ĠchannelID":11639,"cknowledge":11640,"contractDetail":11641,"ĠdataType":11642,"ĠdataAttributes":11643,"metaKey":11644,"Ġcontractor":11645,"ĠcontractKey":11646,"Probability":11647,"Ġdelta":11648,"Admin":11649,"====================\");":11650,"Things":11651,"ChaincodeInput":11652,"readDigitalAsset":11653,"ĠidType":11654,"question":11655,"))/":11656,"Metro":11657,"ĠerrorTrace":11658,"COME":11659,"Ġunauthorized":11660,"medi":11661,"Ġseats":11662,"DED":11663,"Cho":11664,"someComponent":11665,"someThings":11666,"chaincodeProto":11667,"ĠissueRequests":11668,"CreatedAt":11669,"ĠPresident":11670,"ĠFran":11671,"verified":11672,"drugHasSeller":11673,"ĠReg":11674,"allowed":11675,"00000":11676,"checkKeys":11677,"complete":11678,"ĠaddContract":11679,"Ġaddition":11680,"another":11681,"broker":11682,"ĠrequestResults":11683,"ĠrequestAsBytes":11684,"Ġrequesters":11685,"ĠrequestassetObj":11686,"Ġgps":11687,"ĠgrainContract":11688,"aintenance":11689,"ĠbatchState":11690,"patientExists":11691,"patientrecord":11692,"PrivateKey":11693,"ĠbuyerCompany":11694,"ĠbuyerDetails":11695,"ĠClientIdentityChaincode":11696,"Ġ---\");":11697,":\\/":11698,"ĠorganAsBytes":11699,"ĠaccountBalanceVal":11700,"ĠcheckKeys":11701,"ProductContract":11702,"Ġ['_":11703,"ĠserialKey":11704,"LEAVE":11705,"ĠallPayments":11706,"ĠallOwners":11707,"ĠTemp":11708,"ĠToll":11709,"ĠTemperature":11710,"ĠTenant":11711,"batchtag":11712,"accounts":11713,"accountId":11714,"accountBalance":11715,"INCOME":11716,"note":11717,"ĠdateStripped":11718,"totalAmount":11719,"MyContract":11720,"Ġarea":11721,"ĠprofilePic":11722,"pocevent":11723,"ĠOrderContract":11724,"istrib":11725,"Ġverified":11726,"Ġyargs":11727,"NOWN":11728,"ĠappClass":11729,"walletTo":11730,"Ġinserted":11731,"ĠprocessRequest":11732,"ĠballotBuffer":11733,"insert":11734,"Ġcommit":11735,"ROLL":11736,"MEDI":11737,"ĠtransporterName":11738,"Question":11739,"168":11740,"Ġprojects":11741,"ĠsenderBalanceVal":11742,"OfferBid":11743,"Ġlocal":11744,"::>\",":11745,"invoiceAsBytes":11746,"Ġdecipher":11747,"NETORGS":11748,"expDate":11749,"bids":11750,"bidder":11751,"score":11752,"ĠorgDescription":11753,"transporterIterator":11754,"Ġlen":11755,"1500":11756,"Ġcustomerloyaltynew":11757,"TCH":11758,"senderAddress":11759,"senderBalanceVal":11760,"ModelManager":11761,"modification":11762,"drugKeyName":11763,"ĠreceiverBalanceVal":11764,"creatorId":11765,"issueRequests":11766,"GVzd":11767,"verifyRequests":11768,"votableTitle":11769,"ĠLogChain":11770,"ShipCertificate":11771,"ĠmodFileName":11772,"ĠassetKeys":11773,"DOC":11774,"ĠemrAsBytes":11775,"ĠglobalLogs":11776,"Ġ%>',":11777,"ĠhospitalCode":11778,"ĠCompanyList":11779,"Inspector":11780,"174":11781,"Returned":11782,"entityList":11783,"Ġpropietario":11784,"ĠrequesterExists":11785,"4431":11786,"ĠretailerKey":11787,"ĠmedicineReceipt":11788,"deviceState":11789,"ĠtxnId":11790,"Logistics":11791,"bcpocevent":11792,"owed":11793,"ĠreportName":11794,"ĠreportYear":11795,"ĠlabRecord":11796,"receiverAddress":11797,"------------------------":11798,"PlanObject":11799,"ĠrequestedList":11800,"EMRState":11801,"ĠManufacturerContract":11802,"globalLogs":11803,"PendingModification":11804,"Ġignoring":11805,"ĠrateAsBytes":11806,"Ġoperators":11807,"ĠpalletNumber":11808,"ĠehrId":11809,"ĠpartyBuffer":11810,"zEuZXhhbXBsZS":11811,"earnPointsTransactions":11812,"ĠBlockchain":11813,"ĠtruckAsBytes":11814,"ĠtruckId":11815,"ĠtruckContract":11816,"getCompanyObject":11817,"ĠtraderKey":11818,"ĠresourceID":11819,"managingOrg":11820,"Ġattrfield":11821,"åı·":11822,"FactId":11823,"icker":11824,"ĠallowOverage":11825,"truckAsBytes":11826,"truckId":11827,"ĠAccessControl":11828,"ĠRetailerContract":11829,"Matching":11830,"ĠlastModifiedBy":11831,"Ġ*********":11832,"ĠpledgeId":11833,"ĠsrcBCOINJson":11834,"ĠdrugHistoryIterator":11835,"rivers":11836,"ĠcompensationNoTimes":11837,"Booking":11838,"bills":11839,"ĠproyectTo":11840,"LinkKey":11841,"]}}`);":11842,"ttp":11843,"ĠfinalScore":11844,"Ġmanu":11845,"ĠoverageFlag":11846,"testCollectionCCD":11847,"testCollectionMCD":11848,"ĠcreditNoteData":11849,"manufacture":11850,"ĠroamingPartnerName":11851,"UseId":11852,"ĠnomorAkta":11853,"ĠĉĠĠĠĠĠĠĠĠĉ":11854,"TagIndexKey":11855,"approverid":11856,"ernedIDs":11857,"ĠEXIST":11858,"landPaperList":11859,"queryPocResultsParse":11860,"ĠAadharNumber":11861,")*(":11862,"appInfoAsBytes":11863,"ĠbagsExpected":11864,"Ġsalary":11865,"ĠccloggerNamed":11866,"videoProvider":11867,"Ġreadings":11868,"emissions":11869,"cadenaAux":11870,"NETRO":11871,"overageFlag":11872,"yZzEuZXhhbXBsZS":11873,"ĠwalletToFund":11874,"Distribution":11875,"LOCKED":11876,"Places":11877,"Ġunder":11878,"California":11879,"ĠGlobalContext":11880,"=====================================================================":11881,"ĠoptedServices":11882,"UYER":11883,"spent":11884,"profileOldJSON":11885,"laboratoryId":11886,"extensions":11887,"ToVoteOn":11888,"UNKNOWN":11889,"receive":11890,"ĠManufacture":11891,"å¤§å":11892,"ĠiotDataFile":11893,"ĠtypeOfMedicalRecord":11894,"REVIE":11895,"Ġlanguage":11896,"ĠAddressContract":11897,"}\"}}]}}`);":11898,"Descriptor":11899,"OCCUPA":11900,"fficacy":11901,"Ġacidity":11902,"alDataCategory":11903,"shivani":11904,"ĠCrossChaincode":11905,"amily":11906,"someThingsToVoteOn":11907,"ĠPresidential":11908,"ĠFrancisco":11909,"ĠTemplate":11910,"ĠTenantInfo":11911,"ROLLMENT":11912,"OfferBidPrice":11913,"NETROLES":11914,"å¤§å£®":11915,"OCCUPATION":11916,"!')":11917,"\"');":11918,")-":11919,"456":11920,"728":11921,"?)');":11922,"Academic":11923,"BH":11924,"Blood":11925,"CER":11926,"Cycle":11927,"Creating":11928,"Dig":11929,"Del":11930,"EL":11931,"Gx":11932,"Given":11933,"Gdt":11934,"Host":11935,"ITI":11936,"ITH":11937,"KU":11938,"MD":11939,"Mj":11940,"Mz":11941,"MspID":11942,"NZ":11943,"PS":11944,"Prices":11945,"Qk":11946,"RUG":11947,"SK":11948,"Su":11949,"Sold":11950,"VB":11951,"World":11952,"Zone":11953,"\\\":{":11954,"]=":11955,"aa":11956,"aled":11957,"aadhaar":11958,"bre":11959,"blogs":11960,"cancel":11961,"credential":11962,"czE":11963,"eded":11964,"every":11965,"gm":11966,"jC":11967,"joi":11968,"kun":11969,"mno":11970,"mobile":11971,"rans":11972,"sor":11973,"sale":11974,"sGA":11975,"saW":11976,"ticket":11977,"vb":11978,"yz":11979,"}${":11980,"å·":11981,"Ġqu":11982,"ĠValue":11983,"ĠHistory":11984,"ĠOrg":11985,"ĠIssuer":11986,"ĠQuotation":11987,"ĠĠĠĠĠĠĠĉčĊ":11988,"ona":11989,"aritime":11990,"stma":11991,"stored":11992,"Ġ})));":11993,"Ġautoscale":11994,"itable":11995,"Ġtid":11996,"Ġrun":11997,"Store":11998,"Ġns":11999,"inger":12000,"Ġmeds":12001,"ssl":12002,"uri":12003,"ĠEn":12004,"ĠEst":12005,"ĠEfficacy":12006,"ĠnewTeam":12007,"ĠnewAssociation":12008,"Ġomspid":12009,"ĠĉĠĠĠĠĠĠĠ":12010,"oln":12011,"Ġpin":12012,"ĠpoliceRecord":12013,"ultAsBytes":12014,"ĠevaluationMeeting":12015,"isA":12016,"isUser":12017,"isTrue":12018,"Ġresources":12019,"ĠCount":12020,"ĠCalled":12021,"ĠClause":12022,"adj":12023,"ĠAmmend":12024,"Ġfe":12025,"Ġfaculty":12026,"Ġregistr":12027,"ĠqueryC":12028,"ĠqueryData":12029,"ĠqueryMobilenumber":12030,"stringQuery":12031,"assword":12032,"odities":12033,"Ġbackordered":12034,"ators":12035,"ĠcarOwner":12036,"Ġidenitity":12037,"Track":12038,"Ġgetting":12039,"Ġ19":12040,"Ġ================":12041,"uses":12042,"usultAsBytes":12043,"ilizer":12044,"deleteProperty":12045,"ĠChaincodeBase":12046,"Ġheight":12047,"Ġforge":12048,"Ġdoesnot":12049,"assetState":12050,"assetLease":12051,"())).":12052,"createC":12053,"ĠnewOwnerWallet":12054,"emergency":12055,"progress":12056,"Ġ22":12057,"(\"@":12058,"setPaid":12059,"ĠisEqual":12060,"########":12061,"used":12062,"ertilizer":12063,"newPO":12064,"forSale":12065,"Ġ404":12066,"ownerKey":12067,"ownerObject":12068,"numberOf":12069,"Ġcho":12070,"updateProperty":12071,"ĠdeleteState":12072,"asign":12073,"Proyect":12074,"ĠdonationAsBytes":12075,"ĠchangeOrder":12076,"ĠchaincodeID":12077,"mockHistoryQueryIterator":12078,"Delivering":12079,"One":12080,"RESULT":12081,"Initialize":12082,"COMPLETED":12083,"ObjId":12084,"Ġseeds":12085,"2018":12086,"NGE":12087,"ĠAssetUtil":12088,"ĠPA":12089,"ĠPRE":12090,"ĠPlace":12091,"transferFrom":12092,"ĠFABRIC":12093,"ĠFertilizer":12094,"addAsset":12095,"addProperty":12096,"Participant":12097,"Ġ=========')":12098,"Ġsuccessfull":12099,"Ġvoted":12100,"DrugObj":12101,"shipmentBuffer":12102,"ignal":12103,"getStateByPartialCompositeKeyWithPagination":12104,"aciÃ³n":12105,"Ġ'_'":12106,"ĠproductObj":12107,"CompanyList":12108,"propertyNumber":12109,"ĠbuyerCompanyKey":12110,"producto":12111,"eventName":12112,"Unauthorised":12113,"requestObject":12114,"ĠcallerID":12115,"sellerValue":12116,"Ġ`{":12117,"ĠDRUG":12118,"buyerValue":12119,"ĠĠĠĠĠĠĠĠĠĠĠĠĠĠĠĠĠĠĠĠĠĠĠĠĠĠĠĠĠĠĠĠĠĠĠĠĠĠĠĠĠĠĠ":12120,"ĠĠĠĠĠĠĠĠĠĠĠĠĠĠĠĠĠĠĠĠĠĠĠĠĠĠĠĠĠčĊ":12121,"(/\\":12122,"indexed":12123,"posure":12124,"currentEMRState":12125,"ĠtradingSymbol":12126,"INZ":12127,"ĠsetTime":12128,"ĠNetwork":12129,"Ġinspector":12130,"MyMachine":12131,"partial":12132,"partiesId":12133,"Accounts":12134,"104":12135,"105":12136,"certifier":12137,"BatchId":12138,"129":12139,"illager":12140,"Ġmatched":12141,"candidateInfoinJSON":12142,"ĠdonationIds":12143,"viewDrugCurrentState":12144,"ĠWeight":12145,"ĠHo":12146,"ĠHealth":12147,"ĠProvider":12148,"ĠProduce":12149,"ĠsenderMSPId":12150,"ĠexistingRequest":12151,"itemInfo":12152,"tokenOwnerMspId":12153,"testnet":12154,"ĠmemberId":12155,"Ġexpiration":12156,"Ġdoctors":12157,"msgSender":12158,"ĠtimeZone":12159,"Ġfileid":12160,"listingKey":12161,"landTitle":12162,"expired":12163,"Ġauthorize":12164,"rieved":12165,"ibrary":12166,"nodecontext":12167,"Ġcolour":12168,"158":12169,"ĠidentityResults":12170,"communityList":12171,"MCKA":12172,"MCsGA":12173,"approvedUserKey":12174,"approvedPropertyKey":12175,"Final":12176,"Finance":12177,"ĠproductIDKey":12178,"ĠUN":12179,"ĠUse":12180,"Ġmodify":12181,"emrAsBytes":12182,"patentID":12183,"ĠDevice":12184,"Ġsubmitter":12185,"ĠentityName":12186,"Ġpermissions":12187,"OrFalse":12188,"ĠpurchaseOrderKey":12189,"txnID":12190,"769":12191,"bankTransactionId":12192,"getUsername":12193,"getUserRequest":12194,"Ġsucceeded":12195,"matchPerCent":12196,"ĠStatistic":12197,"submitter":12198,"Manu":12199,"rsasign":12200,"ĠshipID":12201,"ĠkhoiTao":12202,"WaitingListAmmend":12203,"Customerloyaltynew":12204,"Ġagentdata":12205,"bookList":12206,"WhcN":12207,"ĠdeviceID":12208,"Ġoutgoing":12209,"DeliveryPlanList":12210,"]]==":12211,"]]){":12212,"Ġunits":12213,"Ġfetched":12214,"BankAccount":12215,"setStateValidationParameter":12216,"}]`);":12217,"Receipts":12218,"coordinate":12219,"RegistrarContract":12220,"ĠSuccessfully":12221,"UNION":12222,"permits":12223,"manufacturingDate":12224,"ĠMarket":12225,"UdIw":12226,"ĠeditAsset":12227,"xxx":12228,"ĠnomP":12229,"xGTAXBgNVBAoTEG":12230,"TABLET":12231,"Ġpushing":12232,"\\\":\\\"\"":12233,"Ġsaldo":12234,"MediGuard":12235,"tradingSymbol":12236,"proofs":12237,"Metrics":12238,"Ġoccurs":12239,"APPLIED":12240,"FabCar":12241,"HealthSystemContract":12242,"ĠCATCH":12243,"ĠrealDestination":12244,"draft":12245,"ĠWeather":12246,"AuditTrailEntry":12247,"BOOK":12248,"runQuery":12249,"ifeCycle":12250,"Ġskip":12251,"ĠFirstBatch":12252,"ervation":12253,"Ġdifferent":12254,"éĿ¢":12255,"Ġsorted":12256,"Ġadditional":12257,"NZI":12258,"QkMCKA":12259,"\\\":{\\\"":12260,"kunstma":12261,"isTrueOrFalse":12262,"WhcNMj":12263,"UdIwQkMCKA":12264,"kunstmaan":12265,".<%=":12266,"30000":12267,"350":12268,"747":12269,"82":12270,">'":12271,"AccKey":12272,"Bang":12273,"Byte":12274,"BLOG":12275,"Backordered":12276,"Cupp":12277,"Crn":12278,"Courses":12279,"Day":12280,"FN":12281,"FV":12282,"FZ":12283,"Fw":12284,"Fraud":12285,"Hex":12286,"IuZXhhbXBsZS":12287,"Je":12288,"Jh":12289,"KQ":12290,"LSP":12291,"Long":12292,"MTI":12293,"MSG":12294,"Ne":12295,"Need":12296,"OL":12297,"OVE":12298,"Pur":12299,"PRecord":12300,"Print":12301,"QyM":12302,"Red":12303,"Sig":12304,"Sug":12305,"Suspense":12306,"TL":12307,"Toll":12308,"TOKEN":12309,"USE":12310,"[])":12311,"\\/":12312,"\\\\":12313,"]';":12314,"])))":12315,"_[":12316,"_)[":12317,"ait":12318,"acon":12319,"auth":12320,"aadhaarNo":12321,"bitration":12322,"between":12323,"bundle":12324,"birth":12325,"cC":12326,"cg":12327,"cust":12328,"creds":12329,"cgpa":12330,"dChaincode":12331,"dull":12332,"eno":12333,"fra":12334,"fever":12335,"grower":12336,"hkey":12337,"hierarchy":12338,"highest":12339,"importer":12340,"jav":12341,"less":12342,"lsp":12343,"mant":12344,"nCheck":12345,"nSplit":12346,"opt":12347,"pM":12348,"pain":12349,"promise":12350,"plan":12351,"pubKey":12352,"times":12353,"ticker":12354,"wedding":12355,"zIuZXhhbXBsZS":12356,"}))":12357,"ĠZ":12358,"Ġ00":12359,"Ġ`);":12360,"ĠRESPONSE":12361,"ĠMSP":12362,"ĠgetStateByRangeWithPagination":12363,"ĠORG":12364,"Ġlicenses":12365,"erable":12366,"erByTravel":12367,"onn":12368,"around":12369,"arshall":12370,"Ġcn":12371,"Ġcages":12372,"Ġang":12373,"ĠaVal":12374,"letterId":12375,"Ġtypes":12376,"Ġconsent":12377,"StationId":12378,"Ġmis":12379,"Ġmand":12380,"Ġmsp":12381,"Ġmapp":12382,"valToHash":12383,"remain":12384,"replyPaper":12385,"deleting":12386,"anType":12387,"ures":12388,"ĠEarn":12389,"ncies":12390,"getKey":12391,"getResult":12392,"getMarblesByRange":12393,"getPatient":12394,"getMethod":12395,"ĠnewRequest":12396,"ĠnewBatch":12397,"ĠnewErrorMsg":12398,"ĠnewOrganization":12399,"ĠnewComponent":12400,"ĠnewRecieverBalance":12401,"ĠnewDataAttributes":12402,"ĠnewMesg":12403,"ĠnewOperationAttributes":12404,"eyJh":12405,"ĠĉĠĠĠĠčĊ":12406,"toCurrentBalance":12407,"ional":12408,"ĠreturnError":12409,"Statemant":12410,"Ġpw":12411,"Ġport":12412,"Ġestate":12413,"JSONData":12414,"JSONDrugDetailsForUpdation":12415,"isInvoice":12416,"isConfirm":12417,"ĠBurn":12418,"ĠBenc":12419,"ĠBarcode":12420,"traderId":12421,"queryResult":12422,"queryLogisticUnit":12423,"ĠCC":12424,"ĠCoin":12425,"ĠChairs":12426,"ĠCreation":12427,"InTravel":12428,"InInventory":12429,"ĠArg":12430,"ĠAllowance":12431,"Ġfname":12432,"Ġflavor":12433,"Ġdr":12434,"Ġdat":12435,"Ġdai":12436,"Ġdash":12437,"Ġdns":12438,"Ġdirection":12439,"Ġdimension":12440,"Ġrefund":12441,"Ġreferenc":12442,"Ġremoved":12443,"stringToUint":12444,"ĠĉĉĠĠĠĠĠĠĠĠĠĠĠĠĠĠĠĠĠĠĠ":12445,"Asx":12446,"edit":12447,"edPayload":12448,"():":12449,"()`);":12450,"Ġscore":12451,"ifying":12452,"ĠbVal":12453,"ĠblogNumber":12454,"Ġmeta":12455,"atory":12456,"ĠassetClass":12457,"ĠcarID":12458,"ĠcarAsset":12459,"ĠcarModel":12460,"ĠownerList":12461,"ĠownerMSPId":12462,"Ġstage":12463,"Ġstatistic":12464,"Reponse":12465,"Reference":12466,"Reason":12467,"ĠinsectActivity":12468,"Ġexamples":12469,"university":12470,"unappr":12471,"Ġnote":12472,"Ġnotes":12473,"ĠnotDeleted":12474,"artWork":12475,"Inclu":12476,"Ġtool":12477,"ĠtoBalanceKey":12478,"ĠtoUpdatedBalance":12479,"ccDecodedPayload":12480,"ĠpaperAsBytes":12481,"ĠgetMsg":12482,"ĠgetProject":12483,"ĠgetIdBytes":12484,"('==============":12485,"carSerialNumber":12486,"akeLogger":12487,"ĠnameKey":12488,"')];":12489,"ĠInvoking":12490,"ilities":12491,"ĠmodelId":12492,"loadPrices":12493,"ĠSec":12494,"ĠShare":12495,"returnObj":12496,"ByReward":12497,"ByManu":12498,"pushLogisticUnit":12499,"ForCustomer":12500,"ForNewNumber":12501,"AndTreated":12502,"ĠdoNothing":12503,"veHdr":12504,"ĠĉĉĉĠĠĠĠĠĠĠ":12505,"Ġendpoint":12506,"ĠendPlaces":12507,"())));":12508,"AndParams":12509,"createClass":12510,"createIdentity":12511,"ToAd":12512,"ToAdd":12513,"ToDigitalAssetEvent":12514,"stages":12515,"userTransactions":12516,"contr":12517,"CompositeKeyStatemant":12518,"ĠcreateValue":12519,"oldOwner":12520,"bearing":12521,"ĠstartPlace":12522,"ĠstartCoordinates":12523,"typeAnd":12524,"setKey":12525,"setFilled":12526,"ĠisVerbose":12527,"ĠisPenalized":12528,"ĠstateType":12529,"ĠstateMetadata":12530,"Loyalty":12531,"ĠresponseObject":12532,"erComm":12533,"newCandidate":12534,"newSenderBalance":12535,"newRecieverBalance":12536,"newCompanyObject":12537,"newPriceTravelPerPassenger":12538,"cialization":12539,"formed":12540,"Ġ40":12541,"ownerList":12542,"ĠtransferFile":12543,"ĠtransferByDeposit":12544,"ĠkeyRSA":12545,"ĠkeySSS":12546,"ĠinitResult":12547,"contractAddress":12548,"ĠdataValue":12549,"Ġdatasource":12550,"DataFrom":12551,"ĠfunctionAndParams":12552,"Ġwhat":12553,"WithLong":12554,"ĠmockHistoryQueryIterator":12555,"ĠmockSendMsg":12556,"ĠmockHandleGetStateMetadata":12557,"ĠdeleteCage":12558,"ĠcontractText":12559,"ĠuserSsn":12560,"asum":12561,"Ġattrs":12562,"ĠchangeCage":12563,"ĠchangeCondition":12564,"ĠdepartDate":12565,"elco":12566,"transactionList":12567,"ĠjsonPath":12568,"ORAL":12569,"ChaincodeBase":12570,"ChaincodeJs":12571,"ĠchaincodeProto":12572,"mockContext":12573,"mockTransaction":12574,"mockHandleGetStateMetadata":12575,"dataId":12576,"dataValue":12577,"agv":12578,"OnHold":12579,"ĠcurrentTeam":12580,"ĠcurrentAssociation":12581,"FromAsset":12582,"ĠtransOrderInfo":12583,"ĠtranserByTravel":12584,"Exchange":12585,"Executive":12586,"ĠresultKey":12587,"People":12588,"OfEnrollment":12589,"OfCompositeKeyStatemant":12590,"CallCheck":12591,"chains":12592,"ĠrecordInJSON":12593,"DELI":12594,"dedInTravel":12595,"ĠdrugCompositeKeyForSearch":12596,"ĠdrugBuf":12597,"ĠqueryAllData":12598,"listOfAsset":12599,"TheDrug":12600,"initialize":12601,"somepayload":12602,"donationAsBytes":12603,"chaincodeEvent":12604,"ĠreturnedBuy":12605,"},[])":12606,"ĠfromBalanceKey":12607,"ĠfromUpdatedBalance":12608,"ĠAssetContract":12609,"ĠPush":12610,"ĠPolicy":12611,"amountInt":12612,"aveled":12613,"ĠFood":12614,"verification":12615,"druglist":12616,"drugDetails":12617,"drugDetail":12618,"drugDataBuffer":12619,"drugBuf":12620,"addProofit":12621,"adderEmail":12622,"validDrugId":12623,"Ġ==>'":12624,"balanceAmt":12625,"ĠtransactionDescriptor":12626,"ĠMA":12627,"ĠbufferName":12628,"ĠbufferSymbol":12629,"ByPartialKey":12630,"ariat":12631,"ĠaddRecord":12632,"acilities":12633,"ĠtotalHoldValue":12634,"Ġcompanyname":12635,"ĠcompanyDataBuffer":12636,"Ġcompanycrn":12637,"companylist":12638,"Ġ>>":12639,"ĠtxArgs":12640,"Ġtxns":12641,"imo":12642,"TxIdArray":12643,"AddShipping":12644,"AddDrugBuffer":12645,"Utilization":12646,"ĠpriceDepositPerPassenger":12647,"ĠpriceForTime":12648,"ĠpriceForKm":12649,"fetchedState":12650,"patientKey":12651,"ĠhistoryResult":12652,"theID":12653,"theledger":12654,"productState":12655,"productlist":12656,"productDrugID":12657,"Ġupdatedshipment":12658,"ĠupdatedAllowance":12659,"Ġaroma":12660,"ĠtokenSupply":12661,"ĠtokenIssuer":12662,"Transit":12663,"Ġloginit":12664,"Unauthorized":12665,"requestAsBytes":12666,"requestBuffer":12667,"ĠcallDetails":12668,"ĠcallDetailIndex":12669,"handleGetPrivateDataHash":12670,"callEnd":12671,"callerMspId":12672,"ServiceClient":12673,"******":12674,"ĠelectionBuffer":12675,"Arbitration":12676,"ĠshipmentArray":12677,"ĠshipmentJSONData":12678,"ipo":12679,"ĠDigital":12680,"ĠDocument":12681,"ĠDigitalAsset":12682,"buyerDetails":12683,"ĠaccountKey":12684,"ĠaccountAsBytes":12685,"ĠstatusChange":12686,"hicles":12687,"ĠserialnumberOf":12688,"ĠhandlerClass":12689,"!!');":12690,"Ġless":12691,"Ġlname":12692,"ĠlspName":12693,"Ġlane":12694,"transports":12695,"ĠallParty":12696,"ClientLogged":12697,"ĠTLS":12698,"ĠregisterUser":12699,"processStub":12700,"bufferArgs":12701,"ĠbalancePrefix":12702,"____":12703,"comapnyBuffer":12704,"vehicleBytes":12705,"506":12706,"ĠNotaryId":12707,"MyMockStub":12708,"AccountKey":12709,"1022":12710,"certHash":12711,"generateCompanyID":12712,"ĠafterTaste":12713,"emailAddress":12714,"ĠABOVE":12715,"collectionMarbles":12716,"ĠcandidateList":12717,"poss":12718,"poObject":12719,"ĠGre":12720,"ĠGdt":12721,"ĠUserWallet":12722,"ĠcertJSON":12723,"ĠQueryState":12724,"ĠQueryResponse":12725,"ants":12726,"Ġjoin":12727,"ĠcpNumber":12728,"objType":12729,"wallets":12730,"ĠLSP":12731,"ĠLice":12732,"ĠbuyerCRNResponseRange":12733,"ĠprocessStub":12734,"ĠviewOrder":12735,"Ġpaths":12736,"ROOTC":12737,"PatientAccessCompositeKey":12738,"Confederation":12739,"viewHistory":12740,"viewerEmail":12741,"RegObj":12742,"ĠWITH":12743,"ĠĠĉĉĉčĊ":12744,"ĠtransporterResultsIterator":12745,"ĠprojectObj":12746,"TORED":12747,"timeUntilBeginTravel":12748,"ĠinfoStub":12749,"itemNumber":12750,"tokens":12751,"tokenDicom":12752,"ĠmedicationId":12753,"testOpts":12754,"Ġexpired":12755,"ĠMychaincode":12756,"projectPledges":12757,"Ġspeed":12758,"Ġspecialization":12759,"Ġroast":12760,"StartKey":12761,"EndKey":12762,"ĠpayByDeposit":12763,"Ġtimenow":12764,"Creators":12765,"checkAvailability":12766,"Ġ/(":12767,"ĠdrugKeyName":12768,"SALE":12769,"ĠvalToHash":12770,"ĠtestContract":12771,"ĠtransporterCRNResultsIterator":12772,"ĠtransporterCRNFound":12773,"POID":12774,"ingAllowed":12775,"ingAgency":12776,"ĠTotalSupply":12777,"ĠallowancePrefix":12778,"ĠpagedQrPayload":12779,"ĠinitialSupply":12780,"ĠoriginBalance":12781,"ĠoriginHoldValue":12782,"','');":12783,"ĠorgName":12784,"ĠtotalSupplyKey":12785,"transporterKey":12786,"Ġlands":12787,"1598":12788,"getPrivateDataHash":12789,"ĠlistOfAssetsLength":12790,"nswer":12791,"ĠmanufacturerFound":12792,"ĠVotingContract":12793,"ĠDataContract":12794,"RetailerCompanyCRNForComparision":12795,"optional":12796,"schemaPath":12797,"credits":12798,"ĠĉĉĉĉĉĉčĊ":12799,
[...]
